#version: 0.2
t h
th e</w>
a n
i n
e r
a r
e d</w>
o f</w>
e n
o r
t i
i n</w>
e r</w>
o n
an d</w>
r e
o n</w>
a l
s t
o s
a s</w>
a p
e s</w>
r o
i t
a t
i s</w>
in g</w>
o u
t o</w>
i c
a n</w>
ap os
& apos
&apos ;</w>
a l</w>
o r</w>
a m
e l
a c
i s
i l
e c
o l
e s
a s
a t</w>
u r
w as</w>
o m
c h
e n</w>
u n
r i
a ti
s i
d i
w h
l y</w>
e m
u s
l i
1 9
i r
l e
o w
a d
p l
a g
f or</w>
h e</w>
en t</w>
b y</w>
b e
s e
en t
v e</w>
i t</w>
c on
s u
it h</w>
d e
h a
v er
w ith</w>
n e
f or
l e</w>
a b
c om
a r</w>
th e
p ro
ou n
th at</w>
t h</w>
er e</w>
c e</w>
s h
i g
o c
m a
r a
o p
u l
er s</w>
ar e</w>
ati on</w>
s p
f ro
fro m</w>
b u
` `</w>
c l
h is</w>
2 0
t s</w>
p ar
n o
o o
v i
e x
c h</w>
ti on</w>
t er</w>
d s</w>
s t</w>
th er</w>
q u
st r
on s</w>
m o
t er
it y</w>
t ed</w>
a u
w or
t r
p er
m an
p re
d u
p e
in g
at e</w>
es t</w>
i m
ic h</w>
on e</w>
b er</w>
m e
am e</w>
w e
c o
m ar
e v
a f
al l</w>
at ed</w>
s o</w>
d e</w>
wh ich</w>
20 0
f ir
a y</w>
a y
al l
b e</w>
ow n</w>
w ere</w>
e ar
al ly</w>
c i
u m
t o
i a</w>
b o
f f
t a
g h
d ed</w>
l d</w>
i c</w>
t e
fir st</w>
i r</w>
p h
i es</w>
al so</w>
ar y</w>
d ing</w>
g e</w>
ti m
it s</w>
re c
u s</w>
r an
s er
f e
th is</w>
b l
k e</w>
p or
on al</w>
h as</w>
1 8
ou t</w>
h i
in e</w>
os t</w>
t w
ag e</w>
v er</w>
d er
l o
d er</w>
g i
b ec
h er</w>
cl u
t ur
ro u
c ol
ha ve</w>
l and</w>
b r
ha d</w>
af ter</w>
o ther</w>
en g
for m
p u
on g</w>
t y</w>
em ber</w>
p o
ar d</w>
a v
g re
k n
f l
om e</w>
g e
the y</w>
ou r
ig h
g o
n or
as t</w>
bu t</w>
ic al</w>
no t</w>
v ed</w>
f i
c oun
g en
g r
g u
b or
the ir</w>
c ar
h e
d is
du c
i d
or e</w>
com m
m in
m il
a d</w>
at es</w>
c ent
k s</w>
ne w</w>
b er
ti c
at er</w>
n ati
com p
p i
g h</w>
l an
k e
m ost</w>
s ec
l a
s y
k ing</w>
es s</w>
ou s</w>
s he</w>
t e</w>
tw o</w>
us ed</w>
st or
t ro
am er
in clu
as s
wh o</w>
ent s</w>
pl e</w>
an t</w>
i an</w>
s e</w>
m an</w>
p r
0 0</w>
e l</w>
wh en</w>
el l
amer ic
w i
ac e</w>
m ent</w>
kn own</w>
19 9
is h</w>
l ar
t ing</w>
ad e</w>
a m</w>
un i
t en
s ou
c re
st e
man y</w>
j o
m on
it ed</w>
sp ec
v el
m u
be en</w>
ic e</w>
pl ay
tim e</w>
s on</w>
en ce</w>
is h
is t</w>
t u
f in
pre s
il l
oun d</w>
in ter
d es
e t</w>
el l</w>
r ic
a st
us e</w>
es e</w>
t ri
ou ld</w>
a w
i z
a in
s ch
d ec
d o
b ri
wor ld</w>
gh t</w>
in to</w>
p ol
d ur
n ed</w>
c or
u m</w>
p os
al s</w>
c an</w>
er n</w>
w il
ac k</w>
it e</w>
re e</w>
as ed</w>
nati onal</w>
on ly</w>
ch ar
i al</w>
bor n</w>
e d
i d</w>
sh i
m ore</w>
f r
dur ing</w>
c all
i on</w>
o f
be t
th ere</w>
an g
ab le</w>
u c
u p</w>
t or
t ra
us t</w>
ma y</w>
e p
s ome</w>
ati ons</w>
p ri
o ff
c an
es s
o g
re s</w>
y ear
c ity</w>
ti ons</w>
an s</w>
at t
20 1
19 8
ol d</w>
ou r</w>
t en</w>
r it
americ an</w>
s m
l es</w>
call ed</w>
ur e</w>
g er
b ur
m ade</w>
a k
e st
an ce</w>
il e</w>
ab out</w>
si on</w>
i st
year s</w>
an d
l ow
n am
su ch</w>
f am
ac h</w>
v is
el ec
ti c</w>
h el
t on</w>
un ited</w>
u e</w>
bec ame</w>
en ti
st ar
in s</w>
ar e
ing s</w>
o w</w>
j u
st u
in ce</w>
y e
t or</w>
a ir
m at
19 7
il y</w>
ac h
el y</w>
b ro
th ou
s a
th an</w>
o ver</w>
c ap
ti es</w>
r u
v ing</w>
st ates</w>
u ary</w>
we en</w>
bet ween</w>
wh ere</w>
c a
b i
d ay</w>
c es</w>
p en
oo d</w>
l oc
par t</w>
f t</w>
l ater</w>
n ing</w>
s ing
ar m
igh t</w>
c ri
ver s
n um
t y
sec on
os e</w>
s ur
oo k</w>
19 6
w in
s ti
k ed</w>
on g
f ol
pro duc
con t
b el
e u
d y</w>
p s</w>
ol og
rec or
th ree</w>
ti s
f u
ye ar</w>
r ed</w>
ver y</w>
gen er
f a
n i
c u
p op
h ar
an y</w>
f il
c ur
v es</w>
t re
re le
as e</w>
th en</w>
shi p</w>
19 4
c al
e t
st ate</w>
bu il
ev er</w>
or g
ish ed</w>
f er
th ese</w>
g rou
th rou
si c</w>
wh ile</w>
hi m</w>
d r
n ame</w>
s ol
an n
l in
f ran
pe o
w rit
d ent</w>
w ould</w>
em ent</w>
go ver
w ay</w>
su b
h ou
ul ar</w>
f e</w>
peo ple</w>
ti ve</w>
oo l</w>
c r
si g
am es</w>
sou th</w>
b le</w>
for e</w>
tur e</w>
s k
ar i
be g
secon d</w>
o b
uni vers
a in</w>
1 7
or y</w>
d es</w>
p t
p p
w ar</w>
ch am
se as
h er
po in
in ed</w>
en d</w>
at ing</w>
re l
or s</w>
ser v
al bu
19 5
w est</w>
i l</w>
no v
s el
h o
s o
e g
nor th</w>
are a</w>
or ig
b ar
di ff
r y</w>
ay s</w>
v ol
wor k</w>
am p
g ro
st s</w>
, 0
li ke</w>
w ell</w>
un e</w>
mu sic</w>
m us
w ar
d re
inclu ding</w>
v en</w>
l ed</w>
di rec
gover n
ec t</w>
au str
univers ity</w>
j an
m p
austr al
h ow
jo h
thou gh</w>
in di
be fore</w>
e -
oc i
tis h</w>
se ver
de vel
m s</w>
ser ies</w>
bo th</w>
fol low
m e</w>
su l
e i
tr an
hi stor
ti l</w>
u ally</w>
b as
n o</w>
m em
un til</w>
th er
t el
p e</w>
c er
c ul
tim es</w>
h ig
i i</w>
st ri
fam ily</w>
h ol
pl an
ma j
v al
ac t</w>
throu gh</w>
ur y</w>
di ed</w>
t t
ch il
a z
f ic
rele ased</w>
w on</w>
seas on</w>
cham pi
num ber</w>
nam ed</w>
a use</w>
f ound</w>
wi th
spec ies</w>
por t</w>
lar g
si de</w>
g ar
c ed</w>
org an
ear ly</w>
d ic
str uc
the m</w>
no w</w>
un der</w>
s ince</w>
sch ool</w>
e ach</w>
albu m</w>
,0 00</w>
devel op
bec ause</w>
te am</w>
be ing</w>
orig in
eu ro
ap pe
ste m</w>
li c</w>
how ever</w>
grou p</w>
se pt
19 3
f our</w>
sever al</w>
m i
sept ember</w>
in a</w>
d on</w>
n er</w>
pu bl
c c
f re
b and</w>
d o</w>
om e
re gi
b re
per i
b an
ri ver</w>
h u
au g
li on</w>
at h</w>
al e</w>
bri tish</w>
op er
tr y</w>
su p
1 6
for m</w>
off ic
h y
0 s</w>
t le</w>
diff er
cont in
of ten</w>
por t
coun ty</w>
lar ge</w>
t ec
con si
ro c
pu b
ir e</w>
w al
sy stem</w>
lo w</w>
oc to
1 0</w>
p ow
octo ber</w>
l ish</w>
th ern</w>
form ed</w>
we st
r e</w>
b ers</w>
ac k
an t
p ical</w>
le y</w>
cent ury</w>
j une</w>
l ine</w>
r is
wil l</w>
sm all</w>
su cc
s ame</w>
play ed</w>
pub lic</w>
b all</w>
v en
f ac
d en
ke y</w>
ma in</w>
st er</w>
aug ust</w>
ar ound</w>
b est</w>
s ci
ag es</w>
f oun
19 2
t own</w>
s en
pre si
jan uary</w>
ar ch
m is
a th
as s</w>
eng lish</w>
ar ds</w>
i f</w>
n at
or t</w>
ent ly</w>
dec ember</w>
mar ch</w>
fil m</w>
pl ac
un d</w>
des ig
str ic
ju ly</w>
v ic
maj or</w>
g ra
w ater</w>
n s</w>
beg an</w>
p al
st ed</w>
joh n</w>
ta in</w>
ro y
v ari
co ver
tic al</w>
ic s</w>
me t
z e</w>
ain st</w>
ag ainst</w>
os s</w>
m ic
c y
ati ve</w>
nov ember</w>
fi el
li fe</w>
m ag
hou se</w>
a ir</w>
ri l</w>
e ast</w>
g ame</w>
b ir
y or
v e
c our
an im
olog y</w>
iz ed</w>
st an
st re
v o
ap ril</w>
lan ds</w>
am s</w>
p ic
d el
it al</w>
s s</w>
f oo
v ir
l ong</w>
th ir
s ome
sh ow</w>
g a
as h
pro f
d ge</w>
pl ace</w>
er ed</w>
d en</w>
g ames</w>
l on
hig h</w>
h igh
govern ment</w>
is ion</w>
appe ar
ph il
cent r
comp le
1 0
l l</w>
2 0</w>
an e</w>
gr ap
c ep
1 5
tro pical</w>
ger man</w>
fu l</w>
o d</w>
d em
fr en
ex am
&apos ;
ch an
e k</w>
b ack</w>
sti tu
s .</w>
d a
fe br
febr uary</w>
cent er</w>
ag ue</w>
y oun
l it
mo ved</w>
b il
u p
inter national</w>
in c
k m</w>
s w
b ased</w>
m er
col l
t es</w>
mo vi
m or
on ship</w>
19 1
y s
j ap
ma in
r us
ou t
fren ch</w>
n a</w>
em p
e w
mil lion</w>
pop ul
m id
g l
w om
f ri
y o
differ ent</w>
is m</w>
me d
cur r
om in
le ad
ti onal</w>
fe at
lan gu
follow ing</w>
yor k</w>
is land</w>
char ac
di d</w>
f un
al though</w>
3 0</w>
y ing</w>
s ong</w>
ne y</w>
ar ti
t ers</w>
inclu de</w>
fa ther</w>
gre at</w>
s c
di stric
n e</w>
mo der
c as
re g
presi dent</w>
vis ion</w>
ar t</w>
su m
h ur
on -
im port
wil li
se t</w>
rec ei
f ul
gener al</w>
d in
ne w
it al
ti v
is e</w>
lon don</w>
se a</w>
larg est</w>
un der
sa id</w>
le ague</w>
li ght</w>
t ook</w>
re tur
on y</w>
200 7</w>
u res</w>
em per
di tion</w>
us ing</w>
h or
m ember</w>
u al</w>
ne ar</w>
i tion</w>
p at
us ually</w>
tel ev
de ath</w>
os s
c op
s al
c ould</w>
an other</w>
h an
1 2</w>
do m</w>
es si
t ly</w>
o m</w>
der ed</w>
eng land</w>
b ook</w>
pl ay</w>
fi ve</w>
l ast</w>
h al
201 0</w>
1 5</w>
de pen
ch ur
me di
ta k
g er</w>
sp e
p an
ev en</w>
t a</w>
o s</w>
i ti
comm on</w>
pres ent
re sul
c at
h un
200 8</w>
d own</w>
r en
o ver
b al
west ern</w>
l u
h ome</w>
telev ision</w>
pro v
h on
col le
ch e
d oc
m oun
d ra
r ing</w>
mar ri
e an</w>
c y</w>
t ow
al ong</w>
austral ia</w>
or der</w>
r ac
em s</w>
i f
ar ch</w>
on om
200 6</w>
ow s</w>
mu ch</w>
i e
di o</w>
fl u
fiel d</w>
in es</w>
re st
sp on
hel d</w>
s qu
di st
li m
h en
ber t</w>
p ass
op en
i str
star ted</w>
ch em
b a
ma ke</w>
in v
b ed</w>
d ro
contin u
a k</w>
des cri
e y</w>
d an
sing le</w>
k ing
mem bers</w>
le ft</w>
e qu
b us
sel f</w>
ec ts</w>
l ing</w>
con tro
w ard</w>
chil dre
t -
com pe
e ff
ser ved</w>
childre n</w>
p er</w>
he ad</w>
b en
movi e</w>
histor y</w>
centr al</w>
grap h
buil t</w>
w at
par k</w>
am m
d a</w>
import ant</w>
champi onship</w>
stor m</w>
l er</w>
aw ard</w>
co t
tran s
loc ated</w>
2 5</w>
sti ll</w>
thir d</w>
t ball</w>
1 1</w>
par ty</w>
ti on
ou s
a di
coun try</w>
ass oci
. s.</w>
as si
m en</w>
l ess</w>
g s</w>
arm y</w>
ch ang
g o</w>
w n</w>
w e</w>
moder n</w>
comp any</w>
gi ven</w>
c am
d -
d ar
mat ch</w>
200 9</w>
l ou
ar ly</w>
o p</w>
with in</w>
200 5</w>
hur ric
g ran
ent al</w>
ol y
fran ce</w>
e ty</w>
af ric
h um
qu e
fi ed</w>
ec ted</w>
form er</w>
b att
b ra
roy al</w>
i e</w>
th ers</w>
of f</w>
c ro
in e
comp os
1 6</w>
origin al</w>
en s</w>
distric t</w>
roc k</w>
c e
y s</w>
b on
cre ated</w>
c ir
k er</w>
il l</w>
p ur
tr ac
to p</w>
v el</w>
ur al</w>
ell s</w>
ne x
wh ite</w>
u .s.</w>
si an</w>
ap p
di vision</w>
y -
th em
wh at</w>
m er</w>
18 9
gr ad
19 0
regi on</w>
poin t</w>
exam ple</w>
b s</w>
peri od</w>
l ate</w>
ic i
o t</w>
f ace</w>
b oo
tic s</w>
publ ished</w>
e ast
bo dy</w>
for d</w>
au th
c el
vel y</w>
w ent</w>
pr in
ch es</w>
colle ge</w>
chur ch</w>
a ur
i ally</w>
1 4</w>
ter m</w>
americ a</w>
1 3</w>
yo u</w>
in f
ap pro
sy m
d ers</w>
est ab
bec ome</w>
cover ed</w>
s our
si mil
t al</w>
n ia</w>
ger many</w>
s oci
n ic
1 8</w>
writ ten</w>
d ri
j ect</w>
de f
hurric ane</w>
ig n</w>
se arch</w>
sh ar
5 0</w>
201 1</w>
l y
some times</w>
ex pl
ad v
s ong
w a
comm un
du e</w>
pro vi
v il
at or</w>
ati c</w>
t an
us es</w>
cal i
fe der
li ve</w>
2 1</w>
th s</w>
s es</w>
at ely</w>
ac cor
tec h
1 7</w>
au gh
si x</w>
th ose</w>
t ex
youn g</w>
an ti
recei ved</w>
re spon
oly mp
willi am</w>
ti tle</w>
in ing</w>
pow er</w>
nex t</w>
euro pe
l a</w>
m al
s il
cl os
se e</w>
play er</w>
at s</w>
qu e</w>
foo tball</w>
bl ack</w>
s cot
p ain
wor ks</w>
j ust</w>
g ed</w>
wom en</w>
e p</w>
d on
w in</w>
mo ther</w>
min ist
ad a</w>
o k
m os
langu age</w>
l ong
ro te</w>
ag o</w>
r un
produc ed</w>
d ays</w>
c o</w>
ic k</w>
tri es</w>
g n
pop ular</w>
ing ton</w>
car e
k i
re ad
li gh
1 4
estab l
par t
c ame</w>
l or
cl a
m c
w rote</w>
fe w</w>
f ur
amp ;</w>
& amp;</w>
pro c
ad em
loc al</w>
am ong</w>
se qu
o t
sou thern</w>
ro le</w>
o x
h in
king dom</w>
en d
s ite</w>
la w</w>
serv ice</w>
re fer
m ents</w>
austral ian</w>
marri ed</w>
2 4</w>
nor thern</w>
develop ed</w>
g al
t al
st ar</w>
popul ation</w>
re ma
n av
iz ation</w>
pol i
m ul
fam ous</w>
mil es</w>
ha m</w>
plac ed</w>
st y
inclu ded</w>
d ence</w>
si ve</w>
en a</w>
em ents</w>
ta ins</w>
to ge
europe an</w>
form ation</w>
recor d</w>
it ary</w>
accor ding</w>
ec tion</w>
e f
toge ther</w>
t our
il s</w>
fin al</w>
mar y</w>
w rest
con n
m ol
fl or
on es</w>
b c</w>
ro ad</w>
h ear
at ten
d am
cali for
st at
u tion</w>
ir ed</w>
bur g</w>
vi de
par ts</w>
euro pe</w>
m y</w>
simil ar</w>
man ag
d ou
an ci
tor s</w>
is ed</w>
2 3</w>
s ed</w>
re qu
in depen
d augh
18 8
ic k
c le
st ation</w>
a e</w>
18 6
califor nia</w>
s an
k a</w>
bri dge</w>
en ces</w>
sig ned</w>
l ab
er y</w>
ach ed</w>
200 4</w>
cap ital</w>
r oss</w>
1 9</w>
ge or
in cre
ty pe</w>
eng th</w>
n on-
vic tor
por ted</w>
er g
w ays</w>
f our
buil ding</w>
wi de</w>
2 2</w>
sp or
be l</w>
k es</w>
2 8</w>
ag ain</w>
ac tion</w>
prof essi
clu b</w>
uni on</w>
in ten
an a</w>
succ ess
ac adem
b ran
par tic
p t</w>
ma king</w>
h am
sh ort</w>
re f
elec ted</w>
c ast
ri ght</w>
for ce</w>
di es</w>
el s</w>
1 00</w>
j ames</w>
i ties</w>
bo ard</w>
re co
pos ition</w>
oc k</w>
foun ded</w>
e w</w>
coun tries</w>
1 .
si ble</w>
le g
writ er</w>
re li
elec tr
se tt
wi fe</w>
s it
er ing</w>
sh or
to tal</w>
b ul
i o</w>
18 7
wor ked</w>
ti n</w>
su per
gr and</w>
200 3</w>
ge t</w>
2 6</w>
v ill
s un
east ern</w>
care er</w>
are as</w>
h ard</w>
i de</w>
if ic</w>
a u</w>
ow ed</w>
200 0</w>
he av
batt le</w>
rel ati
f em
ph ys
d y
am a</w>
h om
ke t</w>
in stitu
2 7</w>
ver sion</w>
u t
x im
p ec
con cer
a x
tra di
is lands</w>
c ra
i de
ev ent</w>
con struc
gro und</w>
an ts</w>
m y
w ing</w>
wor d</w>
p it
k ill
d ents</w>
con duc
se ven</w>
s em
oun ced</w>
e very</w>
ex ten
recor ded</w>
with out</w>
li es</w>
in du
nor th
ul t</w>
aw ards</w>
n a
l s</w>
ab ly</w>
is o
l in</w>
st one</w>
re search</w>
at a</w>
re si
at ure</w>
n al</w>
in flu
ear th</w>
p ed</w>
sec re
vide o</w>
h all</w>
com b
m el
ro man</w>
min istr
consi dered</w>
su g
1 3
le vel</w>
def en
fr on
mil itary</w>
c amp
par ti
de fe
inclu des</w>
ec onom
m a</w>
h oc
th ing</w>
to day</w>
vi l</w>
ous ly</w>
he ad
b it
b ac
st ra
k ar
direc tor</w>
n ight</w>
si a</w>
m un
e y
re present
d le</w>
continu ed</w>
g ol
i ds</w>
ta ke</w>
2 9</w>
hum an</w>
chan ge</w>
professi onal</w>
al ity</w>
r ul
jo ined</w>
ha ving</w>
de l</w>
4 0</w>
ec u
minist er</w>
char les</w>
ep iso
squ are</w>
ti an</w>
is su
s oc
r ace</w>
prov ince</w>
mus e
ter rit
mo v
f ree</w>
co ast</w>
lan d
vari ous</w>
in vol
s we
re public</w>
li ving</w>
e duc
l ost</w>
establ ished</w>
cy cl
qu ar
ab il
se par
pres ent</w>
ist s</w>
ac tor</w>
oc cu
k in
an ese</w>
k o
ch ris
200 1</w>
o thers</w>
hoc key</w>
i p
or che
orche str
form s</w>
sum mer</w>
n ess</w>
daugh ter</w>
de st
w ood</w>
w id
nat ural</w>
per son</w>
ci p
i m</w>
geor ge</w>
olog ical</w>
for ces</w>
t ation</w>
h im
ci l</w>
in tro
st -
pre vi
develop ment</w>
0 -
r a</w>
m i</w>
jap an</w>
g es</w>
off ice</w>
op h
t able</w>
ne t
g ood</w>
j os
air port</w>
z e
fun c
erg y</w>
0 .
e ts</w>
recor ds</w>
duc ed</w>
sci ence</w>
b a</w>
on ce</w>
sp an
per s
offic ial</w>
tu res</w>
mat er
f el
charac ter</w>
ac c
st ing</w>
ol s</w>
col or</w>
s ain
ph o
origin ally</w>
k or
ro un
pro b
poli tical</w>
lit tle</w>
ch ed</w>
p ap
hel p</w>
18 5
descri bed</w>
d ate</w>
sur face</w>
op en</w>
do es</w>
ac ti
vi ew</w>
st on</w>
me th
appear ed</w>
spec ial</w>
bus in
en e</w>
al th</w>
coun cil</w>
201 2</w>
st and
com e</w>
c le</w>
as h</w>
stor y</w>
indi a</w>
st age</w>
g ir
aw ar
pl es</w>
or ity</w>
gre en</w>
jap anese</w>
al ist</w>
retur ned</w>
t em
s l
fi f
tri bu
0 ,000</w>
s ha
se en</w>
j er
ra il
p a
ran ge</w>
t om
200 2</w>
p es</w>
le t</w>
di a</w>
d ings</w>
t ar
k il
ga ve</w>
1 2
ma y
le av
ul a</w>
ber g</w>
c up</w>
sur vi
ac ross</w>
sing er</w>
open ed</w>
c en
ver s</w>
stu dy</w>
poin ts</w>
p ac
ur ed</w>
th re
an o</w>
shi ps</w>
ou gh</w>
on ed</w>
at lan
in iti
ch r
os aur
en ergy</w>
la ke</w>
a h</w>
tak en</w>
e ds</w>
ab o
pri ze</w>
d omin
pr is
u es</w>
que en</w>
m ur
li ved</w>
com pu
stre et</w>
gre ek</w>
af f
olymp ic</w>
f ig
ann ounced</w>
o graph
h ow</w>
sty le</w>
s cal
rus sian</w>
ie f</w>
de fin
ta in
op s</w>
pos ed</w>
contro l</w>
m ex
ev ol
academ y</w>
muse um</w>
nati ve</w>
al most</w>
per for
mex ic
ev ent
1 ,
tech n
elec tion</w>
produc tion</w>
compe ti
vi ew
al i
sou th
l ati
pl ic
lin es</w>
song s</w>
ag ed</w>
s ent</w>
pp er</w>
le a
ou th</w>
grad u
can ada</w>
sm all
s or
lo ve</w>
w ash
sci enti
ear li
perfor man
n er
ad ministr
bro ther</w>
s an</w>
emper or</w>
aw ay</w>
3 1</w>
grou ps</w>
comm it
th om
resul t</w>
m en
hen ry</w>
wh e
f ish</w>
st .</w>
fl ow
vi ol
i re
sh ire</w>
ne ver</w>
s at
fir e</w>
au stri
a il
t our</w>
so on</w>
cour t</w>
li ed</w>
in ste
cep t</w>
at ors</w>
associ ation</w>
w s</w>
pres sion</w>
soci ety</w>
ro bert</w>
par is</w>
curr ent</w>
r os
en ds</w>
w oo
con stitu
bro ad
t emper
pu t</w>
m ac
si m
k el
n omin
p un
me ans</w>
afric a</w>
ch o
b our
f ood</w>
thou ght</w>
le ast</w>
play ing</w>
st ly</w>
l ength</w>
me an
mar k</w>
hal f</w>
dis covered</w>
an ia</w>
throu gh
r ap
de gre
ne l</w>
star s</w>
pi ec
gra m</w>
au l</w>
orchestr a</w>
ic es</w>
sy n
wor king</w>
br it
k en
boo ks</w>
st er
so vi
as ia</w>
str ong</w>
st ems</w>
vi du
soc ial</w>
b ay</w>
indi vidu
ca used</w>
l ad
ital ian</w>
c er</w>
mon ths</w>
si ze</w>
18 4
m ust</w>
ei ther</w>
anci ent</w>
through out</w>
mic ha
i um</w>
ni fic
om s</w>
mul ti
s am
can adi
att emp
uc le
on ic</w>
o -
e ight</w>
pro gram</w>
chang ed</w>
sh e
u k</w>
k y</w>
emp ire</w>
we e
st ant</w>
sup port</w>
ra dio</w>
p ul
man s</w>
s ar
ent ed</w>
awar ded</w>
sp ort</w>
ist an</w>
tre ss</w>
publ ic
anim als</w>
co -
ri st
enti al</w>
chil d</w>
il ed</w>
ev ed</w>
d i</w>
i ons</w>
di vi
w r
d est</w>
2 .
s ing</w>
ag re
199 9</w>
l ist</w>
i ed</w>
ru n</w>
in k</w>
ang el
o l</w>
gener ally</w>
per formed</w>
reco gn
a ver
n u
le ad</w>
f all</w>
at ory</w>
mo stly</w>
si ons</w>
j ects</w>
tur al</w>
m ec
re ached</w>
id a</w>
pl ant</w>
lo s</w>
gu it
ri gh
m ad
lit er
comp an
bec om
span ish</w>
me as
plan ts</w>
ap poin
desig n</w>
n ucle
all s</w>
ti t
en cy</w>
att ack</w>
lati n</w>
cla im
c ar</w>
sh ould</w>
ess or</w>
d ow
ch in
th ro
sig nific
f ar
ta ined</w>
chem ical</w>
ch ina</w>
n ar
lou is</w>
ter min
sp ace</w>
p aul</w>
ati c
sh ap
de part
s old</w>
f es
c ase</w>
d or
t v</w>
cl es</w>
low er</w>
t ch</w>
fran c
rel ated</w>
ch ic
it z
mid dle</w>
j our
vel s</w>
organ ization</w>
sovi et</w>
b it</w>
reli gi
play ers</w>
or ies</w>
su s</w>
f -
abil ity</w>
abo ve</w>
bl ue</w>
201 3</w>
spec i
te ams</w>
stu dio</w>
l at
vill age</w>
cl ass
tr ack</w>
str y</w>
i ded</w>
. .</w>
. ..</w>
ent er
199 8</w>
e m</w>
four th</w>
atlan tic</w>
g est</w>
da vi
curr ently</w>
phil i
inste ad</w>
him self</w>
ci vil</w>
am ent</w>
ro b
cor por
pl o
ain ed</w>
h l</w>
du ce</w>
tri c</w>
es pec
m ach
b ly</w>
te en</w>
su ff
s -
ol e</w>
o ds</w>
in ning</w>
mov ement</w>
feder al</w>
d ance</w>
wash ington</w>
ch rist
c ells</w>
ro und</w>
event ually</w>
6 0</w>
espec ially</w>
a -
ul arly</w>
ic ally</w>
re st</w>
ad dition</w>
par li
g en</w>
bi g</w>
id enti
s ure</w>
n ers</w>
bel i
ac tive</w>
m ig
comm only</w>
w an
v ent
pos sible</w>
vi a</w>
tradi tional</w>
eng ine
ca th
re vol
n y</w>
n ation</w>
follow ed</w>
u r</w>
e ded</w>
e th
oc ean</w>
ac tress</w>
pol ice</w>
en ded</w>
o v
att ac
s of
ev ents</w>
199 4</w>
up on</w>
me t</w>
m it
in ation</w>
w we</w>
ol ic</w>
comm er
pro te
e as
si mp
met res</w>
th us</w>
med al</w>
ell ing</w>
the ast</w>
m ass
ty pes</w>
success ful</w>
er o
wal es</w>
te e</w>
l am
cl ose</w>
b ou
refer red</w>
ch ess</w>
high est</w>
ch ief</w>
cap e</w>
b es</w>
form ula</w>
desig ned</w>
con tr
or ed</w>
govern or</w>
feat ures</w>
car ri
pri me</w>
20 0</w>
re ported</w>
kill ed</w>
v an</w>
p ak
ic a</w>
lead er</w>
struc ture</w>
sk y</w>
gre at
fur ther</w>
sy stems</w>
al ex
m ass</w>
stu died</w>
s af
f le
the ory</w>
re -
du ke</w>
8 0</w>
t ter</w>
vir g
m ed</w>
er a</w>
b y
18 3
arti st</w>
we ight</w>
fron t</w>
fem ale</w>
spor ts</w>
in formation</w>
nam es</w>
min or</w>
indepen dent</w>
ar s</w>
ar ri
am ed</w>
pr ince</w>
ver se</w>
sh ows</w>
ish ing</w>
i or</w>
si x
our s</w>
proc ess</w>
pro mo
l ay
c ast</w>
busin ess</w>
199 7</w>
ser ve</w>
ra ther</w>
p on
r .</w>
ital y</w>
er -
u k
re ti
thom as</w>
t ary</w>
gran d
go t</w>
l oo
h os
es tim
win ter</w>
educ ation</w>
e a</w>
vil le</w>
mo ve</w>
al ter
o d
ci ties</w>
be th</w>
ra di
an -
rele ase</w>
i ii</w>
sa w</w>
ac tiv
str um
commun ity</w>
sett l
nor m
g a</w>
d ol
cr oss
z o
en vir
pri v
succ ess</w>
st ers</w>
ci al</w>
c ell
3 .
in strum
pro tec
ful l</w>
out side</w>
est er</w>
doc um
d om
c ou
t un
j ew
fe et</w>
episo de</w>
ro man
envir on
ex ecu
an al
gen e
bir ds</w>
st ance</w>
m ir
comm is
in o</w>
s us
re as
pro per
ac hi
199 5</w>
sp ir
w ell
indi an</w>
ach ing</w>
performan ce</w>
nat ure</w>
min u
i ans</w>
ric hard</w>
r am
micha el</w>
institu te</w>
h it</w>
en ed</w>
e ver
t op
ro w</w>
h ap
c a</w>
ban k</w>
th es
fes tiv
dem oc
chin ese</w>
oper a</w>
ill s</w>
&apos; t</w>
coun t</w>
si r</w>
mexic o</w>
g old</w>
col um
re placed</w>
pac ific</w>
intro duced</w>
champi on</w>
wrest ling</w>
rema ined</w>
lead ing</w>
g or
de but</w>
col on
mol ec
hin d</w>
f ar</w>
ex per
beg inning</w>
righ ts</w>
pres s</w>
nov el</w>
li br
fre qu
di tions</w>
cra ft</w>
ful ly</w>
pl at
bel ow</w>
sour ce</w>
om et
li ber
depart ment</w>
ber lin</w>
mag az
av ail
n ec
chris tian</w>
bet ter</w>
in dic
for t</w>
ac e
1 -
y m
small er</w>
con v
rou ght</w>
s n
al -
g ri
am oun
flor ida</w>
an g</w>
j a
de pression</w>
mec han
larg er</w>
g lo
ed ward</w>
b on</w>
davi d</w>
commit tee</w>
it self</w>
h ill</w>
ent ary</w>
degre e</w>
199 6</w>
in -
b ia</w>
ad s</w>
se at</w>
ho t</w>
aver age</w>
appro xim
ro l
es sion</w>
cl ar
su n</w>
mean ing</w>
man u
val ley</w>
territ ory</w>
di g
cl ass</w>
ad ded</w>
dis ney</w>
ati onal</w>
rail way</w>
for e
fic ation</w>
ar ts</w>
cer tain</w>
f o
ex ist
b ase</w>
u g
it ing</w>
stu dents</w>
iz e</w>
stan ding</w>
n es
b an</w>
appoin ted</w>
t ting</w>
ire land</w>
con serv
ath le
sch o
s av
est s</w>
langu ages</w>
for est</w>
5 00</w>
star t</w>
divi ded</w>
defe ated</w>
avail able</w>
arch it
par ents</w>
cat eg
l en
i ous</w>
f av
6 -
pro ject</w>
s cre
mi x
e br
ac tions</w>
ra y</w>
h ours</w>
a vi
7 0</w>
le ar
en ced</w>
chic ago</w>
b at
wi ki
u pper</w>
l ic
canadi an</w>
wom an</w>
ro om</w>
ow ing</w>
ing u
wor ds</w>
mo del</w>
go d</w>
t ou
tre at
or ial</w>
h old</w>
v al</w>
p il
n ine</w>
des p
pro t
hon or</w>
4 -
l es
ap ol
199 2</w>
win ning</w>
pass ed</w>
read y</w>
bro wn</w>
victor ia</w>
prof essor</w>
oc cur
tour nam
pe ter</w>
p sy
met al</w>
c ru
com man
b om
al d</w>
we ek</w>
h and
construc tion</w>
ran g
r ich</w>
k ers</w>
j ack
all owed</w>
y p
writ ing</w>
oun ds</w>
y a</w>
i als</w>
dec ided</w>
c ell</w>
er ous</w>
5 -
kil omet
b ol
ma ster</w>
com par
ad ap
to o</w>
ar c
sa x
h us
istr y</w>
chem istry</w>
c lim
i -
retur n</w>
form ing</w>
s cor
re ad</w>
2 -
z ed</w>
brit ain</w>
v a</w>
stand ard</w>
num bers</w>
gen us</w>
fin ished</w>
air s</w>
net work</w>
dec lar
sp ent</w>
sour ces</w>
p age</w>
scal e</w>
fin d</w>
d un
stu dies</w>
sur roun
rema ins</w>
n it
mus ical</w>
di stri
199 0</w>
mater ial</w>
festiv al</w>
on ally</w>
foun d
e vi
distri bu
18 0
b rought</w>
sol di
parli ament</w>
ti l
ne t</w>
desp ite</w>
le -
wor l
sp ain</w>
sain t</w>
w all</w>
med ical</w>
main ly</w>
fri end</w>
ther e
qu ick
beli eved</w>
ma them
gr amm
ex peri
democ r
to m</w>
t s
t t</w>
t ree</w>
g ul
ac tu
sh own</w>
rac ing</w>
pre mi
cr oss</w>
f igh
es ti
o ts</w>
ne ar
is on</w>
gi ve</w>
anim al</w>
te l</w>
d u</w>
com es</w>
a beth</w>
v oc
all ow</w>
reg ular</w>
si ster</w>
re spec
offic ially</w>
ex p
dest roy
car ol
b ill
pp ed</w>
chang es</w>
p ra
mon ey</w>
tra ining</w>
approxim ately</w>
sy l
sug ge
j ac
ex t
con gre
u t</w>
pos i
f lo
be hind</w>
b ig
oc k
c ing</w>
199 3</w>
or din
la un
con tribu
scot land</w>
play s</w>
gal ax
afric an</w>
me dic
magaz ine</w>
d ary</w>
con tains</w>
h a</w>
re al</w>
partic ularly</w>
wiki pe
sec tion</w>
l em
ide a</w>
s cri
du tch</w>
serv ices</w>
ir ish</w>
c ab
auth or</w>
ar tic
c .</w>
w it
s in
ow ned</w>
nav y</w>
n hl</w>
i j
win d</w>
plac es</w>
h ere</w>
en ing</w>
b un
ta il</w>
j un
for ced</w>
v or
s au
m ental</w>
17 9
se y</w>
rus sia</w>
dis h</w>
ch ing</w>
produc er</w>
m 2</w>
heav y</w>
direc ted</w>
buil dings</w>
signific ant</w>
k en</w>
recogn ized</w>
char t</w>
psy ch
on a</w>
sm ith</w>
secre tary</w>
recor ding</w>
pop e</w>
h ost</w>
f ic</w>
ess es</w>
wh it
compu ter</w>
cath olic</w>
b ack
air craft</w>
ad es</w>
pak istan</w>
no bel</w>
nati ons</w>
en s
a king</w>
7 -
ed y</w>
se x
m ale</w>
camp a
fam il
competi tion</w>
cel ebr
atten ded</w>
g all
e e</w>
becom ing</w>
wh ose</w>
h and</w>
ec ture</w>
c m</w>
y an</w>
ne arly</w>
mun ici
i th
arm en
198 9</w>
s ound</w>
a i</w>
pres sure</w>
hig her</w>
m as
moun tain</w>
lor d</w>
ne igh
go ing</w>
enter tain
al es</w>
doc tor</w>
fin ally</w>
cast le</w>
bo y</w>
well -
in sul
ic h
wikipe dia</w>
ol dest</w>
i b
em plo
comple te</w>
ac cep
199 1</w>
war ds</w>
k y
ic ian</w>
g am
ex pan
em er
ch ap
c li
in ia</w>
c ent</w>
z z
y ed</w>
k h
g un
in j
hear t</w>
g oo
sup er</w>
d d
angel es</w>
a e
tr u
pri x</w>
indu stry</w>
ex tre
der i
olog ist</w>
libr ary</w>
k i</w>
go als</w>
b ish
as es</w>
ty pic
pol ic
moun tains</w>
k an
dar k</w>
t est</w>
quick ly</w>
fr u
chan nel</w>
3 -
co ast
bir th</w>
b oun
arm s</w>
prob ably</w>
feat ure</w>
be ha
dam age</w>
al ways</w>
198 8</w>
le e</w>
gi an</w>
e ding</w>
priv ate</w>
individu al</w>
dist inc
por ts</w>
fer ence</w>
enti re</w>
cour se</w>
wor th</w>
typic ally</w>
ne u
ma kes</w>
st a</w>
pur pos
comple ted</w>
ass em
pri mary</w>
clos ed</w>
198 0</w>
tion ally</w>
re p
p ing</w>
19 th</w>
198 4</w>
fu ture</w>
an der</w>
pro duce</w>
medi a</w>
mar ia</w>
sub sequ
tex as</w>
separ ate</w>
pol y
mid -
defen se</w>
wid ely</w>
mo ving</w>
compos er</w>
bl ood</w>
associ ated</w>
d ata</w>
tur ed</w>
is tic</w>
di e</w>
ep h</w>
albu ms</w>
we a
w y
ter ms</w>
previ ous</w>
h ood</w>
ec h</w>
ar ab
4 .
st adi
o is</w>
ci an</w>
invol ved</w>
en ough</w>
on ships</w>
mar ine</w>
in sec
bor der</w>
r an</w>
phil os
jos eph</w>
dis co
cl o
ar ies</w>
j e
tournam ent</w>
d ates</w>
tr ade</w>
charac ters</w>
pho to
parti cip
lab or</w>
ti al</w>
fri ends</w>
comple x</w>
h em
charac ter
as sic</w>
t in
b all
re gar
is ms</w>
fif th</w>
cul ture</w>
ca use</w>
v on</w>
tra vel
stat us</w>
pi ano</w>
w el
tak es</w>
pap er</w>
mar tin</w>
li e</w>
ed it
d an</w>
virg inia</w>
ru le</w>
indu stri
hel ped</w>
dist ance</w>
long er</w>
earli er</w>
e ph
e f</w>
ta king</w>
dow n
a c</w>
er o</w>
techn ology</w>
oper ation</w>
open ing</w>
e th</w>
cl assi
bur ied</w>
ar g
win ds</w>
trans l
i us</w>
cir cu
y el
the at
oc cas
o il</w>
gre ater</w>
f oc
un it</w>
stadi um</w>
m ess
hou se
compos ed</w>
artic le</w>
ad el
wh om</w>
s on
ent ered</w>
coll ection</w>
au ght</w>
d one</w>
bil ity</w>
pr inc
we alth</w>
tow ards</w>
h op
feat ured</w>
c us
worl d
un its</w>
sym ph
rec ent</w>
lo g
al ized</w>
partic ular</w>
m m</w>
ha bit
e ase</w>
tw ent
tex t</w>
p le
j es
evi dence</w>
entertain ment</w>
20 th</w>
ti vely</w>
simp ly</w>
ex hi
l o</w>
exper im
e di
cam p</w>
ann e</w>
commer cial</w>
198 6</w>
197 9</w>
scienti fic</w>
ra w</w>
qu es</w>
we b
ven tion</w>
kilomet res</w>
f light</w>
a h
bir d</w>
ph ere</w>
in te
ad di
t on
st and</w>
sp ring</w>
run ning</w>
el iz
ca the
prov in
claim ed</w>
v an
mp h</w>
f ame</w>
regi ons</w>
pal ace</w>
on to</w>
er n
b al</w>
ob serv
fore ign</w>
bu s</w>
sp i
in side</w>
dr al</w>
beha vi
at trac
a g</w>
the ater</w>
phili pp
he alth</w>
fil ms</w>
ad op
ti z
t as
sch ol
mar io</w>
ell a</w>
7 5</w>
1 st</w>
ph y
k m2</w>
ati s
th y</w>
ch or
al and</w>
direc t</w>
con ditions</w>
re main
appear ance</w>
gre w</w>
f f</w>
bil l</w>
wee ks</w>
s a</w>
ric k</w>
elec tric</w>
b ing</w>
ac y</w>
scho ols</w>
mag ne
loc ation</w>
diff ic
arti sts</w>
al ready</w>
ir on</w>
hy dro
de ad</w>
tion ary</w>
spe ed</w>
ol der</w>
s ac
new sp
coll ec
bur y</w>
a str
s ell</w>
p ost</w>
new s</w>
el ements</w>
bra z
yel low</w>
gu n</w>
cer em
ro me</w>
r ate</w>
newsp ap
joh n
8 -
198 7</w>
im pro
func tion</w>
e ing</w>
de ep</w>
ap plic
an y
tur ned</w>
k u
be au
appe ar</w>
amoun t</w>
wan ted</w>
vis i
tro ops</w>
kn ow
gol den</w>
e igh
9 0</w>
9 -
ta ining</w>
ra in
num erous</w>
her it
fic tion</w>
econom ic</w>
am e
world wide</w>
r i</w>
a ke</w>
spec ific</w>
previ ously</w>
j am
196 9</w>
histor ic</w>
b ow
al li
sel ves</w>
al le
i x</w>
m amm
leav es</w>
destroy ed</w>
com edy</w>
be ach</w>
mathem atic
hus band</w>
hos p
scot tish</w>
ph y</w>
le vels</w>
ach es</w>
st af
sit u
inter est</w>
th -
co de</w>
carol ina</w>
ar n
temper ature</w>
s la
cen sus</w>
bas e
198 1</w>
su pp
sing les</w>
s ons</w>
ex cept</w>
z a</w>
tur n</w>
pass eng
ent h</w>
co ver</w>
ad o</w>
st all
leav ing</w>
j uni
gr ams</w>
g .</w>
ch er</w>
categ ory</w>
ann ual</w>
religi ous</w>
m ight</w>
comm on
197 6</w>
ze aland</w>
win d
pe ace</w>
it an</w>
estim ated</w>
dis ease</w>
ci tiz
197 5</w>
o es</w>
f as
ch ester</w>
anim ated</w>
196 7</w>
th r
wh ole</w>
me tro
ar th
ac ting</w>
sol ar</w>
pow er
p y
nucle ar</w>
g as</w>
base ball</w>
198 3</w>
vari ety</w>
minu tes</w>
eff ect</w>
commun ic
appear s</w>
t old</w>
n az
guit ar</w>
bo t
tr ue</w>
sig n</w>
um e</w>
st op</w>
qu es
p as
ad ed</w>
us h
manag ement</w>
leg al</w>
cathe dral</w>
af ter
on t
197 2</w>
tic ally</w>
l uc
consi sts</w>
c av
austri a</w>
at om
an n</w>
y n
stor ies</w>
se x</w>
ra ised</w>
marri age</w>
i v</w>
gen e</w>
found ation</w>
phys ical</w>
p in
le m</w>
har mon
fac il
197 4</w>
s en</w>
nati on
mis sion</w>
manu fac
f oss
eng ine</w>
d ney</w>
cas es</w>
bu t
thes is</w>
s ay</w>
pr acti
ge t
gar den</w>
tre es</w>
star ting</w>
ac her</w>
ver si
st ated</w>
pro bl
li sted</w>
ak er</w>
them selves</w>
k o</w>
fiel ds</w>
ter y</w>
s h</w>
os si
au tom
198 2</w>
e .</w>
194 5</w>
p tion</w>
offic er</w>
im p
disco very</w>
organ ized</w>
declar ed</w>
d na</w>
ur ies</w>
pen insul
expl or
contr act</w>
col d</w>
sil ver</w>
rul es</w>
m ing</w>
bre ak</w>
bl ack
b ad
no te</w>
del i
wat ers</w>
re action</w>
piec e</w>
eg gs</w>
cop ies</w>
con fir
ann a</w>
ra in</w>
n as
it es</w>
hu mans</w>
h it
fig ure</w>
conn ec
ser ving</w>
direc tly</w>
al p
3 00</w>
sim ple</w>
s li
s and
reti red</w>
provi ded</w>
po p</w>
b ar</w>
ay ing</w>
vol can
ch all
ak ed</w>
ur ity</w>
defin ed</w>
sub ject</w>
pr on
pat ter
maj ority</w>
sel f-
piec es</w>
lim ited</w>
im per
eliz abeth</w>
de v
5 .
por tra
her cul
ch i
ar a</w>
r on
p ast</w>
mem orial</w>
jack son</w>
exam ples</w>
er al</w>
conduc tor</w>
campa ign</w>
bo x</w>
as ked</w>
all -
lea ve</w>
is ra
fre der
cre ate</w>
bac ter
tow ns</w>
str ong
sof tw
id es</w>
gre en
probl ems</w>
li k
e dition</w>
contro l
song writer</w>
se vent
provi de</w>
li ves</w>
indepen dence</w>
h i</w>
f er</w>
metro pol
gul f</w>
f al
a .</w>
196 8</w>
sk i</w>
bill board</w>
an ge</w>
alex ander</w>
ast er</w>
3 5</w>
in i</w>
im medi
hou ses</w>
common wealth</w>
w ol
th or
pers onal</w>
li t</w>
kin d</w>
j us
influ ence</w>
bi o
198 5</w>
196 0s</w>
man n</w>
g ers</w>
ever y
bo ston</w>
2 ,
194 4</w>
ri c</w>
circu it</w>
w ings</w>
over all</w>
olymp ics</w>
issu ed</w>
initi ally</w>
famil ies</w>
f act</w>
ey e</w>
3 0
vo ice</w>
to -
seas ons</w>
hosp ital</w>
b ab
ac ts</w>
pol iti
peninsul a</w>
gi ving</w>
gener ation</w>
197 3</w>
r ad
ne ed</w>
execu tive</w>
equ i
dr y</w>
activ ity</w>
ac qu
view s</w>
ur a</w>
n is</w>
lad y</w>
194 9</w>
re y</w>
por ary</w>
moun t</w>
ge org
de b
cul tural</w>
soldi ers</w>
relati onship</w>
nomin ated</w>
ear ned</w>
4 5</w>
softw are</w>
present ed</w>
por tu
hercul es</w>
great est</w>
gir l</w>
fol k</w>
dist ingu
can di
b bc</w>
au di
woo d
settl ement</w>
s ays</w>
k at
br u
r on</w>
ex tr
pri mar
pre d
nav al</w>
con st
histor ical</w>
gu st
astr onom
y our</w>
w a</w>
tw o-
rac es</w>
osaur s</w>
ma h
k er
cl in
197 1</w>
occu p
lo t</w>
g il
col ors</w>
c oo
al one</w>
movi es</w>
lik ely</w>
es h</w>
a qu
ast ero
197 0</w>
youn ger</w>
th ings</w>
sh owed</w>
hol ds</w>
fl at</w>
de termin
au t
staf f</w>
rou te</w>
requ ired</w>
concer t</w>
re ve
pen n
mar ie</w>
earli est</w>
anti -
willi ams</w>
r ose</w>
pr ac
g le</w>
b ad</w>
um s</w>
prin ci
mach ine</w>
fl ic
sou theast</w>
sit es</w>
engine ering</w>
ys is</w>
ul es</w>
bish op</w>
ac u
3 7</w>
ur ing</w>
s and</w>
mon th</w>
l -
h il
congre ss</w>
no .</w>
le tter</w>
acti vi
sp r
pro min
feder ation</w>
c os
c ore</w>
bour ne</w>
ant ly</w>
tri ed</w>
sen ior</w>
primar ily</w>
practi ce</w>
neigh bor
197 7</w>
wea ther</w>
near by</w>
juni or</w>
er t</w>
con centr
tech ni
ris e</w>
re ach</w>
pos si
incre ased</w>
bro thers</w>
sup ported</w>
ol i
inv esti
c in
north west</w>
kel ly</w>
arti cles</w>
sh ot</w>
ograph y</w>
6 .
tw el
ren amed</w>
norm al</w>
m ou
f ted</w>
constitu tion</w>
assem bly</w>
arth ur</w>
196 5</w>
w all
syl v
r d</w>
po st
mo on</w>
ju d
har d
foo t</w>
cu t</w>
con ference</w>
succ e
pre par
fl oo
cor n
champi onships</w>
br and</w>
bl ues</w>
ab or
stu dent</w>
st op
ro r</w>
pro gre
j .</w>
sat ur
re s
mar ket</w>
ma xim
high ly</w>
en -
dou ble</w>
pre v
er ly</w>
democr atic</w>
can cer</w>
7 .
ti s</w>
there fore</w>
prin cip
ossi l</w>
f ossil</w>
bel ie
ar i</w>
w av
ob jects</w>
ne ther
con s
car bon</w>
at ures</w>
y pt</w>
sy dney</w>
str at
stan ley</w>
run s</w>
meth od</w>
f ou
196 1</w>
symph ony</w>
shor tly</w>
respon sible</w>
pres sed</w>
eff ects</w>
bran ch</w>
ti ce</w>
molec ular</w>
j ack</w>
adv an
5 0
organ isms</w>
investi g
distric ts</w>
bas ic</w>
é e</w>
no table</w>
j ec
gro w
col or
cat al
194 1</w>
val ue</w>
treat y</w>
remain ing</w>
freder ick</w>
f ly</w>
evol ution</w>
un g</w>
st ations</w>
si on
on e
u n</w>
relati vely</w>
regi onal</w>
k -
cycl one</w>
cu st
class ical</w>
accep ted</w>
tran si
per man
mor ning</w>
con qu
br on
197 8</w>
ri vers</w>
organ iz
or dered</w>
n on</w>
ju li
inv as
imper ial</w>
ill u
f ill
cir c
b ell</w>
ang le</w>
z one</w>
v it
si des</w>
medic ine</w>
coun ter
we ap
sec urity</w>
jew ish</w>
herit age</w>
dr ama</w>
ad ult</w>
194 8</w>
plan et</w>
on d</w>
m as</w>
kor ean</w>
ey es</w>
d ential</w>
administr ation</w>
z i
s cul
magne tic</w>
cap tain</w>
bur gh</w>
6 5</w>
p ay
ke ts</w>
e .
194 2</w>
m ine</w>
la bel</w>
he at</w>
fran k
a b</w>
w ise</w>
princ ess</w>
op her</w>
198 0s</w>
194 7</w>
no ted</w>
nether lands</w>
mig r
ho sted</w>
dre s
compan ies</w>
austri an</w>
ac ci
ta x
t ells</w>
plan e</w>
orig in</w>
mus ician</w>
f ight</w>
comb ined</w>
win ner</w>
n ast
f y</w>
and re
ak es</w>
17 8
power ful</w>
know le
galax y</w>
et te</w>
co ordin
9 .
tor al</w>
sh el
re ign</w>
pl an</w>
p ool</w>
foss ils</w>
17 7
pr us
u tionary</w>
ric ul
metropol itan</w>
cle ar</w>
bl es</w>
wat er
tow er</w>
rec ently</w>
in t</w>
ho tel</w>
ad vis
s ity</w>
le w
l ook</w>
h ic
ci vil
whe ther</w>
v i</w>
sol ution</w>
ref ers</w>
mo tion</w>
manag er</w>
le gen
jer sey</w>
attemp t</w>
we ak
ol a</w>
kor ea</w>
ing ly</w>
ed ge</w>
av o
actu ally</w>
2 5
197 0s</w>
us et
tr e</w>
resul ts</w>
k ings</w>
gu e</w>
cre d
com ing</w>
us ers</w>
sh oo
pre y</w>
phys ics</w>
long -
est ed</w>
as ian</w>
ain s</w>
sp ar
sci ences</w>
pro posed</w>
is l
char ge</w>
a is
n d</w>
mass ach
massach uset
chris ti
bo l</w>
s ant
o v</w>
igh ts</w>
id ae</w>
al i</w>
194 0</w>
rel ative</w>
flow er</w>
episo des</w>
ati ves</w>
un like</w>
sen ate</w>
s le
s elling</w>
re al
or i
no t
ne eded</w>
h at
go es</w>
fer red</w>
e ve</w>
direc tion</w>
cro w
196 6</w>
t ely</w>
su bur
massachuset ts</w>
i er</w>
cy cle</w>
co w</w>
cl ou
ch air
bo dies</w>
an th
te acher</w>
mis s
ke pt</w>
gro wing</w>
f air
org an</w>
is co</w>
grow th</w>
ag ing</w>
adop ted</w>
t ings</w>
rou gh
pri or</w>
o st
fav or
ext inc
ch os
c all</w>
be at
auth ority</w>
revol ution</w>
pi er
fr ed</w>
en em
bo x
arm ed</w>
196 3</w>
tra in</w>
tor y</w>
sol o</w>
represent ed</w>
newspap er</w>
ke ep</w>
jour n
fre e
195 2</w>
w ins</w>
us er</w>
sing ap
m outh</w>
inf an
dri ve</w>
d v
comm and</w>
behavi or</w>
attac ks</w>
activi ties</w>
scul p
pl as
p ag
fin anci
dr .</w>
ab les</w>
sylv ania</w>
re port</w>
nast y</w>
confir med</w>
ch ro
b in
agre ement</w>
the ast
se ts</w>
s burg</w>
re moved</w>
philos oph
ob ject</w>
do or</w>
d ru
con flic
b its</w>
app lied</w>
po ten
az er
writ ers</w>
tran sport</w>
r y
pur ch
produc t</w>
pers on
multi ple</w>
le ts</w>
f s</w>
desig n
administr ative</w>
ver te
incre as
h our</w>
buil d</w>
196 0</w>
p ass</w>
ol o
comple tely</w>
c em
bil lion</w>
shap e</w>
op pos
gradu ated</w>
f all
pow ers</w>
de al</w>
d river</w>
stan ces</w>
cro wn</w>
wil d</w>
s elected</w>
pre -
gir ls</w>
dy nasty</w>
c amer
w w
stre am</w>
organ ic</w>
h app
ex clu
d am</w>
ban ds</w>
b ass
am i</w>
acc ess</w>
pr os
lo t
jo b</w>
bi ology</w>
ap s</w>
196 4</w>
y er</w>
nor theast</w>
met ers</w>
environ ment</w>
conduc ted</w>
3 3</w>
val ent</w>
por ting</w>
jes us</w>
hor se</w>
us ual</w>
politi cian</w>
mo del
ha w
tt ers</w>
ser ves</w>
se arch
proper ty</w>
insec ts</w>
in son</w>
har ry</w>
con tain</w>
compe ted</w>
tri ple</w>
p el
occur red</w>
in corpor
g ary</w>
al ed</w>
re public
re pe
mus li
foun der</w>
d al
d .</w>
sym bol</w>
princip al</w>
munici pal
li qu
4 00</w>
194 6</w>
sp lit</w>
ox ide</w>
azer ba
vi en
ve hic
s low
penn sylvania</w>
gr ade</w>
ear th
wr ite</w>
pre c
pic ture</w>
j um
f ell</w>
be st-
8 .
3 ,
pain ting</w>
mal es</w>
li fe
l is
ish es</w>
gro w</w>
g ate</w>
fa iled</w>
cent uries</w>
4 8</w>
we b</w>
r ural</w>
po t
or ange</w>
l or</w>
c z
2 nd</w>
tw ice</w>
roc ks</w>
pro grams</w>
in ci
fl ag</w>
diffic ult</w>
u d</w>
provin ces</w>
polic y</w>
o ta</w>
car s</w>
adv ent
vis ions</w>
ro w
f ast</w>
195 8</w>
victor y</w>
tu al</w>
t ol
sex ual</w>
pris on</w>
devel op</w>
d al</w>
cover s</w>
c it
ac id</w>
6 4</w>
tit led</w>
osaur us</w>
ha wa
fi x
f arm
ex ist</w>
av en
auth or
wee k
south west</w>
re m
pre dic
liter ature</w>
ken ne
g ained</w>
frequ ently</w>
eff ec
colum bia</w>
anal ysis</w>
a i
3 6</w>
199 0s</w>
t ar</w>
provi des</w>
singap ore</w>
re ly</w>
me an</w>
contin ue</w>
195 9</w>
t rou
pic tures</w>
l os
cla im</w>
ari o</w>
al lied</w>
ri a</w>
k ur
incre ase</w>
guit ar
form erly</w>
cr y
bu d
ag ricul
193 6</w>
the or
t ay
on e-
mar ked</w>
ligh tly</w>
gene tic</w>
f is
equ al</w>
braz il</w>
air ed</w>
3 2</w>
ste in</w>
po et</w>
franc isco</w>
commis sion</w>
att le</w>
195 5</w>
un d
ti le</w>
t am
surroun ding</w>
meth ods</w>
larg ely</w>
be ar</w>
ay ed</w>
uni verse</w>
star red</w>
sp ok
shap ed</w>
pol e</w>
li eu
lieu ten
land fall</w>
fel low</w>
e ting</w>
bel ong
bel gi
mil li
ill in
figh ting</w>
el im
co ach</w>
ack down</w>
195 0</w>
s as</w>
p ig
le gs</w>
jo in</w>
consi der
ul l</w>
po or</w>
mater ials</w>
leg isl
flow ers</w>
eg ypt</w>
195 7</w>
s i</w>
re main</w>
li th
j a</w>
gi ves</w>
form al</w>
dic ated</w>
d ly</w>
cor respon
cor rec
ber n
ab be
sw itz
mon d</w>
l ess
hol y</w>
high way</w>
fru it</w>
experi ence</w>
all ows</w>
thre e-
te eth</w>
six th</w>
armen ian</w>
addi tional</w>
sugge sted</w>
sc ene</w>
hap pen
g ing</w>
clim ate</w>
chos en</w>
ar ia</w>
t ac
sen se</w>
ro les</w>
func tions</w>
dre ss</w>
conn ected</w>
au r</w>
3 9</w>
un known</w>
sm ackdown</w>
r is</w>
m .</w>
lab or
j az
is s</w>
as p
ar ity</w>
5 5</w>
re fl
k ir
invas ion</w>
er land</w>
ag u
ad ul
y l
x -
us a</w>
ta g</w>
str ength</w>
r um
per sian</w>
l au
di c</w>
cerem ony</w>
bra in</w>
arri ved</w>
196 2</w>
195 6</w>
twel ve</w>
s tic
o o</w>
m r.</w>
m on</w>
illin ois</w>
i el</w>
el le</w>
el ess</w>
y outh</w>
tra vel</w>
quar ters</w>
nic kn
mon t
l oss</w>
inter net</w>
dra ft</w>
agre ed</w>
a ks</w>
ó n</w>
v in
s lo
purpos e</w>
in ner</w>
construc ted</w>
u el</w>
str eng
san ds</w>
promin ent</w>
occu pi
ish -
inte gr
e ur
cap tured</w>
switz erland</w>
pl ate</w>
occu r</w>
l l
j r</w>
fem ales</w>
en ding</w>
carri ed</w>
in sp
atom ic</w>
ame ter</w>
193 9</w>
st o
ri t</w>
reg ul
ref er</w>
laun ched</w>
k in</w>
j or
issu e</w>
gen ce</w>
do g</w>
cont em
ap par
t aught</w>
ste el</w>
n on
con ver
con clu
year -
them e</w>
ste ph
st en</w>
r o</w>
oss es</w>
is i
influ enced</w>
gu ard</w>
fo x</w>
c are</w>
b or</w>
4 7</w>
pos s
j ones</w>
gi ant</w>
ge ts</w>
f ant
cont ent</w>
alter native</w>
y et</w>
tro phy</w>
sp read</w>
occupi ed</w>
mos cow</w>
fas hi
cor ps</w>
con vention</w>
tra ff
respon se</w>
par ish</w>
m it</w>
follow s</w>
financi al</w>
el li
deri ved</w>
bre ak
big gest</w>
bas s</w>
a us
tay lor</w>
r na</w>
per forming</w>
n f
immedi ately</w>
e z</w>
cre ation</w>
con cept</w>
ve y</w>
s lightly</w>
reg im
p al</w>
maxim um</w>
georg ia</w>
distribu tion</w>
chr is</w>
bl u
4 2</w>
3 rd</w>
occas i
is ol
gu est</w>
ge l</w>
ess ed</w>
e. g.</w>
col ony</w>
an i</w>
shar k</w>
s low</w>
rob inson</w>
ni e</w>
nec ess
mon tre
mix ed</w>
min im
m assi
knowle dge</w>
ing er</w>
dec or
contin ental</w>
clos ely</w>
belgi um</w>
194 3</w>
191 8</w>
k now</w>
ing ham</w>
fran k</w>
arn old</w>
ab original</w>
stra ight</w>
ro t
mic ros
mat ter</w>
infan try</w>
illu str
gu il
fou ght</w>
da ily</w>
bou ght</w>
a p</w>
tel li
pe ak</w>
may or</w>
ci es</w>
theast ern</w>
secre t</w>
se eds</w>
mon t</w>
l é
ge ograph
ca uses</w>
4 4</w>
subsequ ently</w>
ric h
j ur
insp ired</w>
in telli
duc tion</w>
compar ed</w>
americ ans</w>
vien na</w>
resul ting</w>
por tion</w>
k ill</w>
industri al</w>
ide as</w>
ex pe
dem on
chr on
wa ve</w>
r are</w>
pol and</w>
mo di
ma x</w>
kan sas</w>
er e
di ag
ac coun
theat re</w>
s aying</w>
mel bourne</w>
in t
in n
gradu ate</w>
bro w
bal let</w>
ur ban</w>
montre al</w>
me eting</w>
manag ed</w>
gra y</w>
exp ected</w>
de tec
coast al</w>
chair man</w>
bo ys</w>
spe aking</w>
rough ly</w>
ris on</w>
ran k</w>
pain tings</w>
molec ules</w>
le tters</w>
ir a</w>
hi o</w>
h oo
gl ass</w>
er ic</w>
edit or</w>
e at</w>
design ated</w>
c k</w>
bro ke</w>
le on
in et</w>
d av
as ka</w>
an ces</w>
uni ties</w>
th ink</w>
st atis
sequ ence</w>
mar i
le gi
f low</w>
end ar</w>
ell ed</w>
elec toral</w>
c ost</w>
3 4</w>
r hy
lic en
bor ough</w>
9 5</w>
w o
territ ories</w>
sel ena</w>
or ders</w>
mer ged</w>
mat ches</w>
la ws</w>
elec tro
d ang
con taining</w>
cal endar</w>
b le
al ab
y land</w>
vol ume</w>
mathematic s</w>
eng ines</w>
ch lor
arc tic</w>
al ism</w>
vo te</w>
v ar
spe ech</w>
s ent
norm ally</w>
mamm als</w>
j im
f ine</w>
dis cus
bor ders</w>
attac ked</w>
ag ency</w>
wind ows</w>
th a</w>
pro mis
manufac tur
m es</w>
m es
ici ans</w>
ec e</w>
tur k
oper ations</w>
n es</w>
ex cep
ty pical</w>
sol u
sant a</w>
re plac
re n</w>
occur s</w>
l an</w>
high -
eas ily</w>
bo b</w>
w is
um in
reas on</w>
pris on
pp i</w>
on ia</w>
o hio</w>
cre ek</w>
christ mas</w>
ca using</w>
an ce
adel ph
v e-
sat ell
ran ked</w>
p air</w>
m ist
j i
guitar ist</w>
franc is</w>
dom es
com pl
bas is</w>
b o</w>
pit er</w>
ligh t
l i</w>
di ameter</w>
vis ited</w>
t ap
proper ties</w>
mar sh
k al
in ches</w>
har v
comp on
comman der</w>
be y
6 6</w>
195 3</w>
tradi tionally</w>
trac ks</w>
north -
mic ro
identi fied</w>
ha b
4 9</w>
wal t</w>
spec tr
shar ed</w>
ru b
prob lem</w>
posi tive</w>
op e</w>
mem ber
lin k</w>
jaz z</w>
individu als</w>
fa il
eu r</w>
demon str
4 th</w>
s oun
read ing</w>
ra il</w>
pol ish</w>
phil adelph
per form</w>
ob served</w>
nat ur
ke ep
d ying</w>
bas ke
atten tion</w>
at mos
alli ance</w>
191 9</w>
republic an</w>
me et</w>
ju piter</w>
g -
cop y</w>
cap ac
bu ff
swe den</w>
su e</w>
n el
lin col
ligh ts</w>
gu ar
fa ir</w>
bl ock</w>
u re
sk in</w>
sevent h</w>
plan ned</w>
oper ating</w>
olo gi
m om
isra el</w>
exten ded</w>
baske tball</w>
a er
suff ered</w>
succe eded</w>
stop ped</w>
re stor
qu ali
pl ans</w>
ox ford</w>
neu tr
k ong</w>
is si
instrum ent</w>
in struc
electr onic</w>
el ement</w>
d ale</w>
cem e
4 3</w>
tra dition</w>
th o
se l</w>
philadelph ia</w>
med it
go al</w>
el ev
c b
tem ple</w>
sc en
perman ent</w>
organiz ations</w>
naz i</w>
na ke</w>
man chester</w>
han ds</w>
e z
corpor ation</w>
con te
. c.</w>
uni que</w>
scot t</w>
en z
defe at</w>
am at
195 4</w>
re d
pre f
issu es</w>
fant as
ent er</w>
dig ital</w>
de ta
ch e</w>
cam bridge</w>
bri d
15 0</w>
n -
i w
h ills</w>
gramm y</w>
bus h</w>
war s</w>
ver sions</w>
travel ed</w>
possi bly</w>
lat ter</w>
in stall
in de
im age</w>
ha y
g on
g ni
broad cast</w>
assi stant</w>
abbe y</w>
ww f</w>
s or</w>
o tt
n os
inter pre
f alls</w>
b ang
vis it</w>
ro ads</w>
ph r
p ts</w>
mo tor
ma d</w>
el d</w>
dy nam
be at</w>
195 0s</w>
y weight</w>
thou sands</w>
sp ac
se as</w>
re duced</w>
n apol
dv d</w>
comp ounds</w>
6 00</w>
wal ter</w>
ph en
ne g
ceme tery</w>
bur n</w>
3 8</w>
te enth</w>
miss issi
bl oc
5 6</w>
192 9</w>
swe dish</w>
radi ation</w>
l il
j en
archit ecture</w>
y ard</w>
verte br
tor onto</w>
t ab
sum ed</w>
produc ts</w>
p om
ox y
mar ks</w>
all owing</w>
ad ver
spec im
per -
p av
or bit</w>
n inten
heav yweight</w>
d red</w>
ci a</w>
cho ice</w>
b is
b ach</w>
app ed</w>
al ists</w>
18 th</w>
sing ing</w>
si vely</w>
s ic
religi on</w>
dis pu
bot tom</w>
beg ins</w>
athle tes</w>
tit les</w>
regar ded</w>
re aching</w>
ninten do</w>
jus tice</w>
cri tics</w>
cir cul
u de</w>
sc ore</w>
lin e
fill ed</w>
e on</w>
cop e</w>
ad or</w>
4 6</w>
qu ality</w>
particip ated</w>
mississi ppi</w>
jan e</w>
exten sive</w>
descri be</w>
c ric
belie ve</w>
b ian</w>
5 4</w>
z es</w>
rest aur
ph al
oc e
m ate</w>
l ers</w>
h an</w>
h .</w>
exhi bi
ell er</w>
ec h
earth qu
bo eing</w>
b ap
192 0</w>
t i</w>
rul ed</w>
qu ite</w>
p ages</w>
m ent
head ed</w>
harmon ic</w>
extre me</w>
b os
ath s</w>
al ing</w>
scre en</w>
produc ing</w>
pres ents</w>
mil e</w>
massi ve</w>
it z</w>
distingu ished</w>
and a</w>
alab ama</w>
ag er</w>
aff airs</w>
ad ing</w>
193 8</w>
us e
shar p</w>
per f
n in
lieuten ant</w>
l ack</w>
ish ment</w>
hy po
glo bal</w>
f ans</w>
8 7</w>
5 2</w>
195 1</w>
wrest lem
sh are</w>
saf ety</w>
ro ll</w>
pres ence</w>
posi tions</w>
g al</w>
dar win</w>
cred ited</w>
cont act</w>
consi sting</w>
con c
sett led</w>
poten tial</w>
per hap
perhap s</w>
ou ter</w>
loo king</w>
k id
ill a</w>
de dicated</w>
com ic</w>
advan ced</w>
v es
tal k</w>
secon dary</w>
s election</w>
pp ing</w>
pain ter</w>
liber al</w>
for ests</w>
ev al</w>
cl assic</w>
al e
193 3</w>
visi ble</w>
ty -
twent y-
scienti sts</w>
represent atives</w>
refer ence</w>
ref used</w>
n ur
al a</w>
adv ant
193 7</w>
struc tures</w>
ri dge</w>
respec tively</w>
re serve</w>
k ins</w>
hy per
er up
b es
wrestlem ania</w>
we ar</w>
st ock</w>
hun dred</w>
hu man
fig ures</w>
coll ap
al ice</w>
wor kers</w>
strat eg
resul ted</w>
n ag
fl ying</w>
dr ag
b .</w>
6 7</w>
us s</w>
po st-
or ph
grad ed</w>
champi ons</w>
ap ple</w>
phili p</w>
it a</w>
gar den
fr ag
d ated</w>
cri tical</w>
compe te</w>
ch ain</w>
becom es</w>
ar ing</w>
vol un
ri es</w>
oppos ite</w>
e ag
des ert</w>
bri an</w>
5 1</w>
- like</w>
year- old</w>
ti tu
te aching</w>
st ro
st ore</w>
some thing</w>
separ ated</w>
off ered</w>
ma p</w>
john son</w>
econom y</w>
ac tors</w>
8 5</w>
1 1
pe t</w>
offic ers</w>
mo z
is tics</w>
al bert</w>
193 0</w>
191 7</w>
st al
s om
s mo
l as
inten ded</w>
hon or
flo or</w>
di visions</w>
con f
c w</w>
5 3</w>
youn gest</w>
secon ds</w>
ro y</w>
ly ric
iz ing</w>
get ty</w>
g es
ent ry</w>
el a</w>
d ating</w>
cu ba</w>
coll abor
c ous
ba by</w>
193 5</w>
stu di
pal e
ly wood</w>
distinc t</w>
de pu
cover ing</w>
c -
broad cast
bacter ia</w>
4 1</w>
192 5</w>
uc k</w>
su pre
protec tion</w>
o ther
in come</w>
dec ision</w>
co al</w>
achi ev
a ult</w>
ul tim
o y</w>
model s</w>
instrum ents</w>
house hold</w>
cont est</w>
ch er
cal cul
astero id</w>
vis ual</w>
temper atures</w>
on line</w>
new ly</w>
la kes</w>
k a
fol low</w>
conflic t</w>
chall eng
bri gh
5 ,000</w>
survi v
se g
pi one
pe ter
initi al</w>
gen cy</w>
ec w</w>
be an</w>
aff ected</w>
ab and
wil son</w>
tri bes</w>
spok en</w>
n ig
elec tions</w>
do gs</w>
di pl
d ul
cir cle</w>
c ad
avi ation</w>
t ations</w>
st ay</w>
r ati
os aur</w>
m ir</w>
kenne dy</w>
it ors</w>
gro un
g ab
fu el</w>
equi valent</w>
eff ici
e i</w>
e au</w>
thre at
or bit
ologi sts</w>
j an</w>
gi e</w>
ful l-
ev a</w>
em an</w>
dro pped</w>
ci ation</w>
bas in</w>
mit ted</w>
d d</w>
control led</w>
192 8</w>
under ground</w>
t une</w>
sol id</w>
rap id
inter nal</w>
extre m
dis ci
coun ties</w>
ban ks</w>
ac count</w>
192 4</w>
. e.</w>
web site</w>
w ant</w>
scor ed</w>
me ant</w>
is en
ha ir</w>
gran ted</w>
fle et</w>
c oc
bir th
well- known</w>
tre as
south -
s car
ra m</w>
r ab
he l</w>
es -
depen ding</w>
c ow
bu re
bron ze</w>
ber ger</w>
b in</w>
arch ae
ar re
al ong
5 9</w>
4 0
qu al
phy si
ow ner</w>
mo b
mig ran
k ol
g ang</w>
ell o</w>
contem porary</w>
b one</w>
ab sor
ran ged</w>
r or
portu gu
photo graph
lo y
dis play</w>
di an</w>
along side</w>
6 1</w>
193 4</w>
w ill
tra ins</w>
ter nal</w>
par ks</w>
p a</w>
mil l</w>
lincol n</w>
l ying</w>
k g</w>
expan ded</w>
develop ing</w>
c tion</w>
bo at</w>
192 3</w>
vo ted</w>
traff ic</w>
studi os</w>
str ing</w>
jo e</w>
j ected</w>
grap h</w>
free dom</w>
f lies</w>
connec tic
comm unities</w>
br ad
arg ent
alle l</w>
ver e
sup porting</w>
sp ot</w>
ran ean</w>
offic ials</w>
n ée</w>
my th
ly n
la p</w>
im ages</w>
gu er
enti oned</w>
bro ken</w>
war ning</w>
sh ell</w>
par ties</w>
mic hel
mc car
hal f-
gover nor
ger man
fic tional</w>
b id
ap ar
and ers</w>
adul ts</w>
v in</w>
tr ust</w>
t an</w>
ste ve</w>
reve aled</w>
mic hig
long est</w>
labor atory</w>
h amp
fin als</w>
favor ite</w>
far m</w>
er ship</w>
differ ence</w>
cri min
connectic ut</w>
comp ound</w>
c us</w>
as signed</w>
appro ach</w>
weap ons</w>
tran spor
passeng ers</w>
pa id</w>
michig an</w>
et c</w>
en jo
dre w</w>
comb ination</w>
arab ic</w>
al ty</w>
weak ened</w>
st ages</w>
ris ing</w>
rapid ly</w>
mo tor</w>
k l
fri end
c ran
alex and
ac compan
ter ed</w>
sh ore</w>
progre s
oper ated</w>
lear ned</w>
lay er</w>
du ch
citiz ens</w>
camp us</w>
ca es
aw s</w>
ar m</w>
ap art</w>
4 ,
st ones</w>
ser ious</w>
ri an</w>
recei ve</w>
reas ons</w>
pun k</w>
presi dential</w>
not ably</w>
is ing</w>
import ance</w>
head quarters</w>
h r
eg yp
des cen
bo y
arch i
an thro
v ity</w>
ti a</w>
sch em
re actions</w>
pro jects</w>
portugu ese</w>
p -
om es</w>
no vels</w>
mem ory</w>
medi eval</w>
k no
is es</w>
inf all</w>
i .</w>
he ight</w>
br ing</w>
at ro
ac ted</w>
7 th</w>
6 th</w>
192 7</w>
wat ch</w>
ti les</w>
sem i-
head s</w>
foo t
evol ved</w>
es co</w>
de ep
coordin ates</w>
co m</w>
capac ity</w>
c ard</w>
an us</w>
t led</w>
slow ly</w>
sain t-
mob ile</w>
ke y
is lam
f are</w>
environ mental</w>
e ton</w>
cre w</w>
concer ts</w>
aw a</w>
ar rang
th in
subsequ ent</w>
s op
que ens
prev ent</w>
pi an
j ean</w>
ig h</w>
cri me</w>
con sol
al aska</w>
ad mir
ques tion</w>
pro ce
premi er</w>
ing ing</w>
il i
form ally</w>
candi date</w>
5 th</w>
w .</w>
ti p</w>
ten der</w>
sw it
ste p</w>
sk ull</w>
sk i
po e
philosoph y</w>
lin ed</w>
l ay</w>
jour nal</w>
cl ay</w>
bon es</w>
9 th</w>
16 th</w>
w right</w>
w ag
uni versi
um es</w>
lan e</w>
de p
a head</w>
191 6</w>
val u
tran sm
ti m</w>
s q</w>
par allel</w>
jo int</w>
imp act</w>
g os
explor er</w>
econom ics</w>
ear s</w>
cou ple</w>
conserv ation</w>
con trac
201 4</w>
- up</w>
t .</w>
survi ved</w>
streng th
sal es</w>
re search
r ice</w>
pr ise</w>
nor we
m r
lou ise</w>
lew is</w>
fashi on</w>
ent ran
dipl om
classi fied</w>
bu c
16 0
mus icians</w>
medit er
l av
ke ys</w>
it able</w>
de pos
de bu
compos ition</w>
cb -</w>
ab ol
10 -
wh y</w>
we igh
s can
pat rick</w>
nf l</w>
ic an</w>
hol lywood</w>
f an</w>
ex change</w>
electr on</w>
cham ber</w>
avo id</w>
ar gu
adap ted</w>
8 th</w>
19 00</w>
wav es</w>
univers al</w>
star ring</w>
prac tic
per cent</w>
pain ted</w>
k im
dr am
adver tis
192 2</w>
y n</w>
un usual</w>
succ ession</w>
st ood</w>
s ab
ri f
re stric
re sem
p ay</w>
or a</w>
mediter ranean</w>
lead ers</w>
la id</w>
l ac
incorpor ated</w>
foun ding</w>
facil ities</w>
fac tory</w>
es cape</w>
car bon
bey ond</w>
ath ers</w>
al fred</w>
wal k</w>
sh o
ris k</w>
r h
passeng er</w>
p h</w>
n ad
m entioned</w>
fe ed</w>
extrem ely</w>
ev acu
ell ow
d ay
ch air</w>
attemp ted</w>
ac i
6 2</w>
volcan ic</w>
ti er</w>
t us
surroun ded</w>
sug ar</w>
philipp ines</w>
pass ing</w>
neg ative</w>
low -
hear d</w>
expl os
enem y</w>
e at
claim s</w>
chur ches</w>
chil d
applic ations</w>
ag ent</w>
8 00</w>
,0 0
á n</w>
resi dents</w>
n am</w>
musli m</w>
multi -
ij an</w>
histor ically</w>
gall ery</w>
fu r</w>
en cies</w>
dou b
di men
su st
sig n
s u</w>
hu ge</w>
for ts</w>
din osaurs</w>
deli ver
boun dary</w>
azerba ijan</w>
ant on
techn ical</w>
su d
s ance</w>
har bor</w>
gni tion</w>
f it
color ado</w>
class es</w>
c enti
br un
bl o
w alls</w>
val ues</w>
un ciation</w>
um ent</w>
so il</w>
re present</w>
ont ario</w>
l un
feat uring</w>
er ies</w>
determin ed</w>
depu ty</w>
dan iel</w>
conv ection</w>
al lies</w>
zo o</w>
t all</w>
success fully</w>
soun d
r ar
proc esses</w>
peri ods</w>
performan ces</w>
mi ke</w>
ev ening</w>
em o
contin ent</w>
be t</w>
ba h
at o</w>
ais sance</w>
9 9</w>
v ul
tri al</w>
tr in
resi stance</w>
norwe gian</w>
municipal ity</w>
mo ore</w>
mess age</w>
me te
extinc t</w>
en cour
col ored</w>
clou d</w>
ch ec
cab inet</w>
bul l</w>
ac res</w>
vi et
r us</w>
r ated</w>
qu i
on ist</w>
oc ene</w>
liter ary</w>
inv ited</w>
in don
indon es
her o</w>
fi re
de ter
acqu ired</w>
8 6</w>
universi ties</w>
st ayed</w>
re view</w>
pre served</w>
occup ation</w>
intelli gence</w>
hun dre
hol e</w>
fel t</w>
exist ed</w>
c ement</w>
b and
wh ere
tel es
los ing</w>
im m
hol ding</w>
garden s</w>
evol utionary</w>
engine er</w>
el even</w>
de pic
cel er
arre sted</w>
andre w</w>
ac celer
191 1</w>
ten nes
t us</w>
sever e</w>
secon d-
re in
p oc
p ad
oxy gen</w>
off en
main land</w>
ki m</w>
ke l</w>
i o
gener a</w>
eigh th</w>
di et</w>
cre te</w>
con sul
b ay
am ph
tennes see</w>
st an</w>
reco gnition</w>
re ports</w>
os is</w>
i .e.</w>
den mark</w>
con vic
bal tim
b en</w>
z ero</w>
twent y</w>
tr ying</w>
t ell</w>
speci fic
re pu
lyric s</w>
hor n</w>
h ong</w>
gre ece</w>
f ts</w>
dou gl
bon d</w>
au gust
at oms</w>
6 9</w>
5 8</w>
17 th</w>
y an
treat ment</w>
stan ds</w>
so vere
s now</w>
munici pal</w>
l osses</w>
6 8</w>
191 2</w>
tu be</w>
survi ving</w>
sh op</w>
s co
pe p
occasi onally</w>
no thing</w>
min ster</w>
mexic an</w>
le v
la w
im pl
hawa ii</w>
har t</w>
gro wn</w>
cro ati
cop per</w>
aus tin</w>
ad ams</w>
war m</w>
steph en</w>
sing er-
se di
prote in</w>
pe ar
op position</w>
in c</w>
galax ies</w>
flor ence</w>
equ ip
cric ket</w>
bro ad</w>
actu al</w>
8 1</w>
y l</w>
trans ferred</w>
ti li
some one</w>
prus sia</w>
mat the
l as</w>
it o</w>
it ation</w>
im ag
enti rely</w>
emer gency</w>
christ opher</w>
thr one</w>
shar ks</w>
sa ve</w>
poli tics</w>
num ber
n or</w>
im migran
ib bean</w>
i v
ge ome
dav is</w>
con stant</w>
car ibbean</w>
bu dd
beg in</w>
author ities</w>
vo y
un cle</w>
techni que</w>
supp ly</w>
s r</w>
r he
ou l
mar k
k on
hun ting</w>
hom es</w>
ham il
equip ment</w>
dougl as</w>
descri bes</w>
dam aged</w>
but ter
bri ef
achi eved</w>
0 0
vi c</w>
te ach
t ney</w>
sen na</w>
satell ite</w>
rhy th
rap id</w>
ra infall</w>
or tho
or b
mal ay
legen d</w>
in duc
gun s</w>
go al
expe dition</w>
exist ing</w>
dra w</w>
dr um
da e</w>
d war
ü r
whe el</w>
th- century</w>
prot ect</w>
popul ations</w>
p ati
of t</w>
la sted</w>
gar ian</w>
dra wn</w>
cul tiv
char ts</w>
7 00</w>
193 2</w>
193 1</w>
192 6</w>
tr am
spi rit</w>
sof t</w>
se tting</w>
ra ine</w>
queens land</w>
prin ted</w>
pref ecture</w>
med als</w>
lar s</w>
la m</w>
indic ate</w>
enti tled</w>
elim in
clu bs</w>
cam ps</w>
be c</w>
th an
t all
sub tropical</w>
singer- songwriter</w>
ro ws</w>
recor dings</w>
p ush
ob tained</w>
ne i
m al</w>
influ ential</w>
fer r
est ate</w>
ent ation</w>
el and</w>
br os
audi ence</w>
191 3</w>
ul ation</w>
tu m</w>
sugge sts</w>
sh owing</w>
re ci
pron unciation</w>
necess ary</w>
mur der</w>
min d</w>
medi um</w>
lin ked</w>
land s
foc us</w>
fail ure</w>
dev ice</w>
conserv ative</w>
a un
19 10</w>
si zed</w>
san g</w>
pu p
protec ted</w>
popul arity</w>
ortho do
ner ship</w>
liqu id</w>
identi ty</w>
ici de</w>
hu go</w>
ha z
ger ald</w>
gen ous</w>
f ishing</w>
cent re</w>
celebr ated</w>
c ena</w>
bow l</w>
baltim ore</w>
b i</w>
anim ation</w>
la ur
ky o</w>
j ar
i res</w>
hundre ds</w>
fe athers</w>
f itz
dun ham</w>
degre es</w>
cre ating</w>
cous in</w>
circul ation</w>
bure au</w>
at tribu
to x
str ug
re ven
om an</w>
hol id
h ad
ch ance</w>
bl in</w>
ast ro
archit ect</w>
ar ranged</w>
7 1</w>
stor ms</w>
pred ators</w>
n ic</w>
increas ing</w>
for ward</w>
fin ish</w>
ber ry</w>
ag a</w>
8 2</w>
viol in</w>
un able</w>
st e</w>
situ ated</w>
r at
p ink</w>
offic es</w>
kn ight</w>
gre g
exist ence</w>
e isen
docum ent</w>
der by</w>
den cy</w>
cr is
comb at</w>
car din
bo w</w>
beau ti
bal d
att ached</w>
7 2</w>
wor n</w>
wid es
voc als</w>
vic tor</w>
star ts</w>
phil harmonic</w>
p ack
op hy
k as
il le</w>
happen ed</w>
grad ually</w>
ge tting</w>
dri vers</w>
di al
de tro
char ged</w>
bon ds</w>
b -
aw are</w>
ar ian</w>
af gh
ac cur
8 3</w>
to ols</w>
to kyo</w>
scre en
ri d</w>
ran ges</w>
op port
n an
mi x</w>
matthe w</w>
iz es</w>
inter ior</w>
hamil ton</w>
e tr
concentr ation</w>
char lot
ch i</w>
al y
7 9</w>
u x</w>
t ag
ri d
p ath
l ec
ic ity</w>
hi p</w>
fl ag
fac es</w>
f on
er son</w>
e us</w>
continu es</w>
be d
ace ous</w>
a o</w>
pu er
part ner</w>
on ian</w>
ir an</w>
fl ows</w>
ear l</w>
defin ition</w>
d é
com edi
co ol
c at</w>
bel t</w>
at om</w>
ar ily</w>
ther ine</w>
th ur
purpos es</w>
mol ecu
molecu le</w>
minu te</w>
ministr y</w>
in ary</w>
di vor
contr ast</w>
con cep
c est
bo tt
b au
wil d
tow ard</w>
si sters</w>
op ter
mon arch</w>
main tained</w>
k it
govern ments</w>
f c</w>
f ab
em or
detro it</w>
daugh ters</w>
d il
car ter</w>
and -
191 4</w>
w ich</w>
vir us</w>
v ice</w>
tel e
p an</w>
nor way</w>
n y
mis s</w>
meas ure</w>
mag nit
k re
h ag
ger mans</w>
ess ing</w>
eg o</w>
do w</w>
de t
cap ture</w>
bl in
bi ological</w>
bang lad
aw n</w>
192 1</w>
tri be</w>
sym me
specific ally</w>
sp o
sal t</w>
re views</w>
re sources</w>
h its</w>
g ur
fe el
egyp tian</w>
classi fication</w>
chr ist</w>
car ry</w>
car l</w>
b by</w>
9 6</w>
z en</w>
w on
trans fer</w>
pl ain</w>
out standing</w>
four -
communic ation</w>
ar tis
applic ation</w>
air lines</w>
academ ic</w>
volun te
ten nis</w>
rel ations</w>
purch ased</w>
min er
kn ess</w>
ir a
inter view</w>
ig n
frank lin</w>
earthqu ake</w>
colon ial</w>
chro mos
ch ose</w>
bre aking</w>
ax is</w>
a .
wides pre
widespre ad</w>
w er
t ment</w>
stre ets</w>
shor t-
sequ el</w>
p it</w>
og y</w>
my ster
jew s</w>
it or</w>
ir o</w>
hydro gen</w>
hem is
ha u
gene tics</w>
g om
fin ds</w>
ef forts</w>
chap el</w>
car r
bap ti
ann oun
t ons</w>
se ats</w>
ow a</w>
no tes</w>
mel o
in habit
hun t</w>
g one</w>
g ay</w>
disci pl
cross ing</w>
con tained</w>
co des</w>
ci ph
caes ar</w>
9 2</w>
use ful</w>
sus pen
sub -
stu dying</w>
sh r
promo ted</w>
ph ase</w>
op pon
napol eon</w>
mo d
islam ic</w>
fir m</w>
fantas y</w>
e ties</w>
dist ur
debu ted</w>
d t</w>
co ff
br y
am ing</w>
8 8</w>
wis cons
win ners</w>
ve ter
tur key</w>
tor ate</w>
ter -
su m</w>
re vi
qual if
pre ci
p ath</w>
orb ital</w>
off er</w>
nor man</w>
nec k</w>
n ap
inf ection</w>
il a</w>
ex ternal</w>
den sity</w>
de -
con sec
clin ton</w>
b ak
auth ors</w>
au to
advant age</w>
8 4</w>
sug gest</w>
st ur
soldi er</w>
soci alist</w>
sa il
re comm
g ar</w>
fe eding</w>
chang ing</w>
ch el
b eng
w cw</w>
vis itors</w>
tal ent</w>
sw im
success or</w>
stra it</w>
situ ation</w>
sh er
sam uel</w>
ra ys</w>
nic hol
is ation</w>
h ang
g g
fac ed</w>
cross ed</w>
ch oc
bro o
attemp ts</w>
7 7</w>
5 7</w>
2 ,000</w>
10 ,000</w>
th ick</w>
st able</w>
por ter</w>
pil ot</w>
op posed</w>
mon ast
min ing</w>
mad ison</w>
is a</w>
gu ine
f .</w>
exhibi tion</w>
ex pen
es cap
ef a</w>
dra wing</w>
bl ed</w>
bil li
ab c</w>
1 ,000</w>
up graded</w>
tra ined</w>
sol ved</w>
represent ative</w>
qu o
puer to</w>
pro gramm
orthodo x</w>
mo ves</w>
m o</w>
lo -
lead ership</w>
it ems</w>
inter ested</w>
imm une</w>
gran t</w>
essi ons</w>
de aths</w>
beat les</w>
ad dress</w>
1 20</w>
we d
th in</w>
techni ques</w>
ru p
ri er</w>
retur ning</w>
r ho
p ent
neighbor hood</w>
mechan ical</w>
k r
ex press</w>
di um</w>
dem an
cr yp
cor ner</w>
circ um
aven ue</w>
a id</w>
9 8</w>
sty les</w>
que bec</w>
qu anti
plan ning</w>
pian ist</w>
pass es</w>
oc y
nor man
n om
me ter</w>
m p</w>
il ian</w>
h is
cust om
cap it
cap able</w>
9 7</w>
t ony</w>
syn thesis</w>
swe et</w>
supre me</w>
sun day</w>
s ke
ro oms</w>
ris es</w>
re ality</w>
poe try</w>
mou se</w>
min nes
m ates</w>
lou isi
k ö
ju dge</w>
jor dan</w>
j eff
im pres
happ y</w>
groun ds</w>
g p</w>
fl av
experim ents</w>
expan sion</w>
ex c
de struc
car ni
8 0
virg in</w>
view ed</w>
surviv or</w>
rol ling</w>
ra d</w>
pri est</w>
p ir
nar row</w>
minnes ota</w>
mccar tney</w>
mar yland</w>
mar g
lin ks</w>
indi genous</w>
fer din
docum entary</w>
cre t
c aught</w>
bi ble</w>
beauti ful</w>
b ag
191 5</w>
un ity</w>
travel ing</w>
s er</w>
po d</w>
louisi ana</w>
l b</w>
journ alist</w>
jo ining</w>
differ ences</w>
dec ades</w>
de ut
ben ef
bel gian</w>
a f</w>
7 0
u efa</w>
su icide</w>
sig ns</w>
respon si
observ ations</w>
ne ph
lear ning</w>
ex pos
e o</w>
dec ade</w>
commun ist</w>
c ook</w>
bl an
ul ty</w>
sh ad
po k
mo de</w>
j im</w>
ho sts</w>
f a</w>
ex pressed</w>
electr ical</w>
dru g</w>
do ing</w>
des cent</w>
al ties</w>
aband oned</w>
thou sand</w>
si onal</w>
settl ers</w>
s y</w>
re bel
on ing</w>
o on</w>
lar v
hor iz
hit ler</w>
gra ve</w>
fro gs</w>
en ge</w>
chall enge</w>
b av
atic ally</w>
ac re</w>
transl ated</w>
termin al</w>
roman tic</w>
pay -
no on</w>
n ine
mon arch
le op
larv ae</w>
i g</w>
fun dam
entran ce</w>
cry st
coun c
co at</w>
canadi ens</w>
can ton</w>
can al</w>
c au
bre eding</w>
ay a</w>
armen ia</w>
ar ab</w>
an sw
7 6</w>
th i
rem n
re place</w>
ra y
pier re</w>
mar ke
m ic</w>
lu x
la wy
kin ds</w>
hemis phere</w>
glo be</w>
for ec
e ks</w>
du blin</w>
dan cer</w>
ang lo-
an der
ace ae</w>
ã o</w>
wiscons in</w>
west minster</w>
sw iss</w>
spon sor
s elec
re presents</w>
micros oft</w>
loc ations</w>
graph ic</w>
fri ed
effec tive</w>
don ald</w>
domes tic</w>
distribu ted</w>
constitu tional</w>
c ac
bro ok
bac hel
appear ances</w>
vill ages</w>
viet nam</w>
ul ated</w>
sig nal</w>
re fu
re ally</w>
produc tions</w>
po em</w>
nel son</w>
hun gary</w>
histor ian</w>
grand father</w>
gen es</w>
f at
character istics</w>
c ock
x x
wr ence</w>
w ine</w>
us h</w>
ti fied</w>
sig nature</w>
scri pt</w>
sax e-
mete or
magnit ude</w>
la wrence</w>
inhabit ants</w>
fa ith</w>
dr in
dan cing</w>
consi st
clar k</w>
brief ly</w>
bl ing</w>
7 8</w>
7 3</w>
x i
ten ed</w>
sub jects</w>
sh ir
sec tions</w>
s ession</w>
resi dence</w>
j i</w>
heav ily</w>
h es</w>
grap her</w>
go ti
fix ed</w>
eth nic</w>
e o
con sci
8 9</w>
6 3</w>
y ards</w>
vic es</w>
vertebr ates</w>
tic a</w>
r ag
ph as
off ers</w>
no ble</w>
n i</w>
kill ing</w>
k es
jun ction</w>
h es
fre sh</w>
duch y</w>
deut sch
consi der</w>
collec tions</w>
ass ass
ang ar
an ian</w>
ad ding</w>
wor k
spir it
si oned</w>
she ar</w>
reg ularly</w>
recei ving</w>
re stri
pro ved</w>
par as
pa ul
other wise</w>
manu el</w>
ly n</w>
in do
in al</w>
ho p</w>
floo ding</w>
d .c.</w>
birth day</w>
al thy</w>
190 8</w>
189 6</w>
15 th</w>
v ary</w>
un a</w>
te en
stre t
rang ers</w>
patter n</w>
ne eds</w>
mov ements</w>
k am
j et</w>
her self</w>
h as
guine a</w>
cz ech</w>
cle an
atmos phere</w>
anal y
am az
190 1</w>
t at
se ed</w>
ro ger</w>
psych ology</w>
prote ins</w>
ne goti
nav ig
meas ured</w>
m ice</w>
k shire</w>
in stance</w>
expl ained</w>
electr ons</w>
conv enti
col e</w>
child hood</w>
bir m
advent ure</w>
accompan ied</w>
wal king</w>
ti ves</w>
ta iw
provi ding</w>
l ap
h att
gr ass
g ent</w>
defe ating</w>
call s</w>
birm ingham</w>
ar iz
ag an</w>
vers ity</w>
vehic le</w>
rel l</w>
rec ep
rail road</w>
qu in
pro pos
pe t
off s</w>
meas ure
kh an</w>
ill es</w>
honor ary</w>
fran ch
cri tic
bre w</w>
bran ches</w>
au sten</w>
193 0s</w>
tri p</w>
tion ed</w>
the tic</w>
tem porary</w>
sh ow
ro ots</w>
rar ely</w>
phen om
ph ot
norman dy</w>
n au
migr ation</w>
m und</w>
m ap
j on
inv ented</w>
h ired</w>
flor a</w>
fl ood</w>
fil i
eag le</w>
domin ant</w>
d s
con dition</w>
co st
busin ess
ben jam
app ing</w>
w as
sen ator</w>
s ad
public ation</w>
pr ice</w>
portu gal</w>
phr ase</w>
m ati
ir s</w>
el dest</w>
domin ated</w>
di ary</w>
co sta</w>
an ni
adv ance</w>
acci dent</w>
a im
a ar
z ing</w>
z er</w>
tr um
stri ke</w>
si mul
r att
parti cles</w>
p .</w>
organ ism</w>
or lé
mechan ism</w>
mechan ics</w>
mat ure</w>
great ly</w>
gr en
ga ther
fro g</w>
facil ity</w>
ef fort</w>
ed in
coll ected</w>
broad way</w>
benjam in</w>
bachel or</w>
ariz ona</w>
amoun ts</w>
afgh an
9 3</w>
v inc
ul ed</w>
transi tion</w>
t ch
sou theastern</w>
sax ony</w>
requ ire</w>
pri mi
pay- per-
patter ns</w>
nor folk</w>
licen se</w>
jo bs</w>
in si
e ye
di versity</w>
dan ish</w>
cour ses</w>
artis tic</w>
14 th</w>
where as</w>
ter ror
teles cope</w>
subur bs</w>
struc k</w>
sour i</w>
sk el
sch ed
produc ers</w>
pok é
person ality</w>
ou ts</w>
mis souri</w>
man ia</w>
mach ines</w>
har rison</w>
go th
et ary</w>
er c
di am
d at
cr ash</w>
c d</w>
an es</w>
afghan istan</w>
20 s</w>
186 1</w>
v .</w>
survi ve</w>
stre ss</w>
sou l</w>
small est</w>
sh op
scen es</w>
ro ber
restri al</w>
produc es</w>
pow der</w>
or ton</w>
oo th</w>
in sur
in land</w>
i owa</w>
harv ard</w>
g as
di v
conn ection</w>
con feder
bald win</w>
b b
al co
ty pho
thre at</w>
t es
suff ici
pr ost</w>
pho en
mil k</w>
ma ine</w>
inj ury</w>
he im</w>
d w
consi sted</w>
bri ght</w>
an- american</w>
ym outh</w>
u ch
statis tical</w>
stat ement</w>
rus sell</w>
quali fied</w>
pron ounced</w>
pl ates</w>
orlé ans</w>
mc mah
m é
hy bri
hop e</w>
gr ace</w>
go ds</w>
ge -
ga e</w>
fran ç
fl ash</w>
fif teen</w>
d ent
bru ce</w>
bri ef</w>
bo tan
b alls</w>
ar ed</w>
win dow</w>
under standing</w>
tr a</w>
t z</w>
spe ak</w>
primi tive</w>
poké mon</w>
l op
it ted</w>
intro duction</w>
fic ations</w>
el eph
dis c</w>
din osaur</w>
de an</w>
cycl op
cri tic</w>
correc t</w>
chap ter</w>
chan cell
ben e
bar a</w>
17 0
turk ish</w>
tre at</w>
tas k</w>
t to</w>
publ ishing</w>
pe aked</w>
ma ker</w>
inten sity</w>
ham mad</w>
fir ed</w>
f ish
contribu tions</w>
br inging</w>
bel ar
banglad esh</w>
a x</w>
2 50</w>
190 3</w>
v est
tiv ity</w>
sur ren
scal es</w>
re ment</w>
r ing
pol ar</w>
os la
o z
light ning</w>
impro ve</w>
habit at</w>
fac tors</w>
f ast
expl o
edin burgh</w>
desig ns</w>
cret aceous</w>
commis sion
te a</w>
satur day</w>
ri e</w>
repu tation</w>
re duce</w>
pay-per- view</w>
mor ph
mis sing</w>
lead s</w>
k angar
inf ec
flu id</w>
em my</w>
del ta</w>
christi an
charlot te</w>
c s</w>
be et
alter n
alp ha
all en</w>
ag ents</w>
6 ,
190 5</w>
z burg</w>
sim on</w>
r ings</w>
pl ymouth</w>
philos opher</w>
p ast
origin ated</w>
k u</w>
jos é</w>
gor don</w>
gab ri
electr icity</w>
domin ican</w>
dep th</w>
dar ies</w>
b ound</w>
ar ena</w>
agricul tural</w>
ab str
vir tu
tro p
tr act</w>
ti ger</w>
t enth</w>
stri p</w>
r in
plan ets</w>
pit ts
parli am
lo ad</w>
lear n</w>
ing en</w>
hou sing</w>
h ir
every thing</w>
deta ils</w>
de vices</w>
c ass
bl oo
b ble</w>
agricul ture</w>
ag ues</w>
adv oc
1. 5</w>
vi i</w>
vehic les</w>
sur vey</w>
specim ens</w>
s pl
represent ing</w>
regim ent</w>
port ers</w>
nei ther</w>
me ets</w>
k ash
institu tion</w>
impro ved</w>
establ ishment</w>
el i</w>
eat en</w>
e dia</w>
drum mer</w>
dis aster</w>
cu b
compu ters</w>
comedi an</w>
br ac
boun daries</w>
apol is</w>
vir uses</w>
tre ated</w>
t ale</w>
stic k</w>
sl av
ser ver</w>
reti rement</w>
prot oc
p us</w>
modi fied</w>
li a</w>
kur t</w>
hel ps</w>
he brew</w>
h ence</w>
goo d
fav or</w>
ell ar</w>
de er</w>
cat s</w>
ad ol
190 2</w>
war ri
w are</w>
tow n
tin y</w>
theor e
tak er</w>
sym b
s ale</w>
ren aissance</w>
rang ing</w>
no vel
mathematic al</w>
man hatt
manhatt an</w>
m essi
lea f</w>
institu tions</w>
gr ass</w>
go dd
gen re</w>
ge on</w>
fl anders</w>
ex ists</w>
ec tor</w>
deliver ed</w>
cerem on
back ground</w>
b ati
b at</w>
ari um</w>
argent ina</w>
after wards</w>
vers ary</w>
v as
su itable</w>
stan ts</w>
restaur ant</w>
requ est</w>
ok la
okla hom
ob jec
mer cur
mcmah on</w>
life time</w>
in y</w>
how ard</w>
gol d
ge off
dra fted</w>
dis si
cy lin
continu ous</w>
clu ster</w>
bre vi
al o</w>
3 ,000</w>
189 0</w>
wil hel
w er</w>
transpor tation</w>
strong est</w>
ro d
qu et</w>
po ds</w>
peter sburg</w>
ol ate</w>
oc h</w>
o a</w>
n ings</w>
myth ology</w>
loc k</w>
j as
invol ving</w>
investig ation</w>
inten si
inci dent</w>
holid ay</w>
hear ing</w>
h amm
fu sion</w>
fi de</w>
el em
cour ts</w>
categ ories</w>
ber mu
aut onom
adap tation</w>
stor es</w>
sla m</w>
ri o</w>
ow ners</w>
micha els</w>
is sion</w>
geoff rey</w>
g ation</w>
eg g</w>
e pi
dr ink</w>
compos ers</w>
bil ly</w>
be ver
at ar</w>
an gel</w>
9 4</w>
y e</w>
ve ge
ul u</w>
tour ist</w>
stor age</w>
sculp ture</w>
roc ky</w>
ott oman</w>
op in
on y
of -
ne bul
mag ic</w>
ma x
ma ur
goo gle</w>
fil med</w>
d son</w>
commis sioned</w>
cl au
appro ved</w>
ak i</w>
189 5</w>
week ly</w>
voc al</w>
titu de</w>
threat ened</w>
tel eph
progre ss</w>
op er</w>
mun ich</w>
mil ler</w>
low est</w>
her bi
h o</w>
fre sh
for d
ex pres
deter mine</w>
desig ner</w>
cris is</w>
contro versi
am bi
air e</w>
abil ities</w>
7 4</w>
5 ,
view ers</w>
ti ci
ten d</w>
taiw an</w>
t ool</w>
su peri
st em
schol ars</w>
ric o</w>
re ver
pur ple</w>
pl ot</w>
phys ic
phil li
ko v
i di
eng aged</w>
e vil</w>
e ous</w>
con ven
ca therine</w>
c attle</w>
bo ar
bern ard</w>
ag gre
tt a</w>
supp lies</w>
stor y
stand ards</w>
schem e</w>
s ounds</w>
rec ru
pol es</w>
plan es</w>
per cy</w>
or eg
oklahom a</w>
ni k</w>
me tre</w>
k new</w>
ja b</w>
invol ves</w>
execu ted</w>
ev in</w>
en cyclop
ar es</w>
v eg
tur ns</w>
t ant</w>
sym pt
swim ming</w>
su it</w>
st ock
sig ning</w>
si e
scri p
revol utionary</w>
r hin
premi ered</w>
pic ked</w>
p um
p airs</w>
minist ers</w>
m organ</w>
his pan
ex posed</w>
dro p</w>
col om
c ec
c able</w>
bros .</w>
ath ens</w>
ab brevi
war ner</w>
us cri
tur b
strength ened</w>
st ered</w>
qu ot
princi ples</w>
po tter</w>
pitts burgh</w>
par tly</w>
oun ded</w>
offen sive</w>
man uscri
man ner</w>
lim it</w>
l en</w>
kar l</w>
k ent
jour ney</w>
in her
i tions</w>
graph y</w>
fac tor</w>
experi enced</w>
ev el
ens is</w>
emplo yed</w>
dis k</w>
carr ying</w>
car b
ak a</w>
y ug
wi i</w>
sn ow
slo ven
rou tes</w>
ou gh
os y
man sell</w>
la di
hun garian</w>
fir st-
f ate</w>
f an
em phas
defen sive</w>
continu ing</w>
con su
compan ion</w>
bud get</w>
al b
190 7</w>
west ward</w>
ut c</w>
un esco</w>
sympt oms</w>
spectr um</w>
sched uled</w>
s tim
requ ires</w>
ple as
perf ect</w>
over seas</w>
no tic
n igh
laun ch</w>
jum p</w>
il ia</w>
hypo thesis</w>
fitz gerald</w>
ferdin and</w>
com plic
co ins</w>
woo ds</w>
w ay
ul ate</w>
tur ning</w>
transl ation</w>
tan k</w>
t u</w>
sun g</w>
stor s</w>
spe aker</w>
sou ght</w>
so -
r ates</w>
prus sian</w>
physi ology</w>
peri o
pe pper</w>
indic ates</w>
h n</w>
gener ated</w>
fri day</w>
et a</w>
ed ic
diag nos
di t</w>
der ing</w>
d it
chancell or</w>
bermu da</w>
bel ief</w>
arrang ement</w>
appro pri
a ine</w>
y ellow
wag ner</w>
ultim ately</w>
typho on</w>
st om
sch u
r é
pro per</w>
pl us</w>
o zo
mix ture</w>
mat t</w>
is le</w>
im mun
ic on</w>
estab lish</w>
educ ational</w>
dan ts</w>
contribu ted</w>
consec u
concer to</w>
bur ned</w>
amat eur</w>
al ban
6 0
- general</w>
yug osla
y am
we ak</w>
tis m</w>
t one</w>
shoo ting</w>
qu an
pun jab</w>
princi ple</w>
pre gn
ne v
min eral</w>
mar ry</w>
ll ery</w>
increas ingly</w>
gu ide</w>
fin ding</w>
ex cell
cont ex
competi tions</w>
comm emor
ann ually</w>
7 ,
190 6</w>
z y</w>
te t</w>
ste ps</w>
some what</w>
sn akes</w>
s am</w>
prepar ed</w>
phoen ix</w>
oc curr
nomin ation</w>
n one</w>
li p
len non</w>
i ve</w>
he ter
fin ishing</w>
extr a</w>
el der</w>
cul tures</w>
chron ic
cent ers</w>
bar n
ar ist
190 4</w>
vi ii</w>
ven ez
ter restrial</w>
ten n
te sting</w>
sha w</w>
sav oy</w>
respec t</w>
p ace</w>
oly m
nickn ame</w>
net t</w>
mu hammad</w>
me at</w>
fundam ental</w>
form at</w>
e ating</w>
distinc tive</w>
dang erous</w>
cl er
be ars</w>
astero ids</w>
ash ed</w>
arti llery</w>
al ia</w>
190 9</w>
189 8</w>
. a.</w>
z en
woo den</w>
vis ed</w>
v ince</w>
um -
th es</w>
satur n</w>
saf e</w>
play offs</w>
pat ri
oc ks</w>
o de
no -
ma il</w>
m id</w>
li sts</w>
itz er</w>
dem and</w>
d all
communic ations</w>
clo thing</w>
ch a</w>
c al</w>
and o</w>
188 9</w>
victor ian</w>
v ast</w>
tri g
sing le-
replac ement</w>
re solution</w>
re signed</w>
re ig
r at</w>
promo tion</w>
pal est
nov a</w>
mom ent</w>
mem bran
l ingu
in ist</w>
he in
gust a
fi ve-
emplo ye
e du
dr ums</w>
commer ci
char ter</w>
ast s</w>
anni versary</w>
am y</w>
al ph
a a</w>
189 7</w>
189 3</w>
y er
vi an</w>
to y</w>
ti ous</w>
speci alized</w>
ser ge
scor ing</w>
ru g
relati ves</w>
po ems</w>
o ch
manufactur ing</w>
loo ked</w>
k ane</w>
inj ured</w>
h -
goo ds</w>
g an
g ain</w>
docum ents</w>
dissi p
de ad
cro ps</w>
consecu tive</w>
compon ent</w>
colon ies</w>
char ges</w>
car to
attrac ted</w>
at tor
any thing</w>
ta x</w>
sub stitu
sovere ign</w>
sequ ences</w>
per si
orig ins</w>
olym pi
lawy er</w>
fe el</w>
ex ac
educ ated</w>
di oxide</w>
crimin al</w>
coun ter</w>
ch im
anton io</w>
al an</w>
activ ist</w>
u a</w>
thir ty</w>
te dly</w>
spirit ual</w>
retur ns</w>
ra id</w>
provin cial</w>
nickn amed</w>
jim my</w>
is lam</w>
induc ted</w>
i at
f it</w>
extr atro
extratro pical</w>
cho ir</w>
ad d</w>
viol ent</w>
tis sue</w>
the od
th um
sk ills</w>
sh oul
sel s</w>
responsi bility</w>
rac hel</w>
ra ft</w>
pu r</w>
promo te</w>
m um
lay ers</w>
ira q</w>
ir ing</w>
indi ana</w>
in st
in aug
he ir</w>
godd ess</w>
fic ial</w>
f en
ex erc
dres sed</w>
deb ate</w>
commit ted</w>
colle ges</w>
clos er</w>
cli ff
choc olate</w>
candi dates</w>
c af
arm ies</w>
0. 0
y ers</w>
w ast
viol ence</w>
venez u
v ac
v a
ti e</w>
t ang
rul er</w>
orbit als</w>
nin th</w>
ne ver
monast ery</w>
m w</w>
m im
ju dic
immigran ts</w>
id en
haw ks</w>
fi res</w>
exten sion</w>
ex ce
ev es</w>
du b
ap ost
al ion</w>
wit ch</w>
w arm
signific antly</w>
pass age</w>
par aly
nati onally</w>
mr s.</w>
miner als</w>
member ship</w>
impl em
frequ ency</w>
er i
ec ution</w>
e v</w>
de al
conclu ded</w>
cin em
ca ve</w>
c ed
bo ards</w>
b ell
ain ing</w>
wrest ler</w>
sp ots</w>
restor ed</w>
pear l</w>
oreg on</w>
mont gom
liter ally</w>
lin d
li z
great -
go d
geome try</w>
ford shire</w>
f ever</w>
dec line</w>
consider able</w>
compon ents</w>
co al
arri val</w>
amph i
after noon</w>
9 1</w>
ze us</w>
w ounded</w>
w ells</w>
tou ch
scienti st</w>
s ri</w>
rhyth m</w>
regar ding</w>
jur assic</w>
hol der</w>
fun eral</w>
foc used</w>
eas y</w>
e en</w>
du chess</w>
con crete</w>
clos est</w>
ch en</w>
can cel
bal d</w>
an ic</w>
am ong
19 20s</w>
. 5</w>
sp an</w>
se em
schol ar</w>
sax on</w>
sar ah</w>
roc ket</w>
research ers</w>
pi e</w>
ot to</w>
ordin ary</w>
n est</w>
minim um</w>
mac ro
isol ated</w>
inter medi
in um</w>
ger y</w>
down town</w>
def end</w>
christian ity</w>
character istic</w>
ce phal
braz ilian</w>
br a</w>
bas es</w>
b y-
7 3
3 0-
wor ms</w>
uc ky</w>
sub stan
spr ings</w>
sh u
sh allow</w>
se es</w>
s k</w>
r as
quan tum</w>
ow ski</w>
op es</w>
new ton</w>
moun ted</w>
mercur y</w>
ma e
li st
fin ance</w>
crow d</w>
ch en
cep tion</w>
best- known</w>
as ing</w>
among st</w>
admir al</w>
. d.</w>
week end</w>
voc alist</w>
thir teen</w>
tex ts</w>
strong ly</w>
sol ve</w>
se eing</w>
s al</w>
ri x</w>
re mo
prison ers</w>
prin t</w>
p ers</w>
oo s</w>
n bc</w>
meas ures</w>
mar t
lith u
k is
g az
for tune</w>
flu or
fe ud</w>
dri ving</w>
batt alion</w>
at -
ash i</w>
as sumed</w>
anth ony</w>
15 0
w ing
un k</w>
st am
sil k</w>
shr ine</w>
s nake</w>
res ort</w>
re l</w>
quar ter</w>
pro of</w>
n ose</w>
n ak
main tain</w>
m in</w>
m g</w>
lan ding</w>
l .</w>
inn oc
in fl
ga p</w>
g i</w>
g ent
form ers</w>
exac tly</w>
ex act</w>
dre am</w>
colon el</w>
c ers</w>
buff alo</w>
batt les</w>
athle tics</w>
an ch
af fili
advent ures</w>
addi tionally</w>
9 00</w>
wilhel m</w>
tion ing</w>
ten sion</w>
sh ops</w>
s end</w>
r ating</w>
prac tical</w>
ph one</w>
op ods</w>
nomin ations</w>
montgom ery</w>
mar gar
kent ucky</w>
k evin</w>
is her</w>
indones ia</w>
i as</w>
gu y</w>
dis played</w>
desig nation</w>
compe ting</w>
cho ose</w>
c k
c i</w>
bo bby</w>
bati sta</w>
13 th</w>
- day</w>
é r
u -
tour ed</w>
se attle</w>
re sc
prof it</w>
philipp e</w>
oc ked</w>
n em
mis sed</w>
mar s</w>
ligh t-
less er</w>
k an</w>
in ations</w>
ge ological</w>
en n
destruc tion</w>
dec re
bun des
bo d
bel ong</w>
be gun</w>
atlan ta</w>
ant ine</w>
am bass
al em</w>
1 10</w>
- in-
weap on</w>
vor ous</w>
vo tes</w>
rep tiles</w>
pic k</w>
pe ts</w>
par ent</w>
oper ate</w>
o gue</w>
north western</w>
milli ons</w>
ma sters</w>
lop ez</w>
le o</w>
le af
de par
campa ig
camer a</w>
c um
budd h
bru ins</w>
brook lyn</w>
appear ing</w>
ü n
y i
wrest lers</w>
vari ations</w>
v amp
v ak
ty r
sub species</w>
pul led</w>
pit ch</w>
pers ons</w>
line ar</w>
k .</w>
j o</w>
j ma</w>
hurric anes</w>
hol es</w>
gen eva</w>
fac ts</w>
f aster</w>
ent ering</w>
ed -
dest roy</w>
cre am</w>
carri er</w>
ang lic
ang er</w>
ag i</w>
accoun ts</w>
188 1</w>
vic tim
tr aded</w>
sp end</w>
south western</w>
sle ep</w>
s wi
resc ue</w>
rel ation</w>
proc essing</w>
mathem ati
lin ux</w>
l ag
j ab
indo -
gu id
geograph ic</w>
eng l
e x</w>
const ell
collap se</w>
cancel ed</w>
bre ad</w>
an them</w>
we t</w>
vol umes</w>
van cou
us alem</w>
tr ag
to s</w>
tem por
teleph one</w>
te ach</w>
shor ter</w>
ren ew
relati onships</w>
r ical</w>
pr o</w>
plat form</w>
or le
nu tri
nor theastern</w>
man tle</w>
jer usalem</w>
ic als</w>
fe ar</w>
ext ent</w>
ess ential</w>
el ed</w>
dis cover
corn ell</w>
broadcast ing</w>
bar cel
attor ney</w>
appar ent</w>
al ber
9 0
10 th</w>
wal ker</w>
vancou ver</w>
st ati
spr ing
sie ge</w>
sh ells</w>
prote stant</w>
portra it</w>
por tions</w>
os a</w>
ol ith
observ atory</w>
nic kel
loo ks</w>
legisl ative</w>
is a
hi d
har dy</w>
h ob
fried rich</w>
franch ise</w>
es man</w>
er ia</w>
ed o</w>
e k
duc ing</w>
dr a</w>
cr at
ch u
camer on</w>
bi ologist</w>
arab ia</w>
194 0s</w>
the ories</w>
sur ve
st ad
spir ation</w>
sain ts</w>
s ors</w>
ro of</w>
ro e</w>
reci pi
programm ing</w>
pro hi
orle ans</w>
may flower</w>
l us
k ne
joh ann</w>
inde x</w>
gradu ating</w>
g at
foo ds</w>
f lights</w>
f 1</w>
controversi al</w>
b aker</w>
ali ve</w>
ak ers</w>
4 ,000</w>
10 00</w>
í a</w>
v als</w>
th y
malay sia</w>
legi tim
lands cape</w>
is m
id ers</w>
i an
ex pression</w>
ent ers</w>
em ig
clo thes</w>
ch op
bour g</w>
bl ast</w>
beau ty</w>
any one</w>
an atom
al ities</w>
186 4</w>
10 0,000</w>
- r
ver tical</w>
tr ic
tel s</w>
simp son</w>
se al</w>
ric a</w>
ran king</w>
quar ter
per su
opport unity</w>
on ym
n is
je an-
in nov
ill o</w>
goth ic</w>
fall ing</w>
ed mund</w>
dro me</w>
del eg
cycl ones</w>
cro co
conver ted</w>
aqu atic</w>
and r
war t</w>
victim s</w>
ul f</w>
uk raine</w>
theore tical</w>
tar get</w>
sing ers</w>
saf fr
roc ke
re move</w>
re jected</w>
re ef</w>
r alp
pom pe
polic ies</w>
plas tic</w>
p o</w>
nichol as</w>
min ority</w>
met als</w>
mass es</w>
m tv</w>
m entary</w>
indic ated</w>
ham mer
h ill
g au
enem ies</w>
ei ved</w>
ec osy
e uc
dri ven</w>
di ego</w>
bur ial</w>
brid ges</w>
br us
ba i</w>
as ks</w>
ann i</w>
an cest
am ad
writ ings</w>
tal es</w>
st ol</w>
serv ation</w>
ro mans</w>
re ar</w>
ralp h</w>
r ats</w>
public ations</w>
part nership</w>
p c</w>
mo ons</w>
mar ath
m aps</w>
li me
le ys</w>
jer ry</w>
in ian</w>
gr oss
enjo yed</w>
d au
ak h</w>
achi eve</w>
vari ation</w>
tr y
shi ft</w>
po t</w>
pan ts</w>
os phere</w>
organ ised</w>
on au
mu d
mid d
kilomet ers</w>
inten se</w>
ill ness</w>
ic ed</w>
hon ors</w>
gu ests</w>
gr o</w>
g li
en ab
em en</w>
edi t</w>
dis order</w>
dis eas
di verse</w>
ch ie
187 6</w>
186 5</w>
12 th</w>
z ation</w>
wi g</w>
vis iting</w>
tr ading</w>
symb ols</w>
subur b</w>
struc tural</w>
st ev
st ating</w>
sal zburg</w>
repe ated</w>
predic ted</w>
paraly mp
nucle us</w>
neph ew</w>
n h
mos que</w>
me tr
lan ded</w>
keep ing</w>
k ra
i van</w>
hu a</w>
g y
expl ain</w>
ex plan
ell i</w>
dou bles</w>
car ds</w>
call ing</w>
bou l
bom b</w>
be er</w>
al u
we aring</w>
te sts</w>
ta h</w>
sli de</w>
sc at
ru ption</w>
rif le</w>
ri de</w>
replac ing</w>
regi ster</w>
parti ally</w>
org ans</w>
or bits</w>
nar r
k s
k om
john ny</w>
ja w</w>
im prov
house holds</w>
gri ff
four teen</w>
extinc tion</w>
experim ent</w>
et ta</w>
ed ly</w>
di r
descri ption</w>
cle vel
ch -
cer tain
business man</w>
bre w
barcel ona</w>
18 0</w>
z ar
wall ace</w>
v ent</w>
us age</w>
th under
temper ate</w>
sup porters</w>
sau ce</w>
ph ar
pap ers</w>
ozo ic</w>
mu d</w>
mon ument</w>
liber ty</w>
jeff erson</w>
isra eli</w>
in n</w>
ho l</w>
func tional</w>
ferr ari</w>
edit ors</w>
ed iting</w>
ec raft</w>
du s</w>
dow ns</w>
dan ces</w>
contex t</w>
conqu est</w>
cell o</w>
blin d</w>
ang ered</w>
ancest or</w>
ac cept</w>
vel oc
u te</w>
tun nel</w>
th eless</w>
teach ers</w>
solu tions</w>
she ep</w>
se e
ra ise</w>
r ors</w>
pe tro
p son</w>
novel ist</w>
never theless</w>
ne pt
moz art</w>
mor oc
mag n
m -
kn ights</w>
jam a
is -
in hab
inhab ited</w>
id en</w>
hu gh
guer r
fru its</w>
frequ ent</w>
dimen sional</w>
dall as</w>
ch ile</w>
br yan</w>
astronom er</w>
apol lo</w>
ac ids</w>
- l
z u
whit e-
vari able</w>
tas mania</w>
t les</w>
schol ar
s atis
r ina</w>
pow ered</w>
pal ae
or es</w>
opin ion</w>
o gen
nit ro
m att
lay out</w>
kangar oo</w>
int ell
insec t</w>
in ess</w>
iden tical</w>
g lands</w>
erup tion</w>
emer ged</w>
el ine</w>
du ties</w>
dri ves</w>
do ors</w>
citiz en</w>
box ing</w>
bor ne</w>
bar on</w>
b old</w>
atten d</w>
189 4</w>
187 9</w>
zi g</w>
wild life</w>
wal d</w>
v ess
tw c</w>
suffici ent</w>
sub stance</w>
sh re
ri val</w>
ratt les
pi quet</w>
o don
n t</w>
mi ami</w>
me l</w>
kash mir</w>
ju an</w>
il li
ic o</w>
her o
gu ards</w>
fair ly</w>
f ting</w>
f ia</w>
every one</w>
el se</w>
diseas es</w>
declar ation</w>
ben edic
belong s</w>
ander son</w>
188 5</w>
yor kshire</w>
y u
tour s</w>
saffr on</w>
ques tions</w>
p en</w>
o ven</w>
n ut
li ver
l ar</w>
ki ds</w>
j twc</w>
in fr
hen ri
gusta v</w>
friend ly</w>
fil l</w>
figh ter</w>
dru gs</w>
defen ded</w>
clevel and</w>
ban ned</w>
ass ault</w>
asp ects</w>
achiev ement</w>
war fare</w>
spir al</w>
sound track</w>
rum ble</w>
requ ire
recogn ize</w>
rec re
rebel lion</w>
progres sive</w>
poin ted</w>
pi per</w>
parliam entary</w>
out put</w>
olog ies</w>
is o</w>
inter state</w>
hom o</w>
har ris</w>
frag ments</w>
fig ur
fer n
d ome</w>
d ently</w>
cu is
cot ton</w>
coo king</w>
concer ns</w>
ch ick
ch al
c bs</w>
b ic
at us</w>
alp ine</w>
ad jac
a is</w>
185 9</w>
18 50</w>
16 0</w>
í n</w>
wol f</w>
vo ting</w>
vide os</w>
te st
strong er</w>
stat ue</w>
sau di</w>
s ony</w>
re member
r yan</w>
present -day</w>
par am
p se
olith ic</w>
o ti
o ir</w>
medi an</w>
l ose</w>
jo in
j r.</w>
in ch</w>
hugh es</w>
hu gh</w>
gl as
gi ov
expen sive</w>
ex ual</w>
dic k</w>
cre dit</w>
cor al</w>
coal ition</w>
bo t</w>
ar do</w>
aff ect</w>
5 0,000</w>
189 9</w>
10 0
wo ol
ti ed</w>
ste in
st ac
premi ere</w>
musli ms</w>
mur ray</w>
margar et</w>
mar tial</w>
lea p</w>
lan ka</w>
la ura</w>
ke e</w>
her bert</w>
har old</w>
h ms</w>
gra vity</w>
gil bert</w>
g ates</w>
fac ing</w>
est -
enter prise</w>
elimin ated</w>
e b
dwar f</w>
di stances</w>
depart ments</w>
de vil</w>
conf used</w>
commission er</w>
clu sters</w>
bo ats</w>
ber kel
ance stry</w>
al gae</w>
adjac ent</w>
ab und
z ones</w>
y ment</w>
vinc ent</w>
uk rain
thou se</w>
te c</w>
sen ators</w>
se ems</w>
roun ds</w>
remo te</w>
purch ase</w>
public ly</w>
pro to
peo ples</w>
partic le</w>
o g</w>
n ell</w>
main stream</w>
li ked</w>
le ton</w>
j ay</w>
is ions</w>
hor ses</w>
hel ping</w>
h ell</w>
h ans</w>
goal tender</w>
fur t</w>
f at</w>
equ ation</w>
enti ally</w>
ec ting</w>
e ira</w>
depen dent</w>
cri tici
co sts</w>
bus h
bre ed</w>
berkel ey</w>
ban k
autom atic</w>
amad eus</w>
air bus</w>
abund ant</w>
20 -
189 2</w>
11 th</w>
wor st</w>
w es
valu able</w>
vak ia</w>
trou ble</w>
there after</w>
tan a</w>
sust ained</w>
six teen</w>
ser i
ro l</w>
poc ket</w>
o vi
newspap ers</w>
ner v
municipal ities</w>
l om
i jan
i ding</w>
histor ians</w>
hamp shire</w>
h all
gra vit
gr u
gl en
f ing
en dem
el se
du o</w>
dram atic</w>
d ust</w>
cr ater</w>
cr ab
correspon ding</w>
cop y
conduc ting</w>
char lie</w>
bul l
brus sels</w>
bi ography</w>
azerba ijan
aut um
arch ip
187 5</w>
187 1</w>
z ina</w>
vi br
v ladi
sud den
speci al
so ap</w>
s ar</w>
read s</w>
psych iat
pse u
prin ting</w>
pp ers</w>
pe l</w>
o tic</w>
nic k</w>
neu ro
n ow
mean while</w>
mas k</w>
ma ster
m ack
juli an</w>
it ting</w>
in spec
im possible</w>
i on
hawa i
h og
h ell
form ations</w>
fall en</w>
es a</w>
descen dants</w>
d ak
con di
collabor ation</w>
coff ee</w>
ci ans</w>
bav aria</w>
b ath
b am
appar ently</w>
and y</w>
189 1</w>
0 00</w>
wav el
w ic
theat ers</w>
sur gery</w>
superi or</w>
ste wart</w>
st ellar</w>
so- called</w>
ra ven
physic ist</w>
nic ol
marsh all</w>
l loy
industri es</w>
il ing</w>
har a</w>
g el
for th</w>
fe u
experim ental</w>
else where</w>
el ic</w>
ef f</w>
den omin
d as</w>
assi um</w>
archip el
arch bishop</w>
an te</w>
ag on</w>
a ide</w>
3 d</w>
. com</w>
x on</w>
w ick</w>
voy age</w>
tus can
to t
simil arly</w>
shad ow</w>
sen si
seg ment</w>
sal v
s man</w>
rul ers</w>
reg ent</w>
qualif ying</w>
publ isher</w>
pro ph
portra yed</w>
ov a</w>
oli ver</w>
mus cle</w>
mil len
le g</w>
k le</w>
incre ases</w>
in fin
il es</w>
gu m</w>
gal il
for tun
fl ed</w>
f und</w>
eng u
em press</w>
cu be</w>
contro ls</w>
con go</w>
ch ase</w>
c ool</w>
bor dered</w>
autum n</w>
attrac tion</w>
appropri ate</w>
am o
ad mitted</w>
20 ,000</w>
188 8</w>
-r cb-</w>
way ne</w>
w ants</w>
v is</w>
ur du</w>
up date</w>
tall est</w>
suspen ded</w>
sudden ly</w>
stor ed</w>
sent ence</w>
roun ded</w>
roc k
remn ants</w>
rati o</w>
presi dency</w>
pra yer</w>
phys ician</w>
ph eric</w>
p ure</w>
oper ates</w>
om ing</w>
ode on</w>
ob a</w>
o ak</w>
nap les</w>
muse ums</w>
mil ky</w>
legisl ature</w>
install ed</w>
gl ac
f ying</w>
ex ecution</w>
escap ed</w>
engine ers</w>
en der</w>
ed die</w>
du m
cor on
circ ular</w>
ch it
as su
187 0</w>
u l</w>
tur tles</w>
tur ing</w>
ton gue</w>
tec h</w>
surren der</w>
sub si
sol e</w>
shar es</w>
sh ock</w>
settl ements</w>
sec ure</w>
rup ted</w>
restric ted</w>
re built</w>
ran ks</w>
ran dom</w>
plat inum</w>
plat eau</w>
net works</w>
melo dy</w>
lu d
le y
kat rina</w>
insur ance</w>
immedi ate</w>
famil i
es is</w>
es c
engl ish-
dor f</w>
curr ency</w>
cre ative</w>
cardin al</w>
bin ary</w>
b ited</w>
argu ed</w>
8 ,
6 ,000</w>
188 0</w>
-l cb-</w>
wid ow</w>
tuscan y</w>
tru th</w>
tou ch</w>
t elling</w>
st ap
ro o
ri sts</w>
regi stered</w>
re tained</w>
re covered</w>
re agan</w>
pro mp
par ad
nickel odeon</w>
mil an</w>
mar kets</w>
mach in
l t
jud ges</w>
is ot
inde ed</w>
gener ations</w>
excep tion</w>
en on</w>
dol lars</w>
divor ced</w>
direc tors</w>
des er
con tain
cath ol
bri g
be am</w>
bar ry</w>
attribu ted</w>
ap tor</w>
ambass ador</w>
am us</w>
186 7</w>
186 2</w>
wi der</w>
w ire</w>
ven ice</w>
un less</w>
tournam ents</w>
tor n
tom b</w>
t sun
sym bol
six -
shop ping</w>
sha kes
shakes pe
sh ru
se em</w>
sam ple</w>
rol led</w>
ro os
re aches</w>
push ed</w>
pul itzer</w>
pil gri
p engu
or ni
or al</w>
nigh t
ner o</w>
n ath
inter action</w>
gro ws</w>
german -
dro mae
doc tr
do d
concep ts</w>
civil ization</w>
bur ns</w>
bal ance</w>
as a</w>
ad am</w>
ab er
a than</w>
188 2</w>
wast e</w>
ve get
tri assic</w>
tra il</w>
tr il
ti re</w>
ther mal</w>
ther ap
rac y</w>
pot assium</w>
p y</w>
p ter
moder ate</w>
mir ror</w>
l umin
intell ec
hon ey</w>
hi p
h s</w>
gover ning</w>
fa ult</w>
de em
d less</w>
cot t</w>
arm or</w>
ar sen
al tar</w>
aggre s
ac com
ab s
9 ,
z o</w>
ver sa
versa illes</w>
vamp ire</w>
tw enti
sy stem
sus p
st even</w>
simul tan
serv ant</w>
s word</w>
s aw
rou gh</w>
roman ia</w>
pre ce
pr en
po or
p m</w>
ot ta
n as</w>
mess ages</w>
m l</w>
lu ke</w>
l um
kre is</w>
j eff</w>
in qu
hun ter</w>
ham burg</w>
g m</w>
evel t</w>
ev angel
est ing</w>
eng ths</w>
effici ent</w>
effec tively</w>
de tail</w>
cre atures</w>
capit ol</w>
at t</w>
ar -
2. 5</w>
wh il
wel sh</w>
us sr</w>
tour ing</w>
thin king</w>
th u
t l
specim en</w>
sm ooth</w>
s ão</w>
restor ation</w>
ren owned</w>
rele ases</w>
pre dec
pra ised</w>
popul ated</w>
po ver
ow l</w>
oc ta
nept une</w>
nam ing</w>
lor ds</w>
k ak
ha us
gro ve</w>
g ym
employe es</w>
ed wards</w>
ear n</w>
e ously</w>
dom ain</w>
den se</w>
da ve</w>
critic ism</w>
cr ust</w>
conqu ered</w>
comple x
chem ist</w>
big ger</w>
ban e</w>
archipel ago</w>
ap o
adv ice</w>
a im</w>
z er
wit n
v aries</w>
torn ado</w>
thom pson</w>
th en-
tam il</w>
suff ering</w>
sle ep
sla ve</w>
shi eld</w>
roos evelt</w>
rocke f
rattles nake</w>
prec ed
pre servation</w>
per u</w>
pat ent</w>
ob tain</w>
mur phy</w>
mad rid</w>
lloy d</w>
k ie</w>
k hal
k ha
k ent</w>
inste in</w>
im a</w>
farm ing</w>
exten sively</w>
end angered</w>
ell ers</w>
dynam ic</w>
dor o
den burg</w>
del e
conduc t</w>
coll ins</w>
bar k</w>
avi an</w>
autom ob
attac king</w>
as tic</w>
abstr act</w>
abol ished</w>
188 7</w>
y d</w>
we t
volcan o</w>
viol et</w>
vess els</w>
t emp
sup ports</w>
strug gle</w>
soc cer</w>
sk ating</w>
sec tor</w>
s essions</w>
s ati
rus h</w>
ri ding</w>
reg ard</w>
re form</w>
pred ator</w>
pre ferred</w>
pat ron</w>
pale ont
off ering</w>
occas ions</w>
n un
l ington</w>
inv aded</w>
illustr ated</w>
hou ston</w>
hid den</w>
ex ile</w>
ess ors</w>
encour aged</w>
en za</w>
dis solved</w>
dem ol
character ized</w>
catal y
busin esses</w>
bloc ked</w>
ag encies</w>
ac compl
ab ra
186 6</w>
186 0</w>
18 00</w>
vo ices</w>
visi onal</w>
vers y</w>
val leys</w>
v ement</w>
under stand</w>
um ents</w>
thro wn</w>
th ail
thail and</w>
sw am
sup pl
stro ke</w>
sp her
solu te</w>
shor tened</w>
se ek</w>
scholar ship</w>
rockef eller</w>
re plic
qu ad
o h</w>
ne ur
matt ers</w>
mat rix</w>
m all</w>
j ay
invol vement</w>
ing -
governor -general</w>
giov anni</w>
gi b
flow ering</w>
f ü
ex cav
ern est</w>
eas ier</w>
der ney</w>
depos its</w>
croati a</w>
contro versy</w>
contribu tion</w>
con sum
cl ock
c on</w>
bes ides</w>
bar rier</w>
au dio</w>
at or
alph a</w>
185 7</w>
18 31</w>
18 12</w>
ñ a</w>
whe at</w>
venezu ela</w>
under taker</w>
t oo
sy ria</w>
statis tics</w>
st ol
sponsor ed</w>
shi p
rub ber</w>
resi dent</w>
recomm ended</w>
re di
play station</w>
philipp ine</w>
ph os
oppon ent</w>
n ab
medic i</w>
meas uring</w>
ko v</w>
kar yo
it i</w>
inv ent
in ae</w>
grand son</w>
friend ship</w>
fri ed</w>
dol ph
contin ents</w>
constell ation</w>
consist ent</w>
co ined</w>
cle arly</w>
cle an</w>
cam brian</w>
br is
associ ate</w>
ar c</w>
appoin tment</w>
ab lan
a ther</w>
к о
whil st</w>
vor es</w>
vill a</w>
transm ission</w>
ta ste</w>
t onic</w>
sup posed</w>
st own</w>
sk a</w>
sign als</w>
sal am
rug by</w>
ri ver
re z</w>
protoc ol</w>
pl ains</w>
om a</w>
moun tain
lime stone</w>
li ons</w>
la x
ho tels</w>
hear ts</w>
h r</w>
gol f</w>
fur ther
famili ar</w>
f li
ern st</w>
elem entary</w>
ear ning</w>
distingu ish</w>
den o
dec lined</w>
dak ota</w>
cycl es</w>
cra w
congre s
clou ds</w>
chromos omes</w>
camp bell</w>
athle te</w>
app ly</w>
administr ator</w>
acc used</w>
abs ence</w>
187 2</w>
185 2</w>
z inc</w>
v ig
tem plate</w>
si ber
shakespe are</w>
s ak
resi dential</w>
reli ef</w>
ran ger</w>
prepar ation</w>
pak ist
p in</w>
p es
out break</w>
opter a</w>
oper ative</w>
oper as</w>
neutr al</w>
n ba</w>
le ban
k h</w>
jac ques</w>
instrum ental</w>
ing redi
ick i</w>
hor ror</w>
han ded</w>
gi ft</w>
gi ants</w>
fran z</w>
fr s</w>
fin land</w>
f ear
ex pec
ev an</w>
drin king</w>
drag on</w>
coun t
conventi onal</w>
cons ist</w>
com ics</w>
bur ning</w>
bar s</w>
au s</w>
athle tic</w>
archit ec
ar rest</w>
ar k</w>
andr é</w>
americ as</w>
air line</w>
acc essi
ab ad</w>
a ea</w>
185 1</w>
14 0</w>
á n
val ry</w>
transi t</w>
str ings</w>
s ap
remember ed</w>
pu tting</w>
presi dents</w>
pain t</w>
o z</w>
ni um</w>
neigh bour
mac ed
luc y</w>
inter ests</w>
il ers</w>
hel ena</w>
grand mother</w>
g ig
exten ding</w>
en ne</w>
e u</w>
don key</w>
des ire</w>
circum stances</w>
che ese</w>
cas u
carbon ate</w>
br ick</w>
bloc ks</w>
atmos pheric</w>
ati vely</w>
assi sts</w>
am big
185 6</w>
è re</w>
x y</w>
x ena</w>
wat ched</w>
wa it</w>
vari eties</w>
thor n
t te</w>
st ery</w>
sit ting</w>
si ght</w>
sau ro
run ner</w>
rh ine</w>
read ers</w>
ra z
quot ation</w>
prin ts</w>
po is
pal m</w>
n g
mp tion</w>
map le</w>
less ons</w>
le eds</w>
j in
interpre tation</w>
horiz on
hel ic
ha r</w>
g ö
fun ding</w>
full- time</w>
for um</w>
euro vision</w>
ed mon
du ty</w>
dispu ted</w>
del aware</w>
confeder ate</w>
cat ch</w>
cas h</w>
c ular</w>
be eth
be ating</w>
ant arctic</w>
am ster
am orph
ablan ca</w>
a ic</w>
1 30</w>
0 8</w>
,00 0-
we im
vege tation</w>
v ector</w>
tw in</w>
ti de</w>
th ames</w>
test ament</w>
t ance</w>
stu art</w>
sp er
si us</w>
sh ri
s ch</w>
ro b</w>
re ss</w>
rad ical</w>
pur su
pol lu
person nel</w>
os car</w>
or ch
og a</w>
natur ally</w>
me tric</w>
mar ble</w>
m us</w>
m ose</w>
le ip
k az
inter nationally</w>
he ar</w>
hand le</w>
g em
em bry
dynam ics</w>
dat ab
d c</w>
critici zed</w>
conn ect</w>
con fi
coast line</w>
c ited</w>
bass ist</w>
al bat
air ing</w>
a ang</w>
y ou
ven er
uc ks</w>
tradi tions</w>
tic ated</w>
t z
substan tial</w>
sac red</w>
ron ald</w>
re mark
rail ways</w>
r il
per formers</w>
par ro
o id</w>
o de</w>
ne st
mor al</w>
marath on</w>
mar ines</w>
m ar</w>
land mark</w>
l ings</w>
k av
il legal</w>
ham as</w>
green land</w>
gi o</w>
geograph ical</w>
gener ate</w>
flow ing</w>
fil ming</w>
fe wer</w>
exten ds</w>
exclu sively</w>
establ ishing</w>
discover ies</w>
cuis ine</w>
concentr ated</w>
christi ans</w>
chor us</w>
centi metres</w>
by z
bor e
best- selling</w>
bene ath</w>
beeth oven</w>
bec k</w>
b li
azerbaijan i</w>
aur us</w>
as cen
appe al</w>
ant -
ambig u
afric an-american</w>
absor bed</w>
ab solute</w>
aar on</w>
185 3</w>
184 8</w>
y ah</w>
v s.</w>
tor nad
thir d-
tan ks</w>
su dan</w>
strateg ic</w>
squ ad</w>
s ley</w>
roman ce</w>
re ich
pol lin
po sted</w>
part ners</w>
p ounds</w>
nas a</w>
kov sky</w>
intermedi ate</w>
fast est</w>
fal se</w>
fac ulty</w>
essi ve</w>
doc tors</w>
cycl ing</w>
cryst al</w>
comp il
cap uch
box es</w>
bi ograph
be ij
au x</w>
ass ist</w>
anglic an</w>
an ast
amp ton</w>
al is</w>
abbrevi ated</w>
2 1st</w>
184 4</w>
10 .
z uk
wol f
war ren</w>
w ick
v acc
trin ity</w>
trans cri
th ic
swit ched</w>
strateg y</w>
si gh
s na
rul ing</w>
rec ur
re se</w>
radi us</w>
ra p</w>
r al</w>
promis ed</w>
parti ci
or m
ob ama</w>
o be</w>
mon ster</w>
maur ice</w>
liver pool</w>
li ga</w>
legen dary</w>
lati tu
j av
indepen dently</w>
in ser
identi fy</w>
horizon tal</w>
ho sting</w>
ha ven</w>
fi x</w>
fair y</w>
er ror</w>
d ental</w>
counc ils</w>
conserv atory</w>
comman ded</w>
coll ision</w>
civil ian</w>
citiz en
ch ant</w>
ch ann
cel tic</w>
cast er</w>
c e-
bur ke</w>
bas il
b ath</w>
arti ficial</w>
al ge
adel aide</w>
ab road</w>
a w</w>
187 4</w>
ا ل
wr ong</w>
ukrain ian</w>
tour ism</w>
t um
res cu
remain der</w>
p ale</w>
op tical</w>
on ary</w>
om er
mur dered</w>
mil ls</w>
le f
la sting</w>
in o
gramm ar</w>
gor ith
gar da</w>
g an</w>
frank furt</w>
estim ates</w>
end or
doub le-
descri bing</w>
competi tive</w>
belar us</w>
beij ing</w>
be es</w>
bat man</w>
autonom ous</w>
astronom ical</w>
arc tica</w>
an ism</w>
al gorith
accur ate</w>
a z</w>
y ale</w>
wor e</w>
wi ki</w>
wat son</w>
vladi mir</w>
v ag
under stood</w>
them es</w>
t ad
sk ir
shor t
sav ed</w>
ro ot</w>
plan ted</w>
pl u
photograph s</w>
ph or
pe ti
pat rese</w>
p and
out sen</w>
nev ada</w>
nerv ous</w>
mon gol
mol lus
may a</w>
mar l
leip zig</w>
kill er</w>
hu bble</w>
he ated</w>
h ann
fo ster</w>
event h</w>
eleph ant</w>
el eventh</w>
el e
ed ited</w>
ec cent
e ter</w>
dispu te</w>
croati an</w>
corn wall</w>
colum bus</w>
clos ing</w>
bom bing</w>
billi ards</w>
belong ing</w>
bar bara</w>
b outsen</w>
amster dam</w>
advertis ing</w>
ace ans</w>
187 7</w>
wa iting</w>
ul tram
tri o</w>
tornad oes</w>
sil ent</w>
scho ol
sau ber</w>
ro ad
reli able</w>
ran dy</w>
pris ing</w>
practic es</w>
pione er</w>
pan el</w>
out door</w>
main ten
m am
lud wig</w>
li sten</w>
leg ally</w>
la in</w>
gr am
go w</w>
expl ains</w>
elev ation</w>
el e</w>
ed a</w>
ec lip
don ated</w>
deutsch e</w>
d in</w>
cylin der</w>
coun ts</w>
compar ison</w>
belie fs</w>
ang ular</w>
an cy</w>
all ed</w>
ac o</w>
185 8</w>
win ters</w>
w ad
uni form</w>
uni fied</w>
top -
to dd</w>
to bac
the -
ten berg</w>
te x</w>
t ton</w>
sp ot
skel eton</w>
sent enced</w>
scat tered</w>
ro pe</w>
restaur ants</w>
re alized</w>
pre serve</w>
possi bility</w>
pos iti
observ ation</w>
ni kol
monarch y</w>
millen nium</w>
m ers</w>
leon ard</w>
kn ut</w>
k ō
jon athan</w>
habit ats</w>
gen ome</w>
ge e</w>
fun ds</w>
fif a</w>
explos ion</w>
europe ans</w>
elli p
electr on
el -
dr um</w>
defen ding</w>
d ame</w>
comp rises</w>
comp act</w>
ch es
av atar</w>
at ol
astronom y</w>
assi stance</w>
as k</w>
arg ument</w>
anthro pol
ant arctica</w>
ang les</w>
3 0,000</w>
188 4</w>
18 40</w>
é s</w>
vi er</w>
us her</w>
thro w</w>
tan ts</w>
t ul
st aun
squ ad
sil ver
sedi mentary</w>
sar din
pro jec
par ker</w>
p ain</w>
oce anic</w>
o b</w>
near est</w>
na ism
naism ith</w>
mo ths</w>
min es</w>
messi er</w>
ma c</w>
m our
leop old</w>
l ung</w>
integr ated</w>
h ec
go t
gir l
for cing</w>
fl an
fil m
feel ing</w>
f i</w>
expos ure</w>
el is
dist ant</w>
di ver
crow ned</w>
con spir
comm ons</w>
cl an</w>
cer tified</w>
celebr ation</w>
b ü
al umin
abra ham</w>
18 21</w>
we althy</w>
veget ables</w>
tim ber
til ity</w>
theod ore</w>
territ orial</w>
te sted</w>
tal king</w>
ste ad
spo ke</w>
slav es</w>
signific ance</w>
san c
rich mond</w>
ri g
og ne</w>
nu t</w>
nine teenth</w>
ne um
mus h
mid way</w>
lux em
lu ci
loo p</w>
in spiration</w>
immun ity</w>
id ity</w>
id em
i op
gen res</w>
g ill
ess entially</w>
enn ial</w>
en ess</w>
en cryp
counter ed</w>
consol e</w>
chann els</w>
ch ell</w>
c un
c rit
bas al
b our</w>
atten ding</w>
ash es</w>
8 ,000</w>
188 6</w>
184 3</w>
veloc ity</w>
tax onom
seg ments</w>
s ag
ro tation</w>
ro ok
ray mond</w>
quar tet</w>
pro pag
pp e</w>
plac ing</w>
pl er</w>
p ine</w>
p i</w>
ne il</w>
n ish</w>
moroc co</w>
li ft</w>
hol m</w>
hol land</w>
guil ty</w>
gre gor
gen der</w>
fin n</w>
equi pped</w>
em manuel</w>
e es</w>
dro ve</w>
do ver</w>
do s</w>
dis ne
differ enti
cur ve</w>
cry stall
conte stants</w>
comm ent
com et</w>
co oper</w>
co burg</w>
ch ains</w>
c é
c air
b af
august us</w>
ar t
ap prov
186 8</w>
185 4</w>
15 -
w ish</w>
ur i</w>
tri um
thro at</w>
th ly</w>
th al
ten s</w>
symme try</w>
squ id</w>
spe akers</w>
shor es</w>
ro d</w>
re d-
rac ial</w>
perio dic</w>
pakist ani</w>
nebul a</w>
michel le</w>
mainten ance</w>
lo os
ir on
inter actions</w>
inj uries</w>
in cl
ig nor
har t
grou ped</w>
greg ory</w>
gra ham</w>
gos pel</w>
fin ed</w>
f inger</w>
exper t</w>
exclu sive</w>
ex -
et t</w>
en comp
emper ors</w>
dur ham</w>
dis plays</w>
decor ation</w>
commer ce</w>
colom bia</w>
cal vin</w>
butter fly</w>
boo ker</w>
beet les</w>
atic s</w>
ass es</w>
arm ored</w>
ance stors</w>
accoun ting</w>
a 3
187 8</w>
18 15</w>
x i</w>
whit e
wat ching</w>
v o</w>
u z
tox ic</w>
ti gers</w>
ther mo
shoul der</w>
sem i
pro visional</w>
preci pit
pl um
particip ate</w>
os yn
off spring</w>
mus cles</w>
man i
magaz ines</w>
j e</w>
instruc tions</w>
indi es</w>
hu b</w>
helic op
he ating</w>
hamm er</w>
ha v
gre y</w>
g b</w>
fis her</w>
f é
ex trac
el i
edu le</w>
do ve</w>
distinc tion</w>
deta iled</w>
def ine</w>
d oms</w>
d ged</w>
d ar</w>
cu ban</w>
cor d</w>
con vers
citizen ship</w>
c n
bu y</w>
bre aks</w>
black -
bapti st</w>
approv al</w>
answ er</w>
amm u</w>
ab use</w>
18 13</w>
yugosla via</w>
writ es</w>
wed ding</w>
ven us</w>
var ying</w>
u li
tur in</w>
tow ers</w>
tobac co</w>
tap e</w>
ta ils</w>
ste am</w>
sp ending</w>
san sk
s son</w>
recipi ent</w>
produc tive</w>
princi pal
pl ague</w>
ph er
ous ness</w>
off -
n ou
n ights</w>
log ic</w>
lo b
in vention</w>
hat ch</w>
glas gow</w>
follow ers</w>
flu x</w>
floo ded</w>
fel d</w>
experi ences</w>
evacu ation</w>
ev ans</w>
en orm
emplo yment</w>
e ditions</w>
diagnos ed</w>
de e</w>
connec ting</w>
cl ock</w>
ch â
bur st</w>
be ds</w>
air ports</w>
advis ory</w>
ad minist
16 20</w>
,00 0,000</w>
y on</w>
wa ke</w>
w an</w>
vari ant</w>
tr ap
sp aw
sch edule</w>
s field</w>
s .
rob in</w>
pres ti
pre hen
pr ague</w>
phenom enon</w>
nu ts</w>
mis sions</w>
mat h</w>
lim its</w>
k ine
judic ial</w>
j aws</w>
indi an
indian apolis</w>
hu dson</w>
hel en</w>
heav en</w>
gar ro
flo yd</w>
ex tra
equ ality</w>
endem ic</w>
en cing</w>
dissip ated</w>
dent ally</w>
d awn</w>
co s</w>
carri es</w>
car ey</w>
bl essed</w>
bacter ial</w>
b é
186 9</w>
186 3</w>
west -
weim ar</w>
we ed</w>
w en
um a</w>
tur ner</w>
stic ks</w>
stad t</w>
ro wing</w>
revol t</w>
reven ue</w>
represent ation</w>
pu zz
pre domin
pover ty</w>
por tedly</w>
plas ma</w>
pl ed</w>
per c
p ill
op tim
op ol
occasi onal</w>
navig ation</w>
mor rison</w>
mon te</w>
mon tana</w>
met amorph
measure ment</w>
mathemati cian</w>
lan g</w>
jur is
jama ica</w>
ir anian</w>
inv est
intellec tual</w>
inaug ural</w>
i eld</w>
he avi
gar land</w>
g p
g ated</w>
fis cher</w>
f ile</w>
f ed</w>
explan ation</w>
es i
environ ments</w>
ell en</w>
el ing</w>
diam ond</w>
d r</w>
d or</w>
cross -
compos itions</w>
chec k</w>
brad ford</w>
benef it</w>
be aring</w>
ba hamas</w>
arri ves</w>
ar kansas</w>
alpha bet</w>
ab ella</w>
2 3
á il</w>
z im
yn es</w>
x iv</w>
veter ans</w>
ultim ate</w>
tri als</w>
top ics</w>
thir ty-
te -
spe ed
sp en
shre k</w>
shoo t</w>
shel f</w>
sha h</w>
se bas
sculp tor</w>
scor es</w>
radi o
quarter back</w>
p att
ou l</w>
or i</w>
onym ous</w>
o ons</w>
neighbor ing</w>
mer it</w>
mer ely</w>
lew icki</w>
les lie</w>
lau re
l er
keep er</w>
ish ers</w>
is les</w>
invol ve</w>
inf ra
ij i</w>
hon ored</w>
hi er
hi e</w>
guar an
g lee</w>
fl am
f ies</w>
exhi bit</w>
et ings</w>
eng ra
em i</w>
el ite</w>
ec ological</w>
e ar</w>
doctr ine</w>
discipl ine</w>
deri v
democr ats</w>
dec k</w>
dec ides</w>
const able</w>
concer ned</w>
collap sed</w>
cl aws</w>
cac he</w>
appro ached</w>
ad m
ac les</w>
a ł
7 37</w>
184 5</w>
18 30</w>
16 -
0 7</w>
un successful</w>
tri angle</w>
treas ury</w>
tra vels</w>
t os
t ine</w>
sug ges
stri king</w>
sto k</w>
st a
spec tac
so dium</w>
si zes</w>
ser bia</w>
s ort</w>
ru pe
rober ts</w>
refer ring</w>
re production</w>
re ed</w>
qu ick</w>
prot est</w>
pri zes</w>
otta wa</w>
or ing</w>
oph one</w>
occas ion</w>
n aked</w>
m cc
long- term</w>
innoc ent</w>
infec tions</w>
i p</w>
i ber
hom os
happ en</w>
h ler</w>
h arm
guil d</w>
girl friend</w>
fresh water</w>
fr ac
flav or</w>
explor ation</w>
excell ent</w>
equ ations</w>
ep ic</w>
emp ty</w>
doro thy</w>
cru st
convic ted</w>
conc ern</w>
cl am
car ne
bor e</w>
belong ed</w>
bel ize</w>
baf ta</w>
bac king</w>
at las</w>
as ser
amp a</w>
am ino</w>
ag onist</w>
188 3</w>
184 9</w>
183 7</w>
10 2</w>
0 5</w>
warri or</w>
ur anus</w>
th ut
terror ist</w>
sum mit</w>
spac ecraft</w>
she et</w>
sansk rit</w>
s ings</w>
ren ault</w>
rel s</w>
pros per
pro ve</w>
port land</w>
occurr ing</w>
number ed</w>
lu ther</w>
k le
joh ann
ing o</w>
in stant</w>
if f</w>
ic king</w>
he ights</w>
h off
grad es</w>
further more</w>
fav ored</w>
esc ence</w>
encyclop edia</w>
el abor
depen ds</w>
cre ator</w>
ch and
ceremon ies</w>
cent ered</w>
cat er
c lic</w>
broo k</w>
bi ał
attrac tions</w>
astronom ers</w>
as i
an arch
alco hol</w>
a il</w>
7 ,000</w>
50 th</w>
10 5</w>
1, 500</w>
y m</w>
x- ray</w>
twenti eth</w>
tw er
trac ked</w>
tol er
tic ket</w>
th é
te es</w>
t ty</w>
t elec
sur faces</w>
sul tan</w>
su ite</w>
str ö
se ven
se als</w>
screen writer</w>
s ses</w>
ru pt</w>
re tain</w>
pur sue</w>
pris oned</w>
pi pe</w>
pe ace
pal at
oo t</w>
ob vi
mon o
mo tors</w>
lo ts</w>
lis a</w>
las ker</w>
lad der</w>
im prisoned</w>
hybri d</w>
guerr ero</w>
gr as
de vo
comple ting</w>
c el</w>
c be</w>
beng al</w>
ban ded</w>
ar o</w>
appro aches</w>
ap pen
all a</w>
ag ree</w>
accessi ble</w>
18 -
wor ship</w>
woo dy</w>
ver de</w>
ul ties</w>
turb ine</w>
ti ll</w>
sp elled</w>
sh all</w>
sand y</w>
regar dless</w>
rat ings</w>
ran t</w>
ph ate</w>
orbit ing</w>
nation ale</w>
n s
mechan isms</w>
m clar
lo ved</w>
liber ation</w>
lar ry</w>
l on</w>
in door</w>
georg es</w>
ge olog
g it
franç ois</w>
fr ost</w>
fil es</w>
fe y</w>
f ra
em y</w>
div ine</w>
dest ination</w>
den ver</w>
de voted</w>
cu tting</w>
cri mes</w>
challeng ed</w>
cent res</w>
cau cas
carne gie</w>
car di
autom atically</w>
as is</w>
archae ological</w>
al ig
184 7</w>
18 16</w>
1 ,0
war saw</w>
val e</w>
v acu
u tili
u .
tr apped</w>
tou rists</w>
the ology</w>
spe eds</w>
simultan eously</w>
se -
s as
rap per</w>
poss ess</w>
popul ar
po ets</w>
pan ze
oppon ents</w>
op us</w>
o ak
mos ques</w>
mil it
m á
legitim ate</w>
leaf s</w>
le x
jo u</w>
infr ared</w>
ig i</w>
him a</w>
ha ir
g y</w>
g ia</w>
ep idem
en dish</w>
el ig
e um</w>
dic tion</w>
democ racy</w>
dang er</w>
dan cers</w>
cor n</w>
conclu sion</w>
con federation</w>
colum ns</w>
coll ect</w>
chim panze
c uc
anast asia</w>
an- born</w>
adap tations</w>
ac le</w>
73 7-
3. 5</w>
12 -
y x</w>
tempor arily</w>
teen age</w>
sur prise</w>
sul fur</w>
st en
soci eties</w>
sit com</w>
sing h</w>
s oph
r ons</w>
r ation</w>
pro claimed</w>
prison er</w>
principal ity</w>
pre fer
pati ents</w>
par all
off shore</w>
myster io</w>
mo s</w>
mamm al</w>
lin er</w>
jas on</w>
j ury</w>
ist er</w>
in put</w>
ill on</w>
he ath</w>
happen s</w>
gravit ational</w>
gover ned</w>
gh ost</w>
for ti
for cement</w>
f old</w>
exten d</w>
eth iop
es e-
em bar
effici ency</w>
distur bed</w>
di ving</w>
d ag
cross es</w>
com o
clock wise</w>
challeng es</w>
cav endish</w>
bris bane</w>
boar ding</w>
be ar
bab a</w>
b ce</w>
ari th
ap hy
and ro
ac ous
a es
184 1</w>
y o</w>
veg as</w>
v é
ti dal</w>
th ood</w>
th al</w>
ter med</w>
te au</w>
syn drome</w>
sp ines</w>
see king</w>
revi val</w>
re treat</w>
rain bow</w>
practic ed</w>
per ry</w>
nar row
my stery</w>
moder n-
mit chell</w>
mass acre</w>
le agues</w>
lan caster</w>
k us
infra structure</w>
inf o</w>
in er</w>
in ated</w>
id ation</w>
ic on
hi de</w>
hang ing</w>
h m</w>
gre eks</w>
glo b
foun ders</w>
favor able</w>
en sem
en counter</w>
docum ented</w>
des c
cul t</w>
conn ects</w>
con figur
co tt
benedic t</w>
be half</w>
at er
amo to</w>
alban ia</w>
aim ed</w>
administ ered</w>
183 2</w>
è ge</w>
w rec
ver sus</w>
ur us</w>
tsun ami</w>
tor o</w>
thut mose</w>
thre w</w>
than ks</w>
th en
tenn ō</w>
story line</w>
sk ill</w>
shi pping</w>
shi fted</w>
ser vers</w>
sch war
s es
ru dol
ri ot</w>
re tt</w>
re source</w>
re mov
re forms</w>
proc essor</w>
pri de</w>
ocy tes</w>
n oc
me etings</w>
manufac tured</w>
m s
le ic
lav a</w>
lab els</w>
j am</w>
ing rad</w>
ich o</w>
hy de</w>
hag en</w>
g ases</w>
expl ic
en z</w>
east er</w>
do zen</w>
demonstr ated</w>
dau ph
dan te</w>
curr ents</w>
cur ved</w>
crust aceans</w>
comp rising</w>
colum n</w>
char ity</w>
cap ablanca</w>
bur g-
boo k
ap h
ann y</w>
ad er</w>
183 9</w>
&apos; orléans</w>
um b
sul fate</w>
str ation</w>
str ange</w>
st on
spher ical</w>
sin d
sic ily</w>
sh ut</w>
sh ep
ser ial</w>
screen play</w>
s r.</w>
s berg</w>
rus h
ro gers</w>
ri valry</w>
reven ge</w>
refl ect</w>
r c
plat forms</w>
per cus
od d</w>
me g
loc ally</w>
ke tt</w>
initi ated</w>
inher ited</w>
in age</w>
im er</w>
hit ting</w>
gu t</w>
fa x</w>
f u</w>
et own</w>
eigh teen</w>
dub bed</w>
dis appeared</w>
detec ted</w>
det ect</w>
dec ide</w>
con s</w>
comp ens
collec ting</w>
col li
claim ing</w>
cir cles</w>
ciph er</w>
casu alties</w>
c ock</w>
bl ings</w>
beli eves</w>
b age</w>
associ ates</w>
apar te</w>
an jou</w>
altern ate</w>
50 0,000</w>
17 0</w>
x box</w>
wind sor</w>
wh at
vul ner
tur n
to ys</w>
ti tan
ta iled</w>
stim ul
staun ton</w>
sav ing</w>
sa iled</w>
s c</w>
ro m
ren ov
recei ves</w>
pun ishment</w>
promis e</w>
present er</w>
pr ised</w>
poss ession</w>
pil ots</w>
nur se</w>
north ward</w>
nas al</w>
mo th</w>
measure ments</w>
marke ting</w>
m 3</w>
lim bs</w>
le p
jud g
jim a</w>
jer icho</w>
hun ters</w>
hou sed</w>
ha i</w>
h en</w>
guar dian</w>
gl or
fr ame</w>
farm ers</w>
fa ith
eu karyo
em b
dre am
dra ws</w>
down load</w>
dol lar</w>
decor ated</w>
conv in
consci ous</w>
co inci
co ding</w>
ca p</w>
bi e</w>
b ard</w>
az a</w>
a que</w>
a j
a ids</w>
3 60</w>
183 6</w>
1. 2</w>
ə r
x ii</w>
with drew</w>
wit ness</w>
u tah</w>
t as</w>
sy rian</w>
sy mp
sub marine</w>
stock holm</w>
ste p
st un
some time</w>
si blings</w>
seri ously</w>
sa ar
rook ie</w>
refer ee</w>
re tro
perman ently</w>
per cent
partici pants</w>
p é
p assi
om atic</w>
ne ed
mo tto</w>
minim al</w>
mid lands</w>
metr o</w>
mel an
mat ing</w>
ma kers</w>
luxem bourg</w>
lar ge-
l y-
key board</w>
ju ven
jos eph
it us</w>
isa ac</w>
im pressed</w>
il ly</w>
i pod</w>
her oes</w>
hein rich</w>
gradu ation</w>
gra in</w>
gr y</w>
fun ded</w>
fit ness</w>
fer tili
evacu ated</w>
eu gene</w>
er ected</w>
elig i
east -
du m</w>
doc torate</w>
discus sion</w>
dec isions</w>
de en</w>
conflic ts</w>
chlor ide</w>
cer ti
cav al
bour bon</w>
bor o</w>
automob ile</w>
at oes</w>
amphi bi
al titude</w>
ag ers</w>
a via</w>
187 3</w>
- to-
о в
x ley</w>
wolf gang</w>
w ig
ut us</w>
tra its</w>
theor em</w>
strö m</w>
sp elling</w>
sl ender</w>
sh ots</w>
sever ely</w>
sebas tian</w>
scri ption</w>
resem ble</w>
require ments</w>
regul ations</w>
raven s</w>
os hi</w>
near -
mu tual</w>
mountain ous</w>
mer chant</w>
manuscri pt</w>
li g
le t
j ose</w>
ic -
h ul
fer ry</w>
fas c
far ther</w>
enz o</w>
enorm ous</w>
en ly</w>
el berg</w>
eisen stein</w>
dro w
dor sal</w>
do g
depar ture</w>
cre ates</w>
conte stant</w>
cons ort</w>
clo th</w>
car go</w>
ca a</w>
beng ali</w>
b id</w>
b ann
anim e</w>
an ton</w>
alexand ria</w>
ale x</w>
ad é
18 14</w>
12 .
1 25</w>
zz o</w>
z y
y ar
war k</w>
viol inist</w>
vic e-
under graduate</w>
twer p</w>
to es</w>
squ ir
spac es</w>
sor ts</w>
sk y
sen s
sco ts</w>
requ ested</w>
rel uc
re portedly</w>
re mix</w>
present ation</w>
poor ly</w>
pi us</w>
ph .d.</w>
per spec
pe dr
ow ns</w>
orchestr al</w>
oce ans</w>
notic ed</w>
ne ys</w>
n an</w>
michel e</w>
mar cus</w>
m ü
loc ked</w>
li me</w>
leon ese</w>
kil o
juli us</w>
indic ating</w>
hin du</w>
head ing</w>
hamp ton</w>
go tha</w>
garro way</w>
ga elic</w>
fl em
fern ando</w>
farm er</w>
fa una</w>
es i</w>
elli ot</w>
dis orders</w>
diplom atic</w>
di oc
deri ves</w>
del ayed</w>
de ian
cust om</w>
celebr ate</w>
car lo</w>
boun ded</w>
botan ical</w>
be aches</w>
bah rain</w>
b ills</w>
b hu
at tract</w>
at o
architec tural</w>
anglo- saxon</w>
an nex
al lic</w>
adol f</w>
天 皇</w>
é cole</w>
wood land</w>
weak ening</w>
ul tra
timber lake</w>
ther n
th el
ter ing</w>
t- to-
t su
syn thetic</w>
sur geon</w>
sub stances</w>
stom ach</w>
spec tro
si de
sh ane</w>
sensi tive</w>
scan din
respec tive</w>
rem berg</w>
reco very</w>
que ens</w>
qu it</w>
prote sts</w>
per mission</w>
p ack</w>
o it</w>
nu remberg</w>
negoti ations</w>
mon thly</w>
manufactur er</w>
man it
manit oba</w>
mad ame</w>
m ons</w>
li ver</w>
lea key</w>
king doms</w>
ken ya</w>
interpre ted</w>
intensi fied</w>
in us</w>
in ity</w>
ide al</w>
ic ia</w>
gi ous</w>
ge ography</w>
fron tier</w>
fle w</w>
et -
en to</w>
en sure</w>
en ac</w>
dic ation</w>
den nis</w>
d us
cryp to
cr ashed</w>
correc tly</w>
con e</w>
cho os
chil l</w>
c inc
c ester</w>
br ed</w>
bon ding</w>
ber y</w>
be ak</w>
as king</w>
arri ve</w>
arab ian</w>
ar thro
anti bio
an u
achiev ements</w>
ab ul
a ali
2 4
won der
war nings</w>
ven om
up per-
tr unk</w>
t ent
stan ford</w>
ski ing</w>
seem ed</w>
s cu
remov al</w>
rele asing</w>
re al-
rain forest</w>
per ception</w>
par d</w>
p u</w>
ow nership</w>
over lap</w>
o y
ne ath</w>
n wa</w>
mos es</w>
modern- day</w>
mi kha
mem or
mclar en</w>
li fted</w>
kenne th</w>
k un
k it</w>
inter active</w>
indi ans</w>
her a</w>
hard ware</w>
green wich</w>
ge st-
ge ology</w>
g ang
forec ast</w>
floo ds</w>
fif ty</w>
festiv als</w>
estim ate</w>
est er
em ma</w>
ecosy stem</w>
dra ke</w>
dr e</w>
descen ded</w>
dec im
de als</w>
d ant</w>
cop ic</w>
consider ably</w>
con sequ
comm ented</w>
cliff s</w>
car ved</w>
c ay
bu tter</w>
bri stol</w>
audi ences</w>
au burn</w>
attemp ting</w>
ari us</w>
ari ties</w>
app lies</w>
an twerp</w>
all- star</w>
alge bra
ad en
183 5</w>
x vi</w>
wor ker</w>
vari ed</w>
ty ler</w>
trans formed</w>
top ic</w>
ti ally</w>
tele graph</w>
tar ge
t ate</w>
sp in</w>
shar ing</w>
sett le</w>
se p
refer ences</w>
re verse</w>
pl ural</w>
pl ing</w>
per m
pap al</w>
pan zer</w>
pan ama</w>
our ed</w>
oper ator</w>
oli ve</w>
nitro gen</w>
ne sts</w>
nau tical</w>
mum bai</w>
mon day</w>
lo como
lo an</w>
li u</w>
li an</w>
leban on</w>
jes se</w>
in herit
impres sion
id ol</w>
id -
hur st</w>
hu xley</w>
her mann</w>
gregor ian</w>
fun gi</w>
fle xi
exerc ise</w>
exam ination</w>
equ ally</w>
di al</w>
dec ay</w>
d ges</w>
cz ec
croco dil
cover dale</w>
complic ated</w>
com prehen
class ics</w>
circ us</w>
chromos ome</w>
celebr ity</w>
carri ers</w>
can on
bri a</w>
br ass</w>
basil ica</w>
bar o
au to</w>
amm a</w>
af fair</w>
adap tive</w>
ach ment</w>
ac a</w>
4 50</w>
0 4</w>
yl on</w>
x en
wi kim
west phal
venom ous</w>
v ile</w>
us d</w>
under neath</w>
tri stan</w>
th ed</w>
spor t
son ata</w>
sh ang
s is
re serves</w>
ra ins</w>
psych ological</w>
predomin antly</w>
pre p
play off</w>
phil anthro
pen alties</w>
par ishes</w>
p all
on going</w>
non- profit</w>
n ock</w>
mar tha</w>
mar qu
lyn ch</w>
li bre
k iss</w>
k ate</w>
k ar</w>
k ab
j ection</w>
is lan
inter face</w>
instruc tion</w>
i os</w>
high est-
he y
he m</w>
he althy</w>
governor s</w>
for ty</w>
foc uses</w>
fac tor
f o</w>
et ers</w>
er os
eng er</w>
elis abeth</w>
elim ination</w>
electron ics</w>
diffic ulty</w>
dev ast
deman ds</w>
d ner</w>
cul min
cra ig</w>
cr ap
cover age</w>
coun try
con dem
compil ation</w>
commerci ally</w>
chem icals</w>
cal gary</w>
bul gar
buddh ist</w>
bu si
br utus</w>
bo hem
b ony</w>
au gu
as sum
al ger
183 8</w>
0. 5</w>
win slow</w>
volcan oes</w>
vis a</w>
vir al</w>
ven ue</w>
ultram an</w>
ul l
trop ic</w>
tr end</w>
teach ings</w>
survi val</w>
super vis
su es</w>
st atic</w>
spor ting</w>
si ds</w>
short- lived</w>
shap es</w>
sh ut
ro dents</w>
quo ted</w>
pi ed
pi an</w>
percent age</w>
p ash
or nis</w>
ni fer</w>
mor ris</w>
mi e</w>
ma har
lou d</w>
lo aded</w>
lithu ania</w>
lin ing</w>
les bian</w>
le igh</w>
lan ce</w>
jen nifer</w>
j ag
integr al</w>
in vertebrates</w>
ill er</w>
i k
hen ri</w>
ha bit</w>
gran de</w>
fre ud</w>
en hagen</w>
el ds</w>
dig its</w>
coo ked</w>
col ogne</w>
clean ing</w>
cit ation</w>
ch est</w>
ch a
car los</w>
campaig ns</w>
c c</w>
butter flies</w>
ber ra</w>
benef its</w>
be e</w>
bas al</w>
ban g</w>
atten dance</w>
algebra ic</w>
aer os
acti vely</w>
185 5</w>
183 3</w>
z el
wid th</w>
vis its</w>
view er</w>
v p</w>
trou gh</w>
tom my</w>
to e</w>
thern most</w>
there by</w>
techn ologies</w>
stand ar
squ ares</w>
si e</w>
selec t</w>
sardin ia</w>
s ely</w>
re sur
re porting</w>
r ö
r c</w>
prep are</w>
pre tty</w>
pol l</w>
pen is</w>
os ity</w>
or ous</w>
ne gro</w>
mon ica</w>
moder n
mix ing</w>
men tion</w>
lu igi</w>
loos ely</w>
li v
legi ons</w>
l ager</w>
jac ob
inter n
in ver
ill ed</w>
hop ed</w>
hil ton</w>
high lands</w>
haus en</w>
h at</w>
gym nas
gather ing</w>
g f</w>
fu n</w>
fill ing</w>
f ellow
enab led</w>
en rolled</w>
emo tional</w>
em erg
edmon ton</w>
do dd</w>
der -
depic ted</w>
cu ts</w>
corn ish</w>
cor ners</w>
consci ousness</w>
clim bing</w>
clau de</w>
cell ular</w>
ce o</w>
can berra</w>
ber g
be aked</w>
ba il
as er</w>
3 50</w>
15 00</w>
1. 3</w>
wr ong
weigh ing</w>
w ound</w>
v ital</w>
tran spar
thes es</w>
t ables</w>
sub family</w>
strength ening</w>
ste ad</w>
speed way</w>
sop ran
ske t
sig nat
sh ed</w>
separ ation</w>
satell ites</w>
reve als</w>
repe at
rab bit</w>
r t
r as</w>
r and</w>
qui et</w>
publ ishers</w>
professi on
pro p
pompe y</w>
philli ps</w>
pen etr
or e
o u</w>
o blast</w>
nor se</w>
naz is</w>
n caa</w>
mar king</w>
man sion</w>
lor raine</w>
l ler</w>
l af
kar ab
j on</w>
invent or</w>
intro duce</w>
inherit ance</w>
influ enza</w>
influ ences</w>
im migration</w>
ich thy
ic us</w>
hammer head</w>
gent lem
for tress</w>
fl our
fin s</w>
er ich</w>
en larg
e way</w>
dri ed</w>
dis t</w>
di d
develop s</w>
deian eira</w>
d ella</w>
cost ume</w>
chu v
ca ke</w>
byz antine</w>
bur g
br ag
bon aparte</w>
beat en</w>
baro que</w>
appro aching</w>
an to
ai res</w>
aali yah</w>
180 2</w>
willi am
westphal ia</w>
was ps</w>
view ing</w>
v on
v ine</w>
tra v
to tal
ten burg</w>
t cher</w>
sus an</w>
sud den</w>
she amus</w>
sh ari
sevent een</w>
separ ately</w>
sand stone</w>
s is</w>
s ick</w>
quanti ty</w>
popul ous</w>
pir ates</w>
pi m</w>
ph ag
perspec tive</w>
per former</w>
om y
neighbour ing</w>
ne o</w>
myster ious</w>
mo on
mo des</w>
mist ress</w>
me -
lith ium</w>
laure ate</w>
kilo grams</w>
ken ny</w>
k len
it arian</w>
ha iti</w>
h t
gross ing</w>
glac ial</w>
gl en</w>
gabri elle</w>
ful ler</w>
figh ts</w>
excep tions</w>
ensem ble</w>
elev ated</w>
el ia</w>
divor ce</w>
dis missed</w>
demol ished</w>
datab ase</w>
cy ber
cor ruption</w>
clos ure</w>
cal ci
bon us</w>
bish ops</w>
awar d-
assass ination</w>
any where</w>
al ps</w>
ad ri
acci dentally</w>
a bel</w>
wh ales</w>
vol ta
v eng
un usually</w>
u als</w>
tur tle</w>
tr uck</w>
tou lou
tis sues</w>
thu si
te at
sun light</w>
str ata</w>
sh i</w>
serv ants</w>
ser bian</w>
se a
s anti
ru th</w>
ru ins</w>
remark able</w>
predec essor</w>
pos thum
pon d</w>
ple ase</w>
pic k
pas cal</w>
p .
ome tric</w>
meth ane</w>
man sfield</w>
man or</w>
man -
la h</w>
kid n
johann es</w>
it ter</w>
int act</w>
i k</w>
i fer
he id
h omin
gu es</w>
exper ts</w>
expan ding</w>
exhibi tions</w>
en countered</w>
develop ments</w>
cop enhagen</w>
cit y-
bulgar ia</w>
bu l</w>
boo g</w>
blu e
bl ow</w>
be st
b u</w>
archi ves</w>
anatom y</w>
al am
ad ers</w>
3 3
18 26</w>
179 8</w>
0 9</w>
x v</w>
will ing</w>
wh el
virtu ally</w>
symph on
susp ected</w>
spen cer</w>
speci alist</w>
sp in-
sp iders</w>
south- east</w>
sk ater</w>
sha ft</w>
sh oes</w>
sc ent</w>
roman ian</w>
rep air</w>
rec alled</w>
re min
re ducing</w>
rac ed</w>
r age</w>
pro xim
pra i
plu to</w>
pi x
philli p</w>
par amount</w>
palest inian</w>
or -
open s</w>
on i</w>
ograph ic</w>
o .</w>
natur alist</w>
mon ks</w>
mon key</w>
mis sion
membran e</w>
medi um-
manuscri pts</w>
ma u
li d</w>
lat est</w>
k os
k art</w>
k ap
jac ob</w>
hur t</w>
h y</w>
h ex
gran ite</w>
gl y
g amma</w>
fle tcher</w>
exp and</w>
ep pe</w>
enti ty</w>
ent re
ent ing</w>
disne yland</w>
dis hes</w>
develop mental</w>
cran e</w>
comp ati
car ver</w>
bur ton</w>
brow ser</w>
bran ds</w>
ber n</w>
b ance</w>
at em
al um
1. 6</w>
1, 2
wil der
volunte er</w>
victor ies</w>
veter an</w>
univers it
tre sses</w>
ti gh
ter ti
t ina</w>
sum mers</w>
sul li
sulli van</w>
strug g
stric t</w>
stri pes</w>
str al</w>
stol en</w>
ster eo
st um
st ops</w>
smo king</w>
shri mp</w>
sch ö
santi ago</w>
rot ating</w>
repeat edly</w>
regim e</w>
ra ising</w>
pied mont</w>
phenom ena</w>
ph il</w>
orni th
on wards</w>
ol k</w>
ol es</w>
no tation</w>
neighbor s</w>
mil d</w>
mikha il</w>
mer chan
marsh al</w>
mar c</w>
log ical</w>
lo v
lin king</w>
ligh ting</w>
karab akh</w>
if a</w>
gu atem
geor g</w>
g c
found ations</w>
feel ings</w>
fat al</w>
ess ay</w>
er ra</w>
en thusi
ef s</w>
ed ges</w>
ec k</w>
e ul
dur e</w>
doub t</w>
dial ect</w>
dec isi
coun ted</w>
cool er</w>
cont ents</w>
constitu ent</w>
const antly</w>
chop in</w>
chick en</w>
ch ass
busi est</w>
att a</w>
asp ect</w>
anti qu
anti cip
an ol</w>
alter nati
all y-
al derney</w>
ab u</w>
a ther
y le</w>
y ang</w>
wi ves</w>
vertebr ate</w>
ver i
ur an
ty re</w>
tr adem
theat rical</w>
tal i
sup pos
streng then</w>
spon sor</w>
simp li
serge ant</w>
s z
s mar
run way</w>
righ t-
pul se</w>
propos al</w>
pier ce</w>
pain ters</w>
p his</w>
organ ist</w>
op od</w>
o dy</w>
nut t</w>
nis ei</w>
new found
newfound land</w>
mic hel</w>
m ented</w>
k ais
jo ins</w>
j in</w>
is er</w>
ip sw
inter change</w>
human ity</w>
gro und
griff ith</w>
fl ats</w>
fl air</w>
en os</w>
en forcement</w>
electro magnetic</w>
e ats</w>
duc k</w>
duc es</w>
diff er</w>
di es
deman ded</w>
de plo
d ell</w>
czec hos
custom ers</w>
cos m
configur ation</w>
collec tive</w>
co t</w>
clar inet</w>
car l
calcul ated</w>
biał y
ast ed</w>
archit ects</w>
ap e
184 6</w>
10 1</w>
wikim edia</w>
ven ess</w>
v ati
un ic
u ality</w>
th am</w>
t ampa</w>
sus sex</w>
sp here</w>
sloven ia</w>
sl opes</w>
si d</w>
sen ding</w>
se oul</w>
s ne
s g
requ iring</w>
reig ning</w>
re located</w>
rad ar</w>
quanti ties</w>
prob ability</w>
pre historic</w>
po s</w>
pl aza</w>
ph d</w>
pe dal</w>
par ade</w>
p li
p awn</w>
ow en</w>
ori ented</w>
ol ga</w>
no tice</w>
nic a</w>
ni bal</w>
n els</w>
mour ning</w>
meteor ological</w>
me ad
man age</w>
ma ke
ligh ter</w>
kn ocked</w>
k yo
jun eau</w>
ir regular</w>
ic ks</w>
i ves</w>
hol dings</w>
har vey</w>
g land</w>
g im
fic i
fa ust</w>
expl ored</w>
ev ich</w>
ev alu
et z
eros ion</w>
earthqu akes</w>
distur bance</w>
dis pat
der a</w>
d p</w>
corpor ate</w>
coo k
conventi onally</w>
continu ously</w>
construc t</w>
consequ ently</w>
conduc tors</w>
colle agues</w>
col lo
clar ke</w>
chuv ash</w>
chor al</w>
ch in</w>
c iting</w>
brig ade</w>
bever ly</w>
bet a</w>
bel mont</w>
ath en
ance stral</w>
an as</w>
am end
am al
altern ating</w>
alexand ra</w>
ac ks</w>
5 1.
4. 5</w>
183 4</w>
é ri
whe els</w>
we igh</w>
warri ors</w>
vo iced</w>
vit am
vacu um</w>
tu ber
transm itted</w>
town ship</w>
thro wing</w>
th ri
sub way</w>
stra uss</w>
sl ope</w>
situ ations</w>
sc out</w>
re vers
re serv
qualif y</w>
pup pet</w>
prot ons</w>
prof ile</w>
por no
pol len</w>
po sts</w>
play wright</w>
pi ke</w>
percus sion</w>
pedr o</w>
pe tr
p ound</w>
ov ich</w>
os per
ori entation</w>
or ation</w>
oc top
north- east</w>
mid night</w>
mar guer
marguer ite</w>
m t
m b</w>
licen sed</w>
le x</w>
latitu de</w>
know les</w>
kin son</w>
k id</w>
judg ment</w>
ital ia</w>
is om
inf ected</w>
in organic</w>
in hi
in ate</w>
immigran t</w>
i van
hy m
hy dr
hop kins</w>
h ire</w>
flo ating</w>
fir ing</w>
fe e</w>
f ox
er rors</w>
ell es</w>
ec tive</w>
dur ation</w>
dun g</w>
duc ks</w>
dro ps</w>
den ied</w>
deli ber
de aling</w>
cre ature</w>
con ju
comprehen sive</w>
col d
brid ge
br e</w>
bed ded</w>
av al
all an</w>
alb any</w>
al leg
al be
ak ar
agu a</w>
ag her</w>
acous tic</w>
ack er</w>
ach i</w>
2 2
0 6</w>
voy ager</w>
val id</w>
val en
up set</w>
tt le</w>
tr en
thorn ton</w>
th ai</w>
t ness</w>
spi der</w>
sol o
sla very</w>
sil ence</w>
sam ples</w>
roun ding</w>
rol ler</w>
quali fication</w>
pu tin</w>
pra e
pione ering</w>
pig s</w>
paul o</w>
p act</w>
ol an</w>
oc ation</w>
obvi ous</w>
necess arily</w>
nation alist</w>
mem phis</w>
max well</w>
ma id</w>
m all
loc k
l ard</w>
kir k</w>
k owski</w>
ipsw ich</w>
inter views</w>
inter rupted</w>
ing ia</w>
in k
ich i</w>
hydro x
him al
har bour</w>
h al</w>
gur u</w>
gl aci
g is
for bes</w>
fi ber</w>
fel ix</w>
ev ing</w>
erup tions</w>
ent ries</w>
emig rated</w>
eligi ble</w>
dra wings</w>
diffic ulties</w>
dan ced</w>
d ad
cycl o
cur tis</w>
cultiv ated</w>
cro p</w>
comm une</w>
cinem a</w>
chronic le</w>
cab in</w>
bur ma</w>
br ab
aun t</w>
amaz on</w>
alter ed</w>
al ization</w>
ac claim</w>
0 1</w>
y al</w>
wor m</w>
wilder ness</w>
wil de</w>
w ent
vi vi
vari ants</w>
uni tion</w>
top ped</w>
ter ri
sw an</w>
sum mary</w>
sul fide</w>
subsi diary</w>
san to</w>
rel ating</w>
re tri
re tail</w>
ra ven</w>
r s</w>
pro li
pr ad
politi cians</w>
pig ment</w>
per th</w>
os c
or d
on able</w>
nucle i</w>
n ann
mon keys</w>
marg in</w>
ma z
lon gest-
life -
lan g
kne e</w>
ju da
jo an</w>
intelli gent</w>
im plic
hoo ker</w>
hom eless</w>
hawai ian</w>
geolog ic</w>
gall agher</w>
fre y</w>
foot age</w>
figh ters</w>
fac to</w>
f in</w>
entre pren
en han
ell ular</w>
ec ology</w>
e ased</w>
discus sed</w>
diag ram</w>
copy right</w>
control ler</w>
con fusion</w>
compu ting</w>
com e
chur chill</w>
carto on</w>
c du</w>
bur gun
brit ann
brigh test</w>
bom bs</w>
bac ks</w>
ax es</w>
ar in</w>
al ian</w>
- based</w>
н а</w>
z z</w>
wy oming</w>
willi e</w>
wil ma</w>
vé zina</w>
vic tim</w>
tra p</w>
tor res</w>
tim er</w>
the ft</w>
tax es</w>
swi m</w>
stret ched</w>
stra in</w>
sper m</w>
spec t
sm ash</w>
sh into</w>
se an</w>
sco tia</w>
rhe a</w>
remn ant</w>
re formed</w>
pun jab
proto type</w>
promp ted</w>
pro por
priv ately</w>
portra its</w>
pil lars</w>
persu aded</w>
patter son</w>
p neum
objec tive</w>
num er
no tt
nic kel</w>
nex us</w>
lo ver</w>
liz ards</w>
l ing
ke ith</w>
jum ping</w>
ju bil
inter -
in fer
ig ne
id al</w>
ic ism</w>
hoo ds</w>
han nibal</w>
fun k</w>
fre e-
for ty-
ext ant</w>
est ates</w>
en son</w>
en closed</w>
em bedded</w>
el eg
e g</w>
e bert</w>
democr at</w>
deep er</w>
deal t</w>
cri st
cr us
consol id
civil ians</w>
ch ol
ce ased</w>
carni vorous</w>
can on</w>
blo om
biały stok</w>
bet ty</w>
ball room</w>
ba ja</w>
assem bled</w>
am mon
all o
accom mo
189 0s</w>
18 29</w>
x ton</w>
wood ward</w>
volunte ers</w>
vi king</w>
tribu te</w>
tr on</w>
ti ber
thur s
ter n</w>
ter bury</w>
tas ks</w>
stre ams</w>
str ang
spot ted</w>
sec ured</w>
s its</w>
rol ls</w>
ri vals</w>
rel ess</w>
regul ation</w>
re porter</w>
pum p</w>
pul l</w>
professi onally</w>
pri ests</w>
pregn ant</w>
pe aks</w>
pas sion</w>
p ou
or nam
ome ter</w>
o th
o do</w>
o be
ner ve</w>
nam ely</w>
mon it
migr ated</w>
mer ger</w>
manag ing</w>
main tains</w>
mah ler</w>
m at</w>
lon ely</w>
lim it
libr aries</w>
li e
kill s</w>
jo y</w>
it ude</w>
inter esting</w>
ho u</w>
he imer</w>
har p</w>
gu ill
gra ves</w>
fin ale</w>
f au
esti al</w>
equ ator</w>
ent y</w>
e iro</w>
dod gers</w>
dis continued</w>
des k
decre ase</w>
cy rus</w>
cru z</w>
cru ise</w>
crab s</w>
conte sted</w>
consu l</w>
bi as</w>
belar u
bar t
b arium</w>
at tained</w>
at p</w>
arrang ements</w>
ap pl
amm unition</w>
alumin ium</w>
ag ement</w>
accompl ished</w>
9 ,000</w>
180 3</w>
18 17</w>
-in- chief</w>
ty ran
tril ogy</w>
to a</w>
thor ne</w>
tar ies</w>
tar gets</w>
sub mitted</w>
str o</w>
sti r
stat ements</w>
st ow
sol ving</w>
smo ke</w>
sig nation</w>
si ans</w>
recur ring</w>
re vised</w>
re signation</w>
re member</w>
r ne</w>
pun c
presti gious</w>
plac ement</w>
phot osyn
per mitted</w>
pengu ins</w>
pe te</w>
os lo</w>
open ly</w>
on t</w>
o e</w>
mon te
mon sters</w>
mo tiv
mo or</w>
min i
mari time</w>
lu is</w>
lo go</w>
kö hler</w>
is i</w>
inte ger</w>
indones ian</w>
inc .</w>
ic eland</w>
ic ate</w>
i i
high ways</w>
henri ette</w>
gri d</w>
gau ge</w>
gam e
gal ac
g and
flo ors</w>
faith ful</w>
f arms</w>
es cor
ent e</w>
eng age</w>
divi ding</w>
direc tions</w>
diplom at</w>
differ ential</w>
dic tionary</w>
develop ers</w>
davi es</w>
d j
convin ced</w>
conven tions</w>
conc eived</w>
con fron
comm ents</w>
comb ining</w>
cl ause</w>
circu its</w>
ceremon ial</w>
car son</w>
can terbury</w>
by e</w>
bus es</w>
biograph ical</w>
bal lets</w>
b ats</w>
ath y</w>
assi sted</w>
arri ving</w>
arch y</w>
apar tment</w>
alig ned</w>
alco hol
air ways</w>
aeros pace</w>
adi c</w>
ad dressed</w>
aber deen</w>
200 0s</w>
wh ale</w>
wat er-
vir tual</w>
vent ure</w>
un official</w>
to ad</w>
tic ul
ti que</w>
ther m
tex t
t ack
sup porter</w>
sty led</w>
stat esman</w>
st ag
spaw ned</w>
sopran o</w>
se am
sc ope</w>
s é
ri p
resi stant</w>
re construction</w>
proper ly</w>
precipit ation</w>
port able</w>
pol ar
philosoph ical</w>
paralymp ic</w>
par king</w>
ol ds</w>
ne o-
nation wide</w>
nan cy</w>
n ile</w>
mon de</w>
mil ton</w>
mar il
manufactur ers</w>
lo ves</w>
lo o</w>
legisl ation</w>
ist le</w>
ist an
inter ference</w>
inten tion</w>
ingredi ents</w>
in formed</w>
high land</w>
hi p-
h ome
gener ating</w>
gall eries</w>
g ad
franc esco</w>
fish er
fi bers</w>
f m</w>
er ie</w>
dy lan</w>
dres ses</w>
dra inage</w>
dolph ins</w>
determin ation</w>
desk top</w>
de stri
d j</w>
d enti
cub ic</w>
constitu te</w>
comple tion</w>
chie fs</w>
chap ters</w>
ch at
caval ry</w>
can yon</w>
cal li
bal an
b b</w>
ay as</w>
arn ulf</w>
an a
algorith m</w>
advis ed</w>
acc um
abul ary</w>
ab y
ab ram
16 21</w>
yn n</w>
ym es</w>
y in</w>
x ter</w>
w ür
ven om</w>
ur s</w>
u prising</w>
tru ly</w>
trag edy</w>
ti st</w>
ti res</w>
terti ary</w>
ten ure</w>
tan g</w>
tal ks</w>
t j
t age</w>
su gar
str an
sponsor ship</w>
sn out</w>
slo vakia</w>
sac rif
rhin e-
re served</w>
re per
r ams</w>
publ ish</w>
pro to-
pregn ancy</w>
pra ise</w>
pen alty</w>
parti al</w>
ol i</w>
o is
nat i</w>
nann ini</w>
n im
n ese</w>
ma iden</w>
ma -
li min
large- scale</w>
l us</w>
l aps</w>
ke ynes</w>
k ia</w>
jack ie</w>
it ely</w>
istan bul</w>
isol ation</w>
in tim
in nati</w>
il er</w>
ie u</w>
hy dra
herbi vores</w>
he ather</w>
go s</w>
g in</w>
fa thers</w>
encryp tion</w>
en de
eag les</w>
e id
do z
discipl ines</w>
denomin ations</w>
cu ps</w>
cont i</w>
con tra
competi tors</w>
cold play</w>
col os
cock at
cli ff</w>
cinc innati</w>
cathol ics</w>
but ton</w>
bu enos</w>
bu b
bran denburg</w>
box er</w>
bi on
bar rett</w>
bar rac
ba g</w>
ar ina</w>
1 15
р а
н и
ο ς</w>
ö r
é lis
year ly</w>
vati can</w>
un clear</w>
uk as</w>
tun nels</w>
tu c
tre ati
ten -
surviv ors</w>
sugge sting</w>
sp ans</w>
so k
sli des</w>
shel ter</w>
sacrif ice</w>
s so
s ick
ru ther
rest ore</w>
rele v
py ram
pul mon
pre mis
poli tically</w>
p is
op tion</w>
o vir
o bo
no tor
mu tations</w>
mon k</w>
mi um</w>
medium- sized</w>
main taining</w>
m ps</w>
lo v</w>
li on
k ho
k ai</w>
journ alism</w>
jos hua</w>
j ar</w>
hom er</w>
grand master</w>
gn u</w>
gather ed</w>
ful k</w>
frequ encies</w>
foot ball
fi able</w>
fe eds</w>
exhi bited</w>
eu gen
en er
em an
em a</w>
el in</w>
dri ft</w>
dra g</w>
divi de</w>
destroy ing</w>
depen d</w>
deli very</w>
defin es</w>
coron ation</w>
cop es</w>
contrac ts</w>
consider ing</w>
comm entary</w>
chel sea</w>
chan an</w>
catal an</w>
cap ital
c ig
c age</w>
bu chanan</w>
bl air</w>
bit ter</w>
ben der</w>
bal ukas</w>
b oss</w>
ascen sion</w>
ar omatic</w>
ap est</w>
ang els</w>
ambi que</w>
alle ged</w>
ad der</w>
ə ˈ
yellow stone</w>
wavel engths</w>
vulner able</w>
vi e</w>
v et
v ents</w>
v au
v -
trig ger
tra m</w>
ton nes</w>
to yo
thic kness</w>
ter ror</w>
tem ples</w>
te amed</w>
t ough</w>
t ops</w>
t man</w>
sust ain
supp lied</w>
succe ed</w>
su r</w>
sound garden</w>
shir t</w>
s in</w>
ro us
ri der</w>
revol u
relati vity</w>
real m</w>
re efs</w>
promin ence</w>
pleas ure</w>
phy l
photograph y</w>
ph arm
pe g</w>
p ic</w>
or th
no des</w>
nar nia</w>
n .</w>
me iji</w>
maril yn</w>
mar ina</w>
mani fe
manag ers</w>
log an</w>
li am</w>
la h
kn igh
k ut
j ets</w>
io c</w>
inn ings</w>
improv ement</w>
i ro
hos pit
hol low</w>
hard core</w>
han g</w>
h man</w>
guatem ala</w>
gr oss</w>
gr in
gener ic</w>
full- length</w>
fl our</w>
fil ter</w>
fe ast</w>
f s
exhi bits</w>
em ia</w>
econom ist</w>
eccent ric
du al</w>
dres den</w>
di ble</w>
detec tive</w>
dec reas
deb t</w>
de br
colle gi
collabor ated</w>
co aches</w>
ch uk</w>
ch t</w>
cer ebr
cel estial</w>
cec ilia</w>
carol ine</w>
behavi ors</w>
ban tu</w>
b out</w>
arsen ic</w>
am ber</w>
all ison</w>
al on
af t</w>
ac claimed</w>
ab lo</w>
a ero
4 7
188 0s</w>
ü ck</w>
wi z
whe el
w ool</w>
val ence</w>
ur t</w>
tuber cul
ti ble</w>
the a</w>
ter ior</w>
sur prised</w>
sp in
sou p</w>
sop hie</w>
soci ology</w>
sm ith
skel et
si ded</w>
sem icon
sem ann</w>
sail ors</w>
ri b
re formation</w>
prec ise</w>
plan etary</w>
perc eived</w>
pe as
pat er
particip ation</w>
paralymp ics</w>
organ isation</w>
olympi ad</w>
occup y</w>
n ice</w>
mor timer</w>
mess aging</w>
mem ories</w>
mec klen
lot us</w>
l aven
ke -
k au
it em</w>
initi ative</w>
in mates</w>
improv ements</w>
hi ding</w>
her ed
hand ling</w>
gr i</w>
gr ac
go at</w>
g s
fl at
fin est</w>
exc ess</w>
em bass
embass y</w>
el ines</w>
eg al</w>
dre ams</w>
dioc ese</w>
der ly</w>
dal mati
count ess</w>
conven i
consu mption</w>
collec tively</w>
che f</w>
car p
capuch in</w>
by rd</w>
bud dy</w>
bro ther
bil ities</w>
ben nett</w>
ay er</w>
award- winning</w>
ash ley</w>
ash ing</w>
archi ve</w>
announ cement</w>
aff ecting</w>
2 6
18 24</w>
13 -
1, 7
z on</w>
yer evan</w>
y cl
wy n</w>
wel come</w>
web sites</w>
ver mont</w>
veng e
vener ated</w>
v re</w>
v all
up dated</w>
under lying</w>
u ter
u d
trig ger</w>
tri bal</w>
tr ace</w>
ti ght</w>
ti des</w>
ti bet
ten ds</w>
tech nic
tal ked</w>
swit ch</w>
st aged</w>
spectr os
south- west</w>
semicon duc
s lot</w>
respon d</w>
read ily</w>
promo ting</w>
pro -
pre limin
pre fer</w>
phar a
per sia</w>
pat rol</w>
par tis
oppos ing</w>
op ing</w>
oci de</w>
no bility</w>
nes ian</w>
mon uments</w>
mit es</w>
lun gs</w>
lu isa</w>
li fel
lan c
l one</w>
kyo to</w>
king ston</w>
k ok
ju dy</w>
j ura</w>
j .
iti s</w>
ip a</w>
implem ented</w>
igne ous</w>
hum or</w>
hip- hop</w>
her man</w>
h ate</w>
geor gian</w>
fre ely</w>
for ever</w>
for em
fl ames</w>
fing ers</w>
fellow ship</w>
exp elled</w>
emb lem</w>
do vic
dauph in</w>
cru ci
country side</w>
control ling</w>
conspir acy</w>
conn aissance</w>
certain ly</w>
celebr ations</w>
can non</w>
can d
bri de</w>
break through</w>
bom bar
attrac tive</w>
anal og
a ul
2 40</w>
2 4-
10 0-
. 8</w>
- -</w>
zz i</w>
z h
yam amoto</w>
y on
y as
witn esses</w>
wel fare</w>
w im
valu ed</w>
v ore</w>
v et</w>
ur ban
upper- level</w>
under go</w>
tyr rell</w>
tru ste
tou ched</w>
tic kets</w>
t ent</w>
stre semann</w>
stop ping</w>
stat ues</w>
sovi ets</w>
sol ely</w>
ski ers</w>
shar ps</w>
sh ei
sh -
seas onal</w>
sal is
salis bury</w>
sail ing</w>
s under
s mu
s at</w>
s ass
restric tions</w>
respon ded</w>
r ach
quar ry</w>
prot agonist</w>
princ eton</w>
prece ding</w>
popular ized</w>
ph el
perf ec
per ug
per forms</w>
oper ational</w>
op hor
ob s
o type</w>
o ids</w>
noc tur
ne e</w>
nag or
n x
moz ambique</w>
monarch s</w>
mollus cs</w>
mis as
misas agi</w>
mic key</w>
manufac ture</w>
ligh thouse</w>
life style</w>
leg acy</w>
k ick</w>
juris diction</w>
juli a</w>
jud ith</w>
jubil ee</w>
join tly</w>
j ol
j ess
j ammu</w>
iz ations</w>
ital ians</w>
id ge</w>
i z</w>
hom etown</w>
grand children</w>
got ten</w>
gl ou
forti fications</w>
for bid
f ishes</w>
elabor ate</w>
dro pping</w>
do t</w>
dir ty</w>
demonstr ation</w>
de von</w>
d ley</w>
cust oms</w>
cr ush
cop ied</w>
connec tions</w>
com mod
ciph er
chronic les</w>
ch uck</w>
cec il</w>
can ucks</w>
cair o</w>
bus y</w>
bor is</w>
bom bers</w>
best- of-
ben ding</w>
beet le</w>
bat ter
bac ked</w>
as ide</w>
app a</w>
ap tor
anth ology</w>
annex ed</w>
an gry</w>
ali en</w>
aer onau
advis or</w>
ac knowle
4 0,000</w>
18 18</w>
179 7</w>
z t</w>
z i</w>
we ber</w>
wat ches</w>
v and
uni fication</w>
ti ds</w>
th under</w>
ten ded</w>
tan i</w>
syn thes
syn chron
sur rey</w>
sur ge</w>
suff er</w>
stret ching</w>
span ning</w>
som er
she pher
sh ine</w>
schem es</w>
sch mid
s lu
ro ster</w>
ric hard
rho des</w>
reti ring</w>
rein forced</w>
refl ects</w>
re connaissance</w>
pup ils</w>
protec tive</w>
proce dure</w>
prev ented</w>
plan tation</w>
pl ain
pi er</w>
ph s</w>
parad ise</w>
par able</w>
open ings</w>
o x</w>
o der
number ing</w>
ni xon</w>
n c
mon roe</w>
mon itor</w>
mon aco</w>
mas ks</w>
mar ion</w>
mag ma</w>
m t</w>
m igh
luc as</w>
legi on</w>
lea ther</w>
le tt</w>
laven der</w>
l man</w>
kir k
kine tic</w>
jun gle</w>
john ston</w>
jap an
im prison
im pac
im mor
ic e-
i que</w>
i ol
hun ger</w>
how er</w>
hispan ic</w>
hes se</w>
haw k</w>
hand led</w>
gu ided</w>
graph ics</w>
gran ts</w>
govern mental</w>
go e
gl ing</w>
gen ocide</w>
galil eo</w>
foss il
fer tile</w>
fe ed
ev ap
el an
dwar fs</w>
don ts</w>
determin ing</w>
desc end
debr is</w>
cri tically</w>
cool ing</w>
comm union</w>
cla w</w>
ch on
calci um</w>
c ic
by rne</w>
break fast</w>
ber gen</w>
bas se
assum ing</w>
arm strong</w>
ar id</w>
amend ment</w>
adm ired</w>
acu te</w>
abram off</w>
ab bo
184 2</w>
18 10</w>
179 5</w>
1. 8</w>
ɑ ː
élis abeth</w>
y og
y amat
win ston</w>
vi per</w>
under water</w>
touch downs</w>
to ire</w>
thin ks</w>
ter ry</w>
ter rain</w>
t na</w>
suspen sion</w>
stri ps</w>
stra igh
ste ep</w>
speci fied</w>
spec ially</w>
sp d</w>
simil arities</w>
si t</w>
sh eff
sheff ield</w>
sex ually</w>
sc ru
rol l
rho de</w>
real izes</w>
ra f</w>
qu er
protec ting</w>
prad esh</w>
po ols</w>
pi l</w>
photo graph</w>
pay ment</w>
pater nal</w>
par ach
ough s</w>
oss a</w>
om on</w>
ol ec
number -
nit ro</w>
n g</w>
mush room</w>
lo u</w>
li sting</w>
le on</w>
lan d-
k istan</w>
is ition</w>
infec tious</w>
in formal</w>
in car
i ah</w>
her e
hel ium</w>
hel i
gre y
grass es</w>
gl ad
gar de</w>
g la
g ast
g aining</w>
g ag
fl es</w>
fin nish</w>
factor ies</w>
f ain
eye wall</w>
est e</w>
ent ine</w>
en cl
em aker</w>
eg a</w>
ec cl
e al</w>
dis solution</w>
develop er</w>
der by
derby shire</w>
depos ited</w>
d ness</w>
d aw
d art</w>
cryst als</w>
cred its</w>
craw ford</w>
co- operative</w>
cler k</w>
cav ity</w>
cas pian</w>
car til
c es
brigh tness</w>
bri um</w>
bot any</w>
ble eding</w>
be ans</w>
bat tery</w>
b l</w>
are -
ar d
anti l
anal og</w>
al us</w>
a ver</w>
179 0</w>
1- 2</w>
1, 3
wi reless</w>
war dro
wardro be</w>
uni forms</w>
un es</w>
u it</w>
twel f
tro jan</w>
trac tion</w>
tic es</w>
thunder storms</w>
t ari
symphon ies</w>
super star</w>
sunder land</w>
stre s
stev ens</w>
sp ite</w>
sleep ing</w>
shru bs</w>
secre tar
sculp tures</w>
schmid t</w>
sal mon</w>
s on-
richard son</w>
rep airs</w>
re vel
re produce</w>
re opened</w>
ran kings</w>
r n
promo tional</w>
pr ices</w>
po ison</w>
pit ched</w>
per ic
pack age</w>
p ist</w>
ow ls</w>
organ ize</w>
orchestr as</w>
o ilers</w>
o des
nor ton</w>
nebul ae</w>
my ths</w>
my th</w>
mist ake</w>
min ar
meth o
mat a</w>
marke ted</w>
mamm alian</w>
m ere</w>
lab eled</w>
kn ows</w>
k ul
k op
jan eiro</w>
iv y</w>
is ian</w>
ir y</w>
intro ducing</w>
inte st
indo- european</w>
hun ted</w>
hon da</w>
h alls</w>
gu in
graph ite</w>
gra ins</w>
ge es</w>
gabri el</w>
g ill</w>
fu tur
fil ip
exclu ded</w>
est y</w>
es ia</w>
es cent</w>
ero y</w>
er i</w>
equ ili
elec torate</w>
el ong
eigh t-
ed win</w>
ecu ador</w>
doz ens</w>
don nell</w>
dis crimin
di ve</w>
di er</w>
des ired</w>
del ay</w>
czechos lo
crit eria</w>
cra b</w>
coun ting</w>
concer ning</w>
con sen
chr onic</w>
cas tile</w>
bur n
be ings</w>
bar ack</w>
bad ly</w>
ar row</w>
ant ony</w>
am bul
aggres sive</w>
180 5</w>
л е
и ч</w>
y- general</w>
west on</w>
vers es</w>
vari ables</w>
u x
tur ks</w>
tribu taries</w>
toyo ta</w>
tic ism</w>
tibet an</w>
termin us</w>
ten tion</w>
temp o</w>
t ful</w>
ste fan</w>
stat u
st o</w>
st abil
spin- off</w>
so s</w>
so m</w>
sh in
second- largest</w>
salv ador</w>
sail or</w>
sa i</w>
renew ed</w>
refu gees</w>
reco ver</w>
re ward</w>
r ite</w>
profession als</w>
pro portion</w>
pre cur
pollu tion</w>
po e</w>
p am
over -
ob server</w>
nin e-
nation als</w>
nam es
mud dy</w>
mor tar</w>
min i-
mil iti
mer cy</w>
mar tin
log arith
light- years</w>
leic ester</w>
le an</w>
l ecture</w>
kid ney</w>
k ell
jav a</w>
in i
in as</w>
ic ao</w>
hy p
hol low
hab sburg</w>
gradu ates</w>
ga ther</w>
g astro
fro zen</w>
f us
f ric
ent a</w>
dis covers</w>
defin itions</w>
d áil</w>
cur se</w>
col in</w>
co valent</w>
co d</w>
christ ine</w>
cher ry</w>
carb on-
buff y</w>
buddh ism</w>
bou lev
bo dy
belaru sian</w>
ay an</w>
assu me</w>
argent ine</w>
ar k
ap es</w>
ak h
ad mission</w>
ad equ
accommo date</w>
abo ard</w>
a 1</w>
30 00</w>
200 8-
19 -
18 22</w>
179 9</w>
y u</w>
x iii</w>
worl d-
win ni
wick shire</w>
wh is
ven ues</w>
toulou se</w>
to ads</w>
ti um</w>
thur ingia</w>
therap y</w>
ter re</w>
ten or</w>
te trap
super -
siber ia</w>
si erra</w>
sh am
sec ular</w>
scal ar</w>
s sel
ro me
rhine- westphalia</w>
re productive</w>
re duction</w>
r ational</w>
puzz le</w>
pu ts</w>
prin ces</w>
present ing</w>
prae tor
pr u
poin ting</w>
pin ned</w>
pi res</w>
photo volta
p at</w>
ou tw
or lan
olog ically</w>
olec ular</w>
ob al</w>
o ber
new er</w>
new castle</w>
ne olithic</w>
ne o
narr ative</w>
mur ders</w>
mos aic</w>
mig uel</w>
mer ging</w>
me al</w>
mater nal</w>
mar ía</w>
man son</w>
lo ose</w>
l eng
kn ock
ja il</w>
j el
iti an</w>
ing e</w>
impres sive</w>
illustr ations</w>
i tic</w>
hum id</w>
hospit als</w>
hor ns</w>
hom eland</w>
heter o
harv est</w>
h anna</w>
gu ad
gr os
fur nit
fl ynn</w>
fl own</w>
fi rest
f light
eur asian</w>
eur asia</w>
emphas is</w>
eisen hower</w>
ed ith</w>
dromae osaur
dre aming</w>
dou gh
dis gu
dig es
di a
day time</w>
da is
counc ill
convic t</w>
con version</w>
col m</w>
col a</w>
cli ent</w>
clam ation</w>
ci vic</w>
cham ber
cer am
cam den</w>
burgun dy</w>
bul garian</w>
br ack
bor row
bak u</w>
ay ers</w>
avo ided</w>
at ories</w>
air field</w>
agre es</w>
ag h</w>
advoc ate</w>
ad or
ab e</w>
25 ,000</w>
1, 200</w>
-in- law</w>
л ь
z am
you tube</w>
wr apped</w>
wor thy</w>
wic z</w>
went worth</w>
venge ance</w>
under -
um en
twelf th</w>
tot ally</w>
tiber ius</w>
thr ust</w>
targe ted</w>
ta i
t ong</w>
swe e
sw ing</w>
su pr
st ability</w>
soph is
sind h</w>
shor ts</w>
sha wn</w>
sha hi</w>
ruther ford</w>
rupe e</w>
ri ots</w>
religi ons</w>
re t</w>
ra w
pulmon ary</w>
pro ven</w>
po x</w>
pe ppers</w>
palest ine</w>
p aying</w>
on d
nutri ents</w>
north- west</w>
north um
nig er</w>
mo st-
mar sh</w>
mal i</w>
m vp</w>
liz ard</w>
lin e-
leon ardo</w>
le d
la dies</w>
kav iron
kaviron do</w>
k v
journ alists</w>
imprison ment</w>
identi fication</w>
hur wicz</w>
har m</w>
gp 2</w>
game play</w>
furnit ure</w>
fol ded</w>
fl esh</w>
fire works</w>
every day</w>
et ti</w>
enlarg ed</w>
eng ue</w>
en berg</w>
eleph ants</w>
e in
drow ned</w>
dispu tes</w>
din ner</w>
den is</w>
da i</w>
d l</w>
corpor ations</w>
cor k</w>
cont am
consen sus</w>
concer tos</w>
comb ines</w>
com for
colon ists</w>
collo qu
christ ina</w>
cas sius</w>
bud apest</w>
buc k
bran don</w>
boulev ard</w>
bo k</w>
bl ake</w>
ber ing</w>
bas ket</w>
barrac ks</w>
bad en-
auto biography</w>
at ern
at ari</w>
ar tem
ar lington</w>
antil les</w>
amphibi ans</w>
all oy</w>
ac he</w>
a the
5 0-
4 4
200 9-
2 6.
13 5</w>
ä n
wür tt
württ em
wor se</w>
wh ol
w au
vi sta</w>
tro y</w>
transpar ent</w>
transl ations</w>
trac es</w>
ton ight</w>
ti ps</w>
thurs day</w>
swam p</w>
sw ick</w>
subur ban</w>
spring field</w>
sp ices</w>
sket ches</w>
signat ures</w>
si k
sett ings</w>
sedi ments</w>
se ized</w>
scri pts</w>
rit z</w>
revi ved</w>
r osses</w>
q atar</w>
prec ision</w>
prai rie</w>
pleas ant</w>
pill ar</w>
petro le
pav il
particip ating</w>
p. m.</w>
ovi ć</w>
ot t</w>
opport unities</w>
op tions</w>
ogen s</w>
ob li
nur sing</w>
no ise</w>
ni k
n il
n ash</w>
n ash
mu st
mou th
man ual</w>
mal ay</w>
lo id</w>
lis zt</w>
li by
lex ington</w>
la b</w>
l da</w>
joh or</w>
j ara</w>
impro ving</w>
ign ment</w>
ifer ous</w>
her bs</w>
gu el
gi fts</w>
german ic</w>
geome tric</w>
fr aser</w>
fr action</w>
flu te</w>
fin dings</w>
fer ns</w>
fac tion</w>
f bi</w>
eu x</w>
erup ted</w>
er as
eng agement</w>
ende av
en da</w>
eccentric ity</w>
e able</w>
disco ver</w>
dis banded</w>
dest iny</w>
deli ver</w>
decor ative</w>
d rought</w>
cur ves</w>
conver t</w>
condem ned</w>
con tender</w>
con son
con rad</w>
complic ations</w>
complex ity</w>
comman ders</w>
co operation</w>
clin ical</w>
chor d</w>
certain ty</w>
cap tivity</w>
bun dest
bu r</w>
bra hms</w>
bra e</w>
bor oughs</w>
bo p</w>
bic y
ben oit</w>
basal t</w>
bar rel</w>
bar bad
b mw</w>
b ies</w>
at titude</w>
arti facts</w>
arist o
apost les</w>
albat rosses</w>
al istic</w>
aer ial</w>
aby ss</w>
a ise</w>
3 6
2 9.
19 0</w>
180 9</w>
179 2</w>
179 1</w>
16 .
15 ,000</w>
1 15</w>
z or
y un
y es</w>
weigh ed</w>
w ul
volunte ered</w>
ver non</w>
u vi
tur ally</w>
ts ar</w>
tribu tary</w>
tra ils</w>
touch down</w>
ther land</w>
them ed</w>
te h
succ essive</w>
stre tch</w>
st airs</w>
sovere ign
simil arity</w>
sim one</w>
shi elds</w>
shang hai</w>
search ing</w>
sat an</w>
s v</w>
s d</w>
rome o</w>
reve al</w>
resur rec
refu ge</w>
recru ited</w>
re gre
r hen
pursu ed</w>
punjab i</w>
pun ch</w>
psych ologist</w>
proxim ity</w>
pro xy</w>
pro ton</w>
pro pri
ple ist
plan k
phyl um</w>
phy lo
photo grapher</w>
ph on
petrole um</w>
per u
per pen
perpen dic
pep si</w>
osc ill
open -
ol ar</w>
oc a
ne br
motor way</w>
mist ak
migh ty</w>
met allic</w>
mat urity</w>
mar ched</w>
man ila</w>
man ga</w>
man d
m ia</w>
m ese</w>
lil ly</w>
lax is</w>
lands cap
lah ore</w>
ju ice</w>
ith ec
it ated</w>
inc a</w>
ib m</w>
hell en
happ iness</w>
h ass
guid elines</w>
gro o
gre ens</w>
glen n</w>
gl uc
geograph ically</w>
g us</w>
fre i
fran ces</w>
forbid den</w>
fit ted</w>
fin ishes</w>
fear ed</w>
f t
ex it</w>
ess y</w>
enz ymes</w>
dra w
dic t
dep ths</w>
deleg ates</w>
defen ses</w>
deem ed</w>
de vi
d ose</w>
d os
czechoslo vakia</w>
custom er</w>
contain er</w>
consum er</w>
con fer
con es</w>
compl ain
comb ine</w>
coast er</w>
co bar</w>
clin ic</w>
clim b</w>
cl air</w>
cip es</w>
ci o</w>
chass is</w>
ch us</w>
ch ad</w>
calcul ations</w>
bur mese</w>
britann ica</w>
blu e-
bl ock
b aked</w>
august e</w>
at ra</w>
arthro pods</w>
arc ade</w>
ar ray</w>
ar agon</w>
anch or</w>
an gi
an aphy
alternati vely</w>
alber ta</w>
al esi</w>
agre ements</w>
affili ated</w>
aer ob
adop tion</w>
a hl</w>
2, 500</w>
180 8</w>
18 23</w>
17 -
к а
é l
z ania</w>
württem berg</w>
won der</w>
with draw</w>
winni peg</w>
well ington</w>
ul ster</w>
trum pet</w>
trans formation</w>
tr ick</w>
tr ent</w>
tit an</w>
su pi
str on
str ati
shoo ts</w>
se c</w>
scrip tions</w>
s ville</w>
s ach
recomm end
re moving</w>
re arrangement</w>
rap ids</w>
push ing</w>
pul sion</w>
pu pil</w>
pris es</w>
prelimin ary</w>
pre vent
poss essed</w>
pleist ocene</w>
phel ps</w>
pe ach</w>
param eters</w>
ott i</w>
oph ile</w>
occup ies</w>
nor a</w>
nit rate</w>
ni ece</w>
new port</w>
nebr aska</w>
nash ville</w>
narr ator</w>
nagor no-
mic k</w>
mar supi
mac beth</w>
m ys
luc ky</w>
lu ther
lt d</w>
loc ality</w>
ligh ted</w>
li ège</w>
li ve-
lev y</w>
lear ns</w>
le ver</w>
la sts</w>
kar a</w>
jus tin</w>
j u</w>
indi e</w>
in da</w>
id ad</w>
ic ked</w>
i ke</w>
i ata</w>
hin di</w>
guin ness</w>
gu sts</w>
gre n</w>
gl ory</w>
gh ts</w>
get ty
gen esis</w>
gar t</w>
g um
fre ed
football er</w>
flag s</w>
firest one</w>
explos ive</w>
eur o</w>
er ec
equili brium</w>
em in
em ily</w>
edi ble</w>
e ans</w>
doc k</w>
dis on</w>
dec eased</w>
dead ly</w>
d ü
cre st</w>
cow boy</w>
con sumed</w>
communic ate</w>
co bal
che z</w>
cham bers</w>
ch au
cel e
c et
c akes</w>
bul k</w>
bl ade</w>
birth place</w>
bio chemistry</w>
bill ed</w>
bas il</w>
barbad os</w>
ball ad</w>
bal tic</w>
bad en</w>
as -
antibio tics</w>
an tim
all ow
ad u</w>
ac ha
ab bott
180 1</w>
18 27</w>
18 25</w>
18 20</w>
18 19</w>
1 1.
0 3</w>
yamat o</w>
wal ks</w>
ur er</w>
under went</w>
under side</w>
ty son</w>
tubercul osis</w>
ts man</w>
to d</w>
titu des</w>
ther opods</w>
tex tile</w>
t si
t ears</w>
syl via</w>
sw an
sus pic
sum mer
stow e</w>
stal in</w>
span ish-
some where</w>
sloven ian</w>
sil icon</w>
seem ingly</w>
se i</w>
sal ts</w>
s p</w>
ros a</w>
rit ual</w>
rich est</w>
ric an</w>
read er</w>
re v
re u
re ich</w>
re cipes</w>
r atic</w>
qu ito</w>
psy cho
promis ing</w>
prof ession</w>
posthum ously</w>
po ker</w>
perug ia</w>
perpendic ular</w>
pe destri
p ush</w>
p ablo</w>
ox idation</w>
nu i</w>
nor wich</w>
nagorno- karabakh</w>
mongol ia</w>
mon etary</w>
mo thers</w>
miss ile</w>
mess enger</w>
mec ca</w>
mar vel</w>
machin ima</w>
m c</w>
m b
m .
lux ury</w>
low ered</w>
lem on</w>
lac ked</w>
kno ts</w>
k amp
juli et</w>
joh ns</w>
it os</w>
is ely</w>
indu s</w>
inaug ur
in h
il -
hav ana</w>
grand parents</w>
gr ab
g in
g ale</w>
fü r</w>
fr ames</w>
flight less</w>
fl yers</w>
fil ed</w>
fab ric</w>
explor ers</w>
ex pon
est own</w>
es on</w>
es cobar</w>
ep s</w>
entrepren eur</w>
ent um</w>
ent -
enjo y</w>
en dur
en as</w>
ed gar</w>
direc ting</w>
dimen sions</w>
dies el</w>
di x
dem o</w>
defin ite</w>
cra zy</w>
cor tex</w>
con ti
con fu
commerci als</w>
collegi ate</w>
co- founder</w>
cle ar
chand ler</w>
ch ew
brun o</w>
broadcast s</w>
brab ant</w>
br ush
boo t</w>
bio diversity</w>
bin ding</w>
bar ri
av es</w>
argu ing</w>
ar ose</w>
aqu arium</w>
an á</w>
an or</w>
an nie</w>
al to</w>
air play</w>
air plane</w>
af fe</w>
acqu isition</w>
accur acy</w>
ab sent</w>
5 2.
3 30</w>
200 ,000</w>
2 8
18 28</w>
12 ,000</w>
ə n</w>
è s</w>
v as</w>
us -
un t</w>
tre m
trac ed</w>
to k
te en-
symme tr
sub str
str a</w>
stev enson</w>
sovereign ty</w>
so ils</w>
sm outh</w>
sl augh
secretar y-general</w>
scan dal</w>
s pro
s lower</w>
rub instein</w>
ro of
rescu ed</w>
recre ational</w>
re son
re act</w>
pr us</w>
port smouth</w>
phys ically</w>
pers onally</w>
pen ny</w>
pe i</w>
ot am
orlan do</w>
ok in
o da</w>
o asis</w>
nom encl
nomencl ature</w>
n ass
n ar</w>
mü ller</w>
mom ents</w>
mo bility</w>
milli metres</w>
mati lda</w>
man da
mal colm</w>
lor enz</w>
li ke
legen ds</w>
le iden</w>
lay ing</w>
laun ching</w>
l ass
kn i
k w
jer emy</w>
j bl</w>
investig ations</w>
invest ment</w>
inf ant</w>
incl ination</w>
in sky</w>
in duced</w>
ic ing</w>
i wa</w>
i an-
hop es</w>
helicop ters</w>
han over</w>
hal a</w>
ha y</w>
ha bits</w>
h ull</w>
gu am</w>
gi l</w>
getty sburg</w>
ge dly</w>
gat eway</w>
fre ight</w>
fon so</w>
ff s</w>
fam ously</w>
excep tional</w>
ess ays</w>
er os</w>
emerg ing</w>
emer ge</w>
ec o
dou gh</w>
dig it</w>
di plo
di g</w>
der er</w>
decisi ve</w>
dam ages</w>
d ong</w>
cy prus</w>
contribu ting</w>
con i</w>
compar ative</w>
comman der
coll ar</w>
co e</w>
cliff e</w>
châ teau</w>
cephal opods</w>
caucas us</w>
can tons</w>
ca ec
bundes liga</w>
budd ha</w>
broo ke</w>
broadcast er</w>
bott le</w>
bol t</w>
bes ide</w>
bel grade</w>
bav arian</w>
b n</w>
author ized</w>
ast ers</w>
associ ations</w>
angel o</w>
and es</w>
alpha be
alle gedly</w>
al fonso</w>
al d
air y</w>
advant ages</w>
activ ation</w>
abbott abad</w>
ab olic</w>
5 3.
4 9
4 0-
177 2</w>
16 5</w>
é n</w>
youn g
wiz ard</w>
win chester</w>
whit ney</w>
w ounds</w>
w ak
vi va</w>
us b</w>
tw ins</w>
tol l</w>
thre ats</w>
terror ism</w>
telev ised</w>
telec om
tal ity</w>
tac tics</w>
stat e-
spr int</w>
sol vent</w>
sh ale</w>
separ ates</w>
secre tly</w>
sac ram
ros es</w>
ri ed</w>
retro grade</w>
respon ses</w>
renew able</w>
rap ha
r .
provi dence</w>
pros ecu
pri vil
poly mer</w>
pol is</w>
pix ar</w>
pig ments</w>
parti tion</w>
pale o
organiz ing</w>
or monde</w>
ok a</w>
og en</w>
oc ala</w>
o ste
o qu
o .s.</w>
nu de</w>
nine teen</w>
nem o</w>
ne ts</w>
nat o</w>
mun ic
motor sport</w>
mo ist
min ne
min a</w>
mes ozoic</w>
men del
me i
man eu
maj esty</w>
m r</w>
m oss</w>
lun ar</w>
low lands</w>
lo g</w>
lithu anian</w>
lingu istic</w>
le uk
las er</w>
kit chen</w>
juven ile</w>
jen ner</w>
herbi vorous</w>
her ald</w>
he ath
h ound</w>
h ick
gg y</w>
gen -
fi ref
ff le</w>
fem inist</w>
evi ć</w>
ev sky</w>
ern most</w>
encour age</w>
en able</w>
el y
ed en</w>
ec hi
e ternal</w>
dis placed</w>
diff ers</w>
di str
deep ly</w>
de a</w>
correspon ds</w>
correspon dence</w>
cor rid
conv ent</w>
contribu te</w>
contem por
congres sional</w>
con sequences</w>
ck land</w>
chr ys
chil i</w>
char ted</w>
cas ino</w>
can ti
bre ast</w>
bo s</w>
bi bl
bar bar
au ckland</w>
at i</w>
at e
ass ing</w>
as m</w>
ari e</w>
ari ans</w>
ap pal
an ed</w>
alger ia</w>
al ert</w>
ad ju
ac ron
6 6
100 th</w>
- shaped</w>
а н
è ne</w>
zo ology</w>
y uk
wet lands</w>
was p</w>
ves pas
verte brae</w>
ver a</w>
v augh
v ar</w>
uran ium</w>
ur ine</w>
ul tra</w>
truste es</w>
tri bun
tre k</w>
ti p
thir ds</w>
telecom munic
t ational</w>
suff olk</w>
stead y</w>
stall one</w>
st aying</w>
spect ators</w>
spe aks</w>
somer set</w>
sk aya</w>
shel ters</w>
shar p
sch el</w>
sa il</w>
s onic</w>
respec ted</w>
rel li</w>
recep tion</w>
r ine</w>
r ca</w>
r -
propag anda</w>
prepar ing</w>
prec isely</w>
poten tially</w>
pot ato</w>
persi st
per mit</w>
pe aking</w>
paras ites</w>
p oo
ore gi
ophy s
oph il
op ithec
on c
o gi
nomin ee</w>
noctur nal</w>
nicol as</w>
ni x</w>
neutr on</w>
mo ti
lor enzo</w>
lind ström</w>
lad en</w>
l ama</w>
jos h</w>
it é</w>
is abella</w>
ir ene</w>
imp lies</w>
il i</w>
ig u
if ers</w>
i per</w>
hol lan
high lighted</w>
go -
glor ia</w>
gentlem an</w>
gene tically</w>
ga i</w>
ga el</w>
fron tal</w>
fortun ately</w>
flexi ble</w>
fe els</w>
expl ore</w>
ex iled</w>
er shire</w>
em ission</w>
ellip tical</w>
ecosy stems</w>
du et</w>
descend ant</w>
cost umes</w>
const ant
competi tor</w>
clim bed</w>
clar ence</w>
cit rus</w>
cin dy</w>
chlor ophy
ch o</w>
ch ero
ch an</w>
cest ershire</w>
certi fic
cast ing</w>
carri age</w>
cap su
bre ath
bra in
br illi
bor neo</w>
bibl ical</w>
bel fast</w>
batt le
bacter ium</w>
austral opithec
au ction</w>
ati on-
ap ples</w>
ap p</w>
ap oc
an atol
all- time</w>
ali ke</w>
al together</w>
air bender</w>
aff ects</w>
advan cing</w>
ad rian</w>
accep table</w>
2. 0</w>
14 5</w>
12 ,
1, 5
1, 4
&apos; am
ó w</w>
é dé
y a
wh en
wash ed</w>
war wickshire</w>
w ishes</w>
ur inary</w>
u 2</w>
turn pike</w>
trigger ed</w>
tran sp
tr ams</w>
tj at
th ief</w>
th ant</w>
ten e
tar ian</w>
sw ag
sum mar
sp inning</w>
sp a</w>
siber ian</w>
shi pped</w>
row an</w>
ri ft</w>
reti re</w>
republic ans</w>
reig ned</w>
reg ained</w>
ra iders</w>
qu est</w>
progres sed</w>
pri me
pi stol</w>
phr ases</w>
pet als</w>
perfec tly</w>
pati ent</w>
pat ch</w>
parro ts</w>
par ma</w>
p our</w>
p its</w>
oper ators</w>
on ne</w>
o ath</w>
nor theast
neighbor hoods</w>
ne wark</w>
n é
n olan</w>
mon tene
minar di</w>
mi ocene</w>
man ages</w>
ma h</w>
lo dge</w>
kom odo</w>
jo y
japan ese-
jan us</w>
it er</w>
is se</w>
ir is</w>
investig ated</w>
instrum ent
institu t</w>
insi sted</w>
in ous</w>
i ths</w>
hy gi
hr er</w>
he y</w>
hal t</w>
h ren
h are</w>
guad al
green house</w>
for k</w>
flem ish</w>
fisher men</w>
fin an
fasc ist</w>
fa ther
f ford</w>
ey re</w>
explo itation</w>
exam ined</w>
ep och</w>
en su
emp ir
eman uel</w>
em ann</w>
elong ated</w>
ed on</w>
eccl esi
e un
du res</w>
domes ticated</w>
dis crete</w>
dis ab
direc t-to-
descri p
depos it</w>
decim al</w>
dec ree</w>
counter -
con sequence</w>
come back</w>
color ful</w>
co gni
chor e
chi p</w>
chem ists</w>
cent s</w>
cast les</w>
care ers</w>
cardin als</w>
cardi ff</w>
capit als</w>
can dy</w>
c ite</w>
ber ries</w>
bar on
az ores</w>
augu sta</w>
ato ire</w>
at u</w>
ar rows</w>
ar at</w>
anaphy laxis</w>
an z
ai kovsky</w>
ag on
adé mie</w>
ach en</w>
ac adémie</w>
200 7-
200 6-
180 6</w>
180 4</w>
17 75</w>
14 -
1. 4</w>
е в
zi p</w>
white- headed</w>
war time</w>
w i</w>
vest ock</w>
ves sel</w>
ver di</w>
ven e
veg a</w>
val era</w>
ultra violet</w>
u b
ty n
transpor ted</w>
traff icking</w>
trac king</w>
tjat jara</w>
thum b</w>
techn ological</w>
tch aikovsky</w>
sustain able</w>
suppos edly</w>
sul ph
stur geon</w>
stre ak</w>
ste el
st y</w>
squad rons</w>
sol itary</w>
sim pl
she vi
serge i</w>
sel en
sedi ment</w>
sch l
scal a</w>
ro v</w>
ro dri
ri ders</w>
regi stration</w>
refl ected</w>
ran ch</w>
pros p
promis es</w>
preci ous</w>
practi tion
pon ti
plan ck</w>
pin yin</w>
pi g</w>
per ennial</w>
peace ful</w>
pe at</w>
palat inate</w>
ol d
oca ust</w>
no el</w>
nes ium</w>
neigh bor</w>
mu tation</w>
mor e
mic rob
ment ation</w>
mel ting</w>
man ned</w>
man ip
mach t</w>
maced onia</w>
m oo
los es</w>
limit ations</w>
li vestock</w>
land ings</w>
lab our
l p</w>
l engths</w>
kn er</w>
kh ine</w>
kas par
jeff rey</w>
j agu
it ate</w>
insi ght</w>
inqu iry</w>
infin ite</w>
imag inary</w>
im posed</w>
i ana</w>
hydrox ide</w>
hor se
hol ocaust</w>
hoff mann</w>
her t
he w
he d
hand -
hal f
grand daughter</w>
gig an
gener ator</w>
g t
fur n
fren ch-
fre ed</w>
form ats</w>
f ec
ex emp
ethiop ia</w>
es sex</w>
er ce</w>
enab ling</w>
en i</w>
en h
eisen ach</w>
drin ks</w>
domin ance</w>
di stress</w>
deter i
desig ners</w>
des ir
der son</w>
defin itely</w>
decre ased</w>
dar kness</w>
d dy</w>
d anny</w>
cru cial</w>
cre ators</w>
cour thouse</w>
cou p</w>
convic ts</w>
compu ter-
compati ble</w>
compar able</w>
comb inations</w>
co in</w>
cle ared</w>
chero kee</w>
chan g</w>
ch s</w>
catal ogue</w>
cal ed
cad et</w>
bundest ag</w>
brun swick</w>
brit ten</w>
bri t</w>
bos nia</w>
bis exual</w>
bi om
az zo</w>
ath am</w>
ath a</w>
aristo tle</w>
andre a</w>
an che</w>
ale khine</w>
after ward</w>
activ ated</w>
a ve</w>
a jima</w>
7 50</w>
2. 4</w>
2 9th</w>
180 7</w>
18 .
177 6</w>
1 1-
0. 1</w>
y ang
wim ble
wimble don</w>
wea ther
wash ing</w>
vitam in</w>
un conscious</w>
uc i</w>
u sion</w>
ty pes
tt est</w>
tri ps</w>
tram way</w>
ti ans</w>
ter ra
tan zania</w>
supr am
supram olecular</w>
sun set</w>
sub divided</w>
stric tly</w>
ste am
sp are</w>
skir ts</w>
shir ts</w>
she ets</w>
sh ear
sec tors</w>
sch e</w>
sax ophone</w>
sau ces</w>
s worn</w>
ri aa</w>
resem bles</w>
relev ant</w>
rel la</w>
rel ates</w>
ref uses</w>
recogn izes</w>
re- released</w>
re solve</w>
re bel</w>
r ent</w>
prevent ing</w>
pic cad
pi etr
pho to</w>
pe di
pas ser
pag asa</w>
ov al</w>
or ities</w>
notor ious</w>
ni jin
ne gl
mo dul
min t</w>
mas on</w>
marg inal</w>
m one</w>
m h
low- level</w>
loc h</w>
lat ino</w>
l augh
ko vic</w>
kat ara</w>
is ch
install ation</w>
inser ted</w>
in scriptions</w>
in formally</w>
in e-
ie ty</w>
ie m</w>
ic le</w>
ho e</w>
her schel</w>
harmon y</w>
hann ah</w>
ha us</w>
h l
gra di
goe the</w>
glob ular</w>
gi us
gene tic
ge tic</w>
g w
g ical</w>
fu ji</w>
fa ke</w>
ever green</w>
event ual</w>
eul er</w>
es p
en listed</w>
en er</w>
emplo yer</w>
echi dna</w>
down graded</w>
dial ects</w>
di versi
desig ning</w>
deriv ative</w>
demonstr ate</w>
deliber ately</w>
dec om
d is</w>
cultiv ars</w>
cru is
cro m
contrac ted</w>
compu tational</w>
comm enced</w>
collec tor</w>
coc oa</w>
cipher text</w>
cerebr al</w>
bur ger</w>
bull dogs</w>
buc king
brigh ter</w>
bri en</w>
bre eds</w>
ber tha</w>
b ite</w>
az ad</w>
ay r
autom ated</w>
auth en
ati on
ar ya</w>
ar bit
and alu
an c</w>
al ised</w>
air -
aim s</w>
ag as
ach t</w>
7 7
30 th</w>
2. 2</w>
2. 1</w>
178 9</w>
10 3</w>
&apos; aviation</w>
с ко
zim bab
when ever</w>
we ights</w>
we hr
vol tage</w>
vespas ian</w>
vel l</w>
val ves</w>
ur ia</w>
u tt
tyran n
tun ing</w>
tri angular</w>
tor pe
thor ough
ta il
t ooth</w>
t on-
str u
str and</w>
stati onary</w>
st ern</w>
st ays</w>
squad ron</w>
spl itting</w>
spectr al</w>
sp reading</w>
sp ray</w>
sophis ticated</w>
solu ble</w>
sla vic</w>
si es</w>
sha un
sav es</w>
s ay
run ner
research er</w>
reper toire</w>
re united</w>
re match</w>
ran gel</w>
ram esh</w>
punc tu
pt us</w>
proph ec
proce dures</w>
positi oned</w>
plank ton</w>
pi st
pi pes</w>
philanthro pist</w>
ph ases</w>
ph an
per me
pengu in</w>
par t-
pap ua</w>
p ha
ori ental</w>
op ed</w>
ob stac
o tis</w>
nucle oti
new man</w>
moz illa</w>
moist ure</w>
mo or
mo dest</w>
medi a
m ington</w>
m ama</w>
lu f
loy al</w>
lo vers</w>
lo ads</w>
lin da</w>
lec tures</w>
labor atories</w>
knigh ted</w>
king -
kaspar ov</w>
k son</w>
k ow
k hy
jo el</w>
j ou
iv ory</w>
isot opes</w>
inter vention</w>
inter cep
inst inc
in stances</w>
in er
implem entation</w>
i est</w>
i ary</w>
hym n</w>
heavi er</w>
hear t
har per</w>
hal i
h f</w>
groun d-
gar age</w>
g aw
flu ids</w>
fl y
fi g</w>
fa il</w>
excep tionally</w>
ex position</w>
ex port</w>
ev ille</w>
essi e</w>
ess jay</w>
en sur
en o</w>
en ie</w>
em u</w>
em ir
e c</w>
du dley</w>
discus s</w>
dis per
dia bet
diabet es</w>
dest inations</w>
dec i
d f</w>
d engue</w>
cour age</w>
coun ters</w>
conqu er
confi dence</w>
compan ions</w>
com be</w>
colos sus</w>
co x</w>
co ached</w>
choos ing</w>
c f
bul let</w>
bu tt
blo c</w>
black hawks</w>
bann er</w>
bal k
bab y
b ation</w>
at orial</w>
arg uments</w>
ar re</w>
antiqu ity</w>
anthropol og
angel a</w>
analog ous</w>
am is</w>
alum ni</w>
albat ross</w>
al ignment</w>
al de
ag nes</w>
advan ces</w>
30- 40</w>
30 0,000</w>
3. 0</w>
2 60</w>
2 5-
19 th-century</w>
13 .
1. 7</w>
&apos; shaun
ß e</w>
wh edon</w>
w age</w>
vo ters</w>
vis itor</w>
vin nik</w>
vest a</w>
vac ant</w>
un likely</w>
um o</w>
u gu
tu ary</w>
tradem ark</w>
ther opod</w>
th ys</w>
th istle</w>
th ile</w>
t estim
t esti
system atic</w>
swit ching</w>
sun shine</w>
standar di
stan tin</w>
st ab
sna ils</w>
smar t</w>
sm oo
shu ttle</w>
sh ō
sex es</w>
sen ds</w>
se ating</w>
sa hara</w>
s eller</w>
s ad</w>
re solved</w>
ra j
ra ids</w>
protoc ols</w>
pre vention</w>
pos e</w>
piccad illy</w>
peri ph
pe ggy</w>
paras itic</w>
onc é</w>
okin awa</w>
north- south</w>
no i</w>
nic ar
monast eries</w>
mom entum</w>
modi fication</w>
midd le-
mes o
main -
mag nific
lumin osity</w>
lit ter</w>
li fting</w>
li fes
lat eral</w>
kno x</w>
kn owing</w>
k ri
jam estown</w>
is sa</w>
ire ann</w>
investig ate</w>
inter fer
ino ple</w>
in- law</w>
in complete</w>
ib n</w>
i ć</w>
i ens</w>
hum e</w>
harmon ica</w>
graph ical</w>
gra zing</w>
gon z
go v
gen .</w>
ge ologist</w>
g out</w>
foun tain</w>
fl atten
fiel ding</w>
er un
er nest
epidem i
en vel
embry o</w>
ec k
e ti
dor mouse</w>
dom ingo</w>
di xon</w>
destruc tive</w>
deep est</w>
dec r
deb ian</w>
deal er</w>
de t</w>
de af</w>
dar ling</w>
dan u
d ingly</w>
d ing
d airy</w>
constant inople</w>
confer ences</w>
com fort</w>
com bus
cobal t</w>
coast s</w>
cl ade</w>
car ol</w>
calcul ate</w>
c pu</w>
bre tt</w>
br uc
bot vinnik</w>
boo m</w>
bom bay</w>
bol shevi
bl az
bey oncé</w>
ber land</w>
beli eving</w>
bat ting</w>
b j
b ells</w>
awar eness</w>
au dit
at ers</w>
ast ing</w>
arist oc
an tenn
an chor
am or</w>
alber to</w>
al kal
ag o
after math</w>
ac on</w>
absor b</w>
ab un
6- 1</w>
5. 5</w>
5 5
18 5</w>
13 ,
- tennō</w>
&apos; brien</w>
zimbab we</w>
z ulu</w>
z ir
yugosla v</w>
yellow -
y me</w>
x es</w>
wis dom</w>
whit es</w>
wes sex</w>
wehr macht</w>
wa x</w>
volun tary</w>
ver e</w>
ve zina</w>
v y
v na</w>
v ap
up coming</w>
un certain</w>
um acher</w>
tur er</w>
tt ingen</w>
til l
ti mo
thr iller</w>
tec tonic</w>
t son</w>
t res</w>
t ones</w>
t ell
t .
sun y</w>
su t</w>
stu tt
star r</w>
st uck</w>
spir its</w>
sp y</w>
sk o
selec tive</w>
se y
sch umacher</w>
sac ri
row ling</w>
ro th
rest ing</w>
ren dered</w>
recep tors</w>
recei ver</w>
radio active</w>
quar k</w>
py g
pul sar</w>
prin ter</w>
predic tion</w>
pre fix</w>
pl ut
photovolta ic</w>
pharm ac
perm ian</w>
per sec
past or</w>
p els</w>
p ar</w>
ow ay</w>
op eth</w>
on o</w>
ol o</w>
og ram</w>
og lo
oder ms</w>
ob serve</w>
o ved</w>
o ke</w>
o k</w>
o ils</w>
no tion</w>
nic ole</w>
neutr ons</w>
ne pal</w>
nak ajima</w>
my a</w>
militi a</w>
men tions</w>
mag nesium</w>
ma k
m ā
m bar</w>
lu de</w>
lin den</w>
like wise</w>
li p</w>
lef t-
le ón</w>
lar val</w>
lab rad
la ing</w>
k lu
jac qu
iti n</w>
ir i</w>
ir c</w>
integr ation</w>
install ment</w>
inspec tor</w>
innov ation</w>
impression ist</w>
im o</w>
ic rc</w>
ic c</w>
hyper b
ht ml</w>
hollow ay</w>
hil o</w>
hellen istic</w>
ha in
gren adi
gre g</w>
gor ge</w>
fr ame
fluor ide</w>
fl are</w>
fel d
f aw
extra ordinary</w>
expl aining</w>
excell ence</w>
enti a</w>
eclip tic</w>
ech es</w>
ec oregi
east ward</w>
dun can</w>
duch ies</w>
doc toral</w>
disab led</w>
dis ability</w>
day light</w>
dar ker</w>
dar in</w>
dan i
d n</w>
cy n
cre scent</w>
cr os
cor y
coo ke</w>
commun es</w>
comm u
com pres
clar a</w>
chor eo
chon dro
cav es</w>
cab bage</w>
br ings</w>
bi ologists</w>
ben son</w>
bar th
bac eous</w>
bab ies</w>
aw a
au dition</w>
astr onau
assass inated</w>
ass ess
ass ed</w>
as ym
appar atus</w>
ap preci
an x
ambul ance</w>
al om</w>
al .</w>
advertis ement</w>
administr ators</w>
accompan ying</w>
ac ia</w>
absor ption</w>
7. 5</w>
3 16
160 9</w>
1, 9
1, 300</w>
&apos;shaun essy</w>
ʻ i</w>
é ireann</w>
zuk i</w>
ys crap
yor k
y ak
what ever</w>
water loo</w>
twenty- one</w>
tro m
treas ure</w>
transl ates</w>
tor ch</w>
ti bet</w>
threat ening</w>
syn chro
surren dered</w>
sun gai</w>
sugges tion</w>
su its</w>
su bor
subor din
ste g
stand ings</w>
span ned</w>
sol omon</w>
sol ids</w>
smo key</w>
sm en</w>
sli m</w>
sk yscrap
simpli fied</w>
shepher d</w>
shep sut</w>
sem in
self- titled</w>
sc outs</w>
s f
rum ors</w>
roman a</w>
rid ges</w>
rep lied</w>
re actor</w>
r oss
r ist</w>
quo tes</w>
pro be</w>
prece ded</w>
porno graphy</w>
perio dic
per t</w>
per ed</w>
pe tani</w>
pal mer</w>
or dovic
om i</w>
octop us</w>
o str
north westward</w>
neur os
nec tar</w>
n ington</w>
mou l
motor cycle</w>
model ing</w>
mo ist</w>
mil wau
mat or
mack enz
mac qu
m are</w>
m age</w>
line age</w>
lic ence</w>
li er</w>
le ase</w>
lam b</w>
l ays</w>
ku wait</w>
kr as
ke es</w>
k ram
is ia</w>
inter nationale</w>
instruc tor</w>
in os</w>
im pulse</w>
ill -
ignor ed</w>
i vo
i tive</w>
i ola</w>
hum idity</w>
hor mone</w>
hier archy</w>
hi pp
hat shepsut</w>
hart ford</w>
ha bil
h 2
gun powder</w>
go ose</w>
freed oms</w>
fr édé
form es</w>
for -
fle e</w>
flatten ed</w>
f .c.</w>
ex o
english- speaking</w>
emo tions</w>
eigh teenth</w>
drag ons</w>
docum entation</w>
dit ch</w>
din o</w>
di stor
di ana</w>
determin es</w>
deser ts</w>
de pres
de m</w>
de ity</w>
d oo
d as
d ad</w>
crow ded</w>
correspon d</w>
conv ince</w>
consol es</w>
congre gation</w>
con fined</w>
complex es</w>
compens ation</w>
commemor ate</w>
comman ding</w>
comm uni
comfor table</w>
colloqu ially</w>
cockat oo</w>
co vent</w>
co ats</w>
co aching</w>
cl ick</w>
cl em
choreo grapher</w>
cele bri
celebri ties</w>
care fully</w>
camp uses</w>
but ler</w>
buil ds</w>
br o</w>
botan ist</w>
bohem ia</w>
bloc king</w>
bit ing</w>
ber -
be ag
ban co</w>
ban anas</w>
aval anche</w>
ast er
as yl
as aki</w>
archi bald</w>
acron ym</w>
aci dic</w>
acc us
ac es</w>
2. 7</w>
10 ,
1, 6
1 20
0 2</w>
а р
ó r
zz a</w>
wol ves</w>
wil mington</w>
vi pers</w>
v y</w>
us ement</w>
univers ally</w>
under taken</w>
u lic</w>
tu bes</w>
trum an</w>
trium ph</w>
tre ating</w>
tor ture</w>
tim ber</w>
ti veness</w>
ti ff
tent acles</w>
technic ally</w>
taxonom y</w>
tal ented</w>
sur name</w>
suppl em
super hero</w>
substitu te</w>
stra w</w>
stati oned</w>
st as
sl alom</w>
sig ni
si dian</w>
shru b</w>
sg t.</w>
schu mann</w>
s no
s ica</w>
s ane</w>
rudol f</w>
ri tis</w>
ri bos
re tali
re tains</w>
rain bands</w>
ra h</w>
ra fa
precur sor</w>
portra yal</w>
poly morph
pietr o</w>
persi ans</w>
pat erson</w>
p he</w>
ox fordshire</w>
over whel
ou n</w>
op otam
ob sidian</w>
number- one</w>
now ad
nowad ays</w>
ne -
napol e
n me</w>
mu gh
minne apolis</w>
mes opotam
ment or</w>
mem oir</w>
mc gra
mc donald</w>
may o</w>
mat ched</w>
marqu is</w>
mar y
make up</w>
macqu arie</w>
mackenz ie</w>
machin ery</w>
lumin ous</w>
lith osphere</w>
lit ur
liqu ids</w>
lec turer</w>
le tic</w>
le ary</w>
la wn</w>
kor ch
korch noi</w>
ka therine</w>
k um
j ell
isom ers</w>
ing ian</w>
im s</w>
ill umin
ig e</w>
id ah
idah o</w>
hyperb olic</w>
hydra ulic</w>
hun g</w>
hu t</w>
hosp ital
hon eye
her ring</w>
hen ge</w>
hab i</w>
gö ttingen</w>
gl u
gis elle</w>
ge o
ge ar</w>
gam ecu
g our
frame work</w>
forem ost</w>
fol kl
fol i
fi erce</w>
fer al</w>
fem in
fal cons</w>
fal con</w>
fa ul
fa ils</w>
f ers</w>
f enty</w>
exce ed</w>
every body</w>
ever ett</w>
eur s</w>
ess a</w>
er an</w>
en ligh
eliz a</w>
elev ator</w>
dis co</w>
dig ging</w>
di ane</w>
detec tion</w>
des per
den cies</w>
defin ing</w>
danu be</w>
cyber men</w>
cross over</w>
cous ins</w>
con den
con ce
comp rise</w>
comment ator</w>
cogni tive</w>
chimpanze e</w>
chil ean</w>
ches ape
chec k
cell ist</w>
ce bu</w>
cater pillars</w>
cap turing</w>
c .
bun ker</w>
bul lets</w>
bu zz</w>
broad ly</w>
brad ley</w>
br yo
br acts</w>
be ats</w>
bar bi
b t</w>
ax ial</w>
av eng
austri a-
ash ore</w>
as sets</w>
arch e
appal achi
apar the
ap e</w>
americ an-
am usement</w>
al ba</w>
aggre gate</w>
activi sts</w>
accor dance</w>
acceler ator</w>
acc ent</w>
25 th</w>
177 9</w>
177 8</w>
10 6</w>
1 28</w>
- ray</w>
- and-
â tre</w>
weigh s</w>
web b</w>
wavel ength</w>
war ned</w>
w ills</w>
vo ked</w>
vil la
v ings</w>
un disputed</w>
ull rich</w>
ul ls</w>
tw in
turb ines</w>
tu b
tro op</w>
treas urer</w>
tim or</w>
tar es</w>
t ative</w>
super natural</w>
substr ate</w>
su zuki</w>
stret ches</w>
sti tch</w>
st ing
sp ears</w>
sko ye</w>
ske p
sk inner</w>
sim pler</w>
shoul ders</w>
sho e</w>
sh ocked</w>
sch nei
sal ad</w>
s light</w>
s ellers</w>
s bury</w>
ro de</w>
rit es</w>
requ iem</w>
red dish</w>
re sumed</w>
r ally</w>
pros titu
proc essed</w>
pre sum
pr i</w>
pow ell</w>
pol ish-
pione ered</w>
philosoph ers</w>
peter son</w>
pear son</w>
pan els</w>
pack ers</w>
pa ste
oz y
ordovic ian</w>
odes sa</w>
occurr ence</w>
oc ar
o te</w>
nijin sky</w>
nas car</w>
narrow ly</w>
mo ther
mer i
me ts</w>
mar tyr
m ö
long time</w>
loc ke</w>
lea ther
land marks</w>
l ach
kus hima</w>
jun g</w>
jun c
ish i</w>
ish a</w>
inter act</w>
in ter</w>
human ities</w>
hon dur
hen derson</w>
hec tares</w>
he ster</w>
har sh</w>
ham lin</w>
ham let</w>
h bo</w>
gre ta</w>
gr un
go tt
go ats</w>
gius eppe</w>
genetic ist</w>
gen ic</w>
gaw ler</w>
gamecu be</w>
g org
g ci</w>
g aul</w>
fun ny</w>
frédé ric</w>
fol ding</w>
flu ent</w>
floo d
fiel der</w>
fe es</w>
fat alities</w>
f ow
f ell
et ting</w>
er man</w>
entertain er</w>
enter prises</w>
en es</w>
en burg</w>
em ic</w>
dri fted</w>
dev onian</w>
depic ting</w>
de i</w>
d habi</w>
continu ation</w>
con junction</w>
con cor
co hen</w>
co bra</w>
chlor o
chimpanze es</w>
care ful</w>
car char
bur nt</w>
bu ck</w>
br ent
bl amed</w>
bis mar
bhu tan</w>
batt ali
basse terre</w>
bar t</w>
ban ding</w>
baby lon
bab ylon</w>
b end</w>
b ast
athen ian</w>
as lan</w>
aparthe id</w>
answ ered</w>
adul thood</w>
acknowle dged</w>
ace ty
accep ts</w>
accep tance</w>
acceler ation</w>
acceler ated</w>
a ja
4 9.
4 8
2 8th</w>
2 20</w>
177 7</w>
17 70</w>
1 18</w>
z ack</w>
yer ba</w>
witn essed</w>
wh l</w>
we eds</w>
wal ked</w>
vacc ines</w>
v u
v ow
v hs</w>
ur ugu
un certainty</w>
tur bo
tu re
tt i</w>
tran sc
tou ching</w>
tom atoes</w>
ti ers</w>
terri ble</w>
teles copes</w>
telecommunic ations</w>
ta i</w>
sy rac
super vision</w>
super nova</w>
suffici ently</w>
succe eding</w>
sub merged</w>
stres sed</w>
ste en</w>
stat ute</w>
star ter</w>
squ am
ske tch</w>
si de-
sh ell
rou tine</w>
rib bon</w>
ri m</w>
radi al</w>
quar tered</w>
prosper ous</w>
proc essors</w>
presum ably</w>
pred atory</w>
preced ent</w>
pra yers</w>
po ts</w>
play -
pl and</w>
ph ic</w>
pavil ion</w>
patt on</w>
pat ric
p ad</w>
out flow</w>
oun ce</w>
om o</w>
om ar</w>
objec tives</w>
o irs</w>
nou n</w>
nott ingham</w>
nor ris</w>
nic o</w>
n berg</w>
more over</w>
monit oring</w>
mir za</w>
mir rors</w>
mini ature</w>
min ers</w>
migr atory</w>
micros copic</w>
mer ced
merced es</w>
mel ina</w>
magne tism</w>
mag na</w>
ma e</w>
m u</w>
m ell
m ation</w>
lo tt</w>
live- action</w>
lin ers</w>
lim iting</w>
liby a</w>
libre tto</w>
le a</w>
lanc ash
lancash ire</w>
lam bert</w>
l ulu</w>
kar a
kak adu</w>
k t</w>
k end
je anne</w>
issu ing</w>
io di
invas ive</w>
inv itation</w>
inter viewed</w>
innov ative</w>
imag ery</w>
ig en
iber ian</w>
i x
i vers</w>
hor n
hon ey
hispan iola</w>
helicop ter</w>
hay es</w>
hard t</w>
h tun
govern ess</w>
gib son</w>
ge ologists</w>
fur by</w>
fr itz</w>
for tified</w>
folkl ore</w>
fl ash
fe ather</w>
fac ial</w>
exten sions</w>
eth anol</w>
enti ce</w>
en se</w>
em itted</w>
el f</w>
e instein</w>
distribu te</w>
desir able</w>
dec iding</w>
de vil
de pot</w>
da í</w>
d well
d f
cr ypt</w>
cr y</w>
corrid or</w>
constitu ency</w>
co dy</w>
co ded</w>
clim ates</w>
cli p</w>
ciph ers</w>
chesape ake</w>
ch y</w>
cathol icism</w>
car ac
c is
c ey</w>
but cher</w>
bre ton</w>
brad shaw</w>
borrow ed</w>
bore al</w>
bol i
blu -ray</w>
blo g</w>
bion icle</w>
bad ge</w>
b ent</w>
av a</w>
autonom y</w>
au x
at on</w>
arch er</w>
ar an</w>
approxim ate</w>
an ing</w>
am ar
alon so</w>
al ize</w>
achiev ing</w>
ab i</w>
ab b
a. m.</w>
a é
3 9
200 5-
2 6-
178 1</w>
17 65</w>
14 .
1 12</w>
ˈ ɡ
zuk o</w>
zu ka</w>
z anne</w>
yan kees</w>
y os
x- rays</w>
worl ds</w>
wonder ful</w>
wing span</w>
well- preserved</w>
well- defined</w>
vin sky</w>
valen cia</w>
v l
un related</w>
u tility</w>
u ro
u h
u fc</w>
tw ist</w>
tt le
trans form</w>
tr ucks</w>
tit us</w>
ti me-
thom son</w>
th est</w>
text book</w>
tab lets</w>
ta ke
t ments</w>
syrac use</w>
sun ny</w>
sub continent</w>
su c
strateg ies</w>
stra vinsky</w>
stein itz</w>
st ained</w>
spok es
spi kes</w>
speci alty</w>
sp ur
sp iny</w>
sp ic
sou ls</w>
sl ayer</w>
sk ate</w>
shir ley</w>
seven -
sent ences</w>
se ated</w>
school ing</w>
schol arly</w>
schnei der</w>
runner -up</w>
ros so</w>
ro th</w>
resurrec tion</w>
refer en
real istic</w>
real ism</w>
re tr
r um</w>
r sa</w>
r ory</w>
pé rez</w>
py ro
pul ses</w>
publ ics</w>
prime time</w>
pres ley</w>
pollin ation</w>
pit cher</w>
pione ers</w>
peru vian</w>
pat ron
outw ard</w>
ony m</w>
on ds</w>
om ni
ol ig
ob serving</w>
o bl
nx t</w>
n p
mo ose</w>
mo bil
milwau kee</w>
met all
ment ally</w>
me i</w>
mar nock</w>
mad agas
ma us
m atic</w>
ly ric</w>
lingu istics</w>
leop ard</w>
lav ig
lavig ne</w>
l is</w>
knock out</w>
kni fe</w>
ke en</w>
k ad
jess ica</w>
jay -
jay- z</w>
iz able</w>
it y-
isot ope</w>
ish ments</w>
is tically</w>
inn ate</w>
in tru
il de</w>
i a
hu an</w>
hert fordshire</w>
her ze
heid elberg</w>
heavi est</w>
har an</w>
had rian</w>
gu l</w>
grass lands</w>
gov ina</w>
gluc ose</w>
ge ons</w>
ge an</w>
g ong</w>
fran co</w>
fore ig
flor es</w>
eukaryo tes</w>
est uary</w>
eri k</w>
er ne</w>
enz yme</w>
english- language</w>
en doc
elli us</w>
elimin ating</w>
elimin ate</w>
edit orial</w>
e 4</w>
dou g</w>
di bi
dibi ase</w>
del hi</w>
cy to
cul turally</w>
crystall ography</w>
cry pt
counter part</w>
coun sel</w>
consul tant</w>
consi ders</w>
compos ite</w>
co sting</w>
cl ement</w>
cl ay
cat ching</w>
car t</w>
cal dera</w>
cad mium</w>
ca ul
c ue</w>
c ade</w>
bu gs</w>
bu g</w>
bloo dy</w>
bl ades</w>
bil lie</w>
b ent
aw ak
ati le</w>
ass e</w>
art work</w>
andre ws</w>
alam itos</w>
affili ate</w>
ae gean</w>
advis ories</w>
ad her
ac et
a ha</w>
a achen</w>
2 8.
19 .
179 3</w>
1. 1</w>
1 17</w>
ə r</w>
y as</w>
work shop</w>
will is</w>
whit es
west er
we ars</w>
vol dem
voldem ort</w>
vill agers</w>
vi ć</w>
vent ry</w>
vas cular</w>
vac ation</w>
v ec
v ak</w>
ur ian</w>
uk i</w>
u ke</w>
tu es
ts ville</w>
trop ics</w>
tre e-
timo thy</w>
thermo dynamics</w>
ter esa</w>
teen ager</w>
teat ro</w>
te ar</w>
t any</w>
sus cep
sub scri
sub mit</w>
sub division</w>
su b</w>
stri kes</w>
str ing
sti pul
stap le</w>
stand -up</w>
st ow</w>
st one
spir atory</w>
sn l</w>
skelet ons</w>
sk ulls</w>
shi fts</w>
sens ory</w>
se af
sch we
scandin avia</w>
san k</w>
salam anders</w>
s dorf</w>
roun d-
rod gers</w>
ro m</w>
ri gi
resem bl
res in</w>
refl ection</w>
re spiratory</w>
re conc
promo tions</w>
prohi bited</w>
pri ory</w>
prev ail
pneum onia</w>
play boy</w>
pl a
pi pel
photo s</w>
pet ty</w>
partis an</w>
par ental</w>
pal azzo</w>
pak htun
p le-
p im
p ies</w>
ow itz</w>
octa vian</w>
oc eph
northeast ward</w>
nomin ees</w>
nomin al</w>
nom adic</w>
no te
nikol ai</w>
nichol son</w>
nh c</w>
nat al
n ian</w>
n ac
mor se</w>
mid west</w>
metho dist</w>
metamorph ic</w>
mead ows</w>
mcgra w</w>
mc kin
mathemati cians</w>
mand atory</w>
man darin</w>
madagas car</w>
m lb</w>
lincol n
lifes pan</w>
landscap es</w>
labrad or</w>
ko o</w>
k ath
k as</w>
jus ti
juda ism</w>
jer ome</w>
je al
islan ders</w>
inter continental</w>
ingredi ent</w>
im men
il d</w>
ib ben
hondur as</w>
hog an</w>
hin du
he ire
ham shire</w>
gymnas tics</w>
gu ez</w>
gross ed</w>
gos pels</w>
gar daí</w>
g yp
g love</w>
fron t-
fran co-
for ks</w>
fantas tic</w>
f used</w>
f ay</w>
explor ing</w>
explic it</w>
expe ditions</w>
euc li
emin ent</w>
embar ked</w>
dé part
drag on
dor set</w>
dol ph</w>
do ves</w>
do dge</w>
do ba</w>
direct-to- video</w>
di min
det ached</w>
des ser
dav ey</w>
dais y</w>
d ys
d les</w>
crocodil es</w>
cre ed</w>
coordin ated</w>
control lers</w>
constitu ted</w>
conquer or</w>
condi tioning</w>
con cord</w>
chlorophy ll</w>
ch ok
cataly st</w>
car cin
canti lever</w>
can e</w>
can dle</w>
bush ranger</w>
buil der</w>
bry ant</w>
br as
bo a</w>
bed ford</w>
beau fort</w>
be ust</w>
be ef</w>
bas ement</w>
barn um</w>
bar ber</w>
bar b
ban king</w>
b are</w>
at eral</w>
asp ir
all oc
al z
al ter</w>
accur ately</w>
ab bot</w>
8 0s</w>
3. 3</w>
3 8
2 7.
2 7
19 5</w>
15 .
10 4</w>
ł aw</w>
é ti
wel com
welcom ed</w>
we dge</w>
warm er</w>
war d-
w p</w>
w inter
w ash</w>
voc abulary</w>
viol a</w>
vibr ation</w>
ver b</w>
un g
u pri
ty res</w>
tri b
tren ch</w>
transp os
trans fer
ti sh-
three- dimensional</w>
thor n</w>
tex ture</w>
tes la</w>
ter a</w>
ten dency</w>
te tra
te ens</w>
tad poles</w>
survi ves</w>
stro kes</w>
spec if
south ampton</w>
sk illed</w>
shor test</w>
sh an
sequ els</w>
se ine</w>
satis fied</w>
roun d
ro pes</w>
ro land</w>
reg gae</w>
recre ation</w>
re taining</w>
re publics</w>
re ject</w>
re hear
rag time</w>
ra e</w>
quin tan
qu it
pur suit</w>
pub li
pu ps</w>
pt ol
psychiat ric</w>
propor tional</w>
proph et</w>
prepar ations</w>
premis e</w>
predic t</w>
pot tery</w>
pot atoes</w>
post code</w>
popul arly</w>
pl aque</w>
photosyn thesis</w>
phos phate</w>
persi sted</w>
pat ches</w>
passi ve</w>
pan ic</w>
paleont ologist</w>
p aired</w>
os oph
os o</w>
ori ent
or n</w>
or g</w>
op on
om al</w>
ok u</w>
og nath
oc king</w>
oak land</w>
o tive</w>
nar a</w>
nad u</w>
n us</w>
my self</w>
must ard</w>
mus cular</w>
montene gro</w>
mission ary</w>
mid land</w>
micros cope</w>
meth yl</w>
me ta
me ow
maus ol
mat ra</w>
mat ching</w>
magne ts</w>
m ast</w>
luther an</w>
luci us</w>
logarith mic</w>
li kes</w>
li est</w>
le go</w>
lat e-
la e</w>
ker nel</w>
kangar oos</w>
k les</w>
jun o</w>
jour neys</w>
it one</w>
it -
is bn</w>
inter val</w>
inh g</w>
in en</w>
im migrated</w>
hu tt</w>
hon sh
hol ders</w>
herze govina</w>
heire ss</w>
gam bon</w>
ga u</w>
g av
fu els</w>
flour ished</w>
filip ino</w>
fil am
fic ially</w>
fer tility</w>
f ens</w>
euc aly
eucaly ptus</w>
eth ics</w>
equ atorial</w>
ep ing</w>
enti n</w>
encomp asses</w>
em m
e ze</w>
du kes</w>
domin ate</w>
dix ie</w>
discrimin ation</w>
dis qualification</w>
diplom a</w>
des k</w>
depar ted</w>
d ür
d ane</w>
d all</w>
cun ha</w>
cu bes</w>
critic ised</w>
consist ently</w>
congres sman</w>
comp iled</w>
combus tion</w>
cli ents</w>
cl audi
christ church</w>
chamber lain</w>
ch atham</w>
capuch ins</w>
can s</w>
breath ing</w>
br ush</w>
bo o</w>
bicy cle</w>
ben z
battali ons</w>
ban ana</w>
b air
aur ora</w>
atis m</w>
ap pr
announ cer</w>
amaz ing</w>
am b
alli g
al ve
al arm</w>
ag a
af raid</w>
adequ ate</w>
ad le</w>
ad ic
ad ds</w>
ad an</w>
acc ession</w>
abbo tt</w>
ab al
a an</w>
6 0-
5 0.
3 20</w>
2 4th</w>
187 0s</w>
186 0s</w>
178 7</w>
17 80</w>
č ević</w>
ö l
yi el
yan cey</w>
y oshi</w>
y ass</w>
wul ff</w>
wrest led</w>
we is
we aker</w>
warm ing</w>
wan ting</w>
virtu e</w>
vi ties</w>
vege table</w>
ve al</w>
v ana</w>
uz be
ul tr
u sta
usta š
two- year</w>
tor ial</w>
tim pan
ti red</w>
thre sh
thou ghts</w>
terra zzo</w>
ter n
ten sions</w>
te jan
te amm
tas man</w>
t ō
t é</w>
synchro tron</w>
symmetr ical</w>
sur passed</w>
su therland</w>
su ms</w>
su ited</w>
stron gh
str as
ste pped</w>
stam p</w>
st ag</w>
ssel dorf</w>
squ e
sp y
sp ear
sou thernmost</w>
some body</w>
sol idi
so da</w>
simp sons</w>
shoo ter</w>
sh an</w>
se janus</w>
se aled</w>
schwar z
sacri fic
sa haran</w>
sa c</w>
s sr</w>
s crat
rob ust</w>
ro t</w>
ricul um</w>
revers ed</w>
revel ation</w>
resi ding</w>
replic ation</w>
rebel s</w>
real ize</w>
re sorts</w>
que z</w>
q i</w>
proli fic</w>
pres by
pp v</w>
po ster</w>
pilgri mage</w>
phara oh</w>
pe des</w>
pe an
pean ut</w>
pav ed</w>
pat ented</w>
par ous</w>
par kes</w>
pakhtun kh
pakhtunkh wa</w>
pa stor
os h</w>
or an
on na</w>
ol ulu</w>
ol ine</w>
ogen ic</w>
nur ser
nath an
na ve</w>
n iz
n ate</w>
myth ological</w>
mt r</w>
mr s</w>
modi fications</w>
model ed</w>
min ed</w>
mil l
mc n
mark up</w>
ma o</w>
m be</w>
lyn n</w>
list ening</w>
lincoln shire</w>
lifel ong</w>
kidn apped</w>
k oo
jo kes</w>
jo ey</w>
j ules</w>
ital ics</w>
it v</w>
it er
isol obal</w>
iodi de</w>
inter stellar</w>
in ception</w>
ill ing</w>
il legitimate</w>
ig or</w>
i ya</w>
hyper tension</w>
hon olulu</w>
homos ex
her d</w>
he bri
har der</w>
h of
h ades</w>
guil d
gu a</w>
grenadi er</w>
good bye</w>
gener ates</w>
g ust</w>
g us
func tioning</w>
fron ts</w>
fre est
fre eman</w>
flag ship</w>
fl int</w>
fici ency</w>
feat s</w>
fe ather
fashi onable</w>
fail ing</w>
ew ski</w>
evol ve</w>
eucli dean</w>
escap es</w>
elec tor</w>
el gar</w>
egyp tians</w>
ed es</w>
e id</w>
e gr
dü sseldorf</w>
dw ight</w>
dv ds</w>
ds l</w>
dres sing</w>
dis ks</w>
dis charge</w>
di va</w>
devo tion</w>
deno ted</w>
deman ding</w>
da h</w>
cur riculum</w>
cu t
cro w</w>
crat ers</w>
cor p
convers ation</w>
conv ective</w>
construc tors</w>
conn or</w>
co- founded</w>
co ventry</w>
clar ine
cl y
civil izations</w>
chie fly</w>
char le
chap man</w>
ch airs</w>
centi meters</w>
ce ph
cat astro
car roll</w>
cali phate</w>
c u</w>
c am</w>
bu ster</w>
brilli ant</w>
bridge stone</w>
brac kets</w>
bra d</w>
bour n
bel ly</w>
balan ced</w>
bal ti
back up</w>
austria- hungary</w>
armen ians</w>
ar gue</w>
anthropolog ist</w>
ant es</w>
ant a</w>
an an
am u</w>
al yp
air liner</w>
af ri
advis er</w>
adop t</w>
ad ditions</w>
accor dingly</w>
acci dents</w>
ac ty
ab dul
ab dom
6 0s</w>
3 7
201 5</w>
2009- 10</w>
2. 6</w>
2 4.
18 11</w>
178 8</w>
1. 0</w>
ا ن</w>
о с
y vel
yvel ines</w>
y i</w>
y fish</w>
y clic</w>
y ana</w>
x y
wit ches</w>
wh i
wel k</w>
web ster</w>
wat t</w>
wan g</w>
w ished</w>
w ed</w>
w are
w .
vir go</w>
vic inity</w>
v 10</w>
un happy</w>
trin idad</w>
transcri ption</w>
tra it</w>
tor to
too thed</w>
to il
tl c</w>
the ological</w>
th ia</w>
tejan o</w>
tal ents</w>
t ore</w>
t ing
syn ap
surroun ds</w>
stri pped</w>
stra ins</w>
stal ingrad</w>
spectros copy</w>
spectac ular</w>
spec ulation</w>
sp ice</w>
solo ist</w>
sok ka</w>
sk is</w>
si ena</w>
sha w
sh a</w>
sen sors</w>
sar a</w>
sacram ento</w>
saar inen</w>
s worth</w>
s val
s s-
roy ale</w>
rom mel</w>
ri fles</w>
revolu tion
require ment</w>
ren dering</w>
recipi ents</w>
rec ap
real ms</w>
ran dolph</w>
ran ce</w>
rab bits</w>
quot ations</w>
quin n</w>
pos ing</w>
poly mer
pil ate</w>
phos phor
pel opon
pe as</w>
pay ments</w>
path ogens</w>
p au
ovir aptor
ott a</w>
orch ard</w>
ophor es</w>
op é
op tic</w>
op ium</w>
op hon
no str
no s</w>
ni el
nation alists</w>
napole onic</w>
n ha</w>
multi player</w>
mol e</w>
min i</w>
met abol
merchan dis
medit ation</w>
marl boro</w>
mar ino</w>
mar ching</w>
man t</w>
man et</w>
mag ical</w>
macro ph
m ün
luc k</w>
long itude</w>
lo ans</w>
lo ading</w>
lin na
lep id
len ingrad</w>
le ased</w>
lar a</w>
l ul
kö nig
kell ner</w>
keep s</w>
kais er</w>
k tor</w>
k har
judic iary</w>
jud ged</w>
ju n</w>
jagu ar</w>
j al
inter vals</w>
inf ants</w>
in ner
in famous</w>
in dy</w>
im ported</w>
hum ph
hum bol
humbol dt</w>
ho v
ho hen
hered itary</w>
hay dn</w>
har git
hargit ay</w>
h ague</w>
gu ang
gon dw
gondw ana</w>
go te</w>
gen y</w>
gen s</w>
galac tic</w>
fü hrer</w>
for get</w>
for est
ff y</w>
feu dal</w>
exp ect</w>
execu tives</w>
eu g
erec tus</w>
er ina</w>
er in</w>
enti ties</w>
enligh ten
enhan ced</w>
enh ance</w>
ell um</w>
el lan
edit or
ed its</w>
e jac
dür er</w>
dial ogue</w>
des -
der ers</w>
demonstr ations</w>
deleg ation</w>
defen cem
de z</w>
de in
dam aging</w>
cy clic</w>
cy an
cu bs</w>
cr um
contain ers</w>
conserv atoire</w>
con vey</w>
con sent</w>
communi sts</w>
commander -in-chief</w>
comm ent</w>
co de
che e
char ing</w>
chan ge
ch ev
ch ak
certific ate</w>
cater pillar</w>
cat arina</w>
carni val</w>
car tri
bran ded</w>
bra ve</w>
boo ts</w>
bom ber</w>
batter ies</w>
az za</w>
aux ili
austral asia</w>
august ine</w>
attrac ting</w>
ap ex</w>
ap er</w>
an kle</w>
an ie</w>
amp ed</w>
all ing</w>
al tenburg</w>
al ogy</w>
ag ic</w>
advertis ements</w>
accom mod
ac anth
abun dance</w>
abbrevi ation</w>
a ils</w>
9 0s</w>
6 0,000</w>
5 4.
40 0,000</w>
2 7-
2 10</w>
178 3</w>
177 1</w>
&apos; é
ско е</w>
ов ич</w>
ˈ d
ñ o</w>
í o</w>
z an</w>
y ol
wal den</w>
viet nam
vice- president</w>
vi al</w>
vap or</w>
val ve</w>
ut ely</w>
urugu ay</w>
un expected</w>
umb rella</w>
uc n</w>
tis ed</w>
ti te</w>
ti mah</w>
th- largest</w>
tes ian</w>
ter race</w>
ten ders</w>
tar ant
tap ed</w>
tac tical</w>
ta ur
ta ine
syl t</w>
swi ft</w>
swe pt</w>
sval bard</w>
surve ys</w>
sur -
strugg les</w>
ste aling</w>
star čević</w>
son ian</w>
sic huan</w>
shut outs</w>
sh en
sh at
sen tim
second- highest</w>
se au</w>
sch rö
s ni
s lang</w>
roy als</w>
river side</w>
ris ks</w>
rep tile</w>
rel ics</w>
re x</w>
rain forests</w>
pul p</w>
propos als</w>
prophec y</w>
prof its</w>
pro visions</w>
pr ose</w>
pos eid
poseid on</w>
po dium</w>
play able</w>
plan ting</w>
pilgri ms</w>
ph i</w>
pent agon</w>
par a-
par a
pap y
pale olithic</w>
pac ked</w>
ok i</w>
od d
nutri tion</w>
non eth
noneth eless</w>
no bl
nicar agua</w>
new com
ne ill</w>
nathan iel</w>
n u</w>
n m</w>
mul tic
mon opol
mit ting</w>
mig rate</w>
michel angelo</w>
mic ror
mi y
me tic</w>
me ister</w>
mar x</w>
mar a</w>
m ing
lum ber</w>
liter acy</w>
labour ers</w>
l ens</w>
k rist
joseph ine</w>
ji ang</w>
j ak</w>
it unes</w>
iol aus</w>
incorpor ating</w>
incorpor ates</w>
in tr
in direct</w>
imp ly</w>
imag ination</w>
il o</w>
il and</w>
iber ia</w>
ibben bü
i ucn</w>
hun tsville</w>
hoo ver</w>
ho t
ho o</w>
her od</w>
hen dri
hear s</w>
head quartered</w>
he al
haz el</w>
h d</w>
gu ides</w>
gu ed</w>
gram me</w>
gr an</w>
glo ves</w>
gar rison</w>
gar dner</w>
foc using</w>
five- year</w>
fir m
financi ally</w>
fin ch</w>
fa a</w>
f ag
et to</w>
est one</w>
es pa
er at
ep it
ener getic</w>
endur ance</w>
emir ates</w>
el os</w>
e ocene</w>
e il
départ ement</w>
dur and</w>
du ous</w>
du g</w>
dram atically</w>
dig an</w>
di vis
di on</w>
devast ated</w>
deplo yed</w>
del vile</w>
deep -
decreas es</w>
de ar</w>
d ile</w>
croco dile</w>
cos worth</w>
cor relation</w>
contempor aries</w>
comp ose</w>
commission ers</w>
commis sions</w>
colom bian</w>
ci d
chro mat
cer eal</w>
c ements</w>
burg ess</w>
bur sts</w>
bub bles</w>
bu kit</w>
bow ser</w>
bo died</w>
black pool</w>
bl er</w>
bismar ck</w>
billi ard</w>
bill ington</w>
be aver</w>
be -
b- flat</w>
b ain</w>
australopithec us</w>
au t</w>
asyl um</w>
assess ment</w>
as so</w>
anticip ated</w>
anti bodies</w>
ant i</w>
announ cing</w>
and ro</w>
anchor age</w>
an al</w>
aerob ic</w>
adel e</w>
ad dresses</w>
aci onal</w>
3 2-
16 7</w>
é ph
á rez</w>
zz ard</w>
y rin
wa i</w>
vil lain</w>
ve iled</w>
v est</w>
ur ged</w>
u bi
tw itter</w>
turk ic</w>
treati es</w>
treas ures</w>
tr aps</w>
tor ia</w>
timpan i</w>
th ick
ter ra</w>
swam ps</w>
sub mission</w>
su tton</w>
stur t</w>
st ok
st air
spon sors</w>
special ised</w>
son ny</w>
sm ell</w>
ski pper</w>
sk ins</w>
six ty</w>
sin n</w>
shel ley</w>
sh ades</w>
sevent e
se is
scre aming</w>
scandin avian</w>
sass an
sal esman</w>
saf fir
saffir -
s í
s sel</w>
s ang
s aga</w>
ré né
rob bery</w>
ro le-
ris ed</w>
reve aling</w>
resembl ance</w>
requ ests</w>
refl ecting</w>
referen dum</w>
reci pe</w>
re sign</w>
re marked</w>
re make</w>
re ki</w>
rap e</w>
ram b
ramb had
quintan illa</w>
quar ks</w>
qu as
py réné
pu rely</w>
pseu don
protec ts</w>
promo tes</w>
prohi bi
pro ven
pro portions</w>
privil eg
pre ference</w>
pon t</w>
pol ls</w>
pl ata</w>
ph ones</w>
ph eas
persist ent</w>
par ody</w>
papy rus</w>
over looking</w>
os hima</w>
or um</w>
or ang
one- third</w>
on er</w>
nor thernmost</w>
nig el</w>
ng c</w>
ne z</w>
ne west</w>
nau til
mon ter
moder ately</w>
met t</w>
met abolic</w>
meow th</w>
me g</w>
mcn air</w>
mas cot</w>
mari insky</w>
man- made</w>
man g
mal ta</w>
m ood</w>
lou is-
long- time</w>
loc ks</w>
line up</w>
lin kin</w>
lawy ers</w>
lat via</w>
lab yrin
la us
ko ta</w>
kil marnock</w>
khal ifa</w>
kar thi
kar en</w>
k ie
k athle
kathle en</w>
k ata</w>
jor ge</w>
jo ke</w>
jew el
jan et</w>
jacqu eline</w>
is ha
ip c</w>
inter course</w>
infer ior</w>
in dy
illustr ation</w>
i ka</w>
hu t
homos exual</w>
hin d
hill ary</w>
her al
hein z</w>
he ed</w>
hawai ʻi</w>
hali fax</w>
h .
gre e
grass land</w>
gradi ent</w>
gil es</w>
gg an</w>
german- speaking</w>
german icus</w>
gen ius</w>
gaz ette</w>
gar c
ga ol</w>
g ye
fé in</w>
four teenth</w>
for es
flan k</w>
fl ame</w>
fit ting</w>
fin lay</w>
ff les</w>
expres sions</w>
expe di
ew s</w>
er in
er as</w>
equ als</w>
en forced</w>
en counters</w>
employe e</w>
emphas ized</w>
emer itus</w>
em pires</w>
elec t</w>
el an</w>
eccent ric</w>
dy nas
dul les</w>
du plic
du n</w>
du le</w>
du ggan</w>
dolph in</w>
dir t</w>
differ ing</w>
di gn
devi ation</w>
den dri
defencem an</w>
de uter
d ington</w>
d c-
cultiv ation</w>
cru de</w>
cou pled</w>
cott age</w>
con ifers</w>
comp rised</w>
christi e</w>
chan ces</w>
ch u</w>
cen sor
cali ber</w>
bur rowing</w>
boul der</w>
boli via</w>
bo g
bl adder</w>
bi bli
bern stein</w>
bel ts</w>
bar red</w>
bapti zed</w>
bail ey</w>
back stage</w>
b olog
b .a.</w>
as e
appr entice</w>
ap i</w>
anarch ist</w>
am -
allo ys</w>
al oa</w>
air planes</w>
ag gl
acqu ain
ac om</w>
9 9.
80 6</w>
5 7
20 th-century</w>
2 2-
178 6</w>
15 ,
13 8</w>
е р
york town</w>
y ya</w>
y uc
x .</w>
wit z</w>
white tip</w>
w ta</w>
w and
vi da</w>
ver n</w>
v 6</w>
un aware</w>
umb ent</w>
two- thirds</w>
tun ed</w>
tu des</w>
tru sts</w>
trib une</w>
ti on-
ti dae</w>
thé âtre</w>
thre ad</w>
theor ist</w>
tax ation</w>
suscep tible</w>
super inten
sugges tions</w>
success ors</w>
stat e
st in
spon ge
spi ke</w>
speci alists</w>
sol e
slo vak</w>
sli p</w>
short- beaked</w>
sett ling</w>
ser p
ser en
semiconduc tor</w>
secre ts</w>
sch aft</w>
scar ce</w>
saxe- coburg</w>
salv ation</w>
sal em</w>
saffir- simpson</w>
rus sians</w>
rol li</w>
roc kets</w>
rober tson</w>
ro s</w>
rich ter</w>
responsi bilities</w>
resi ded</w>
renov ated</w>
recogn izing</w>
rec oun
re- elected</w>
re yn
re covering</w>
re building</w>
re a</w>
r ying</w>
r ath</w>
promp ting</w>
prob able</w>
por a</w>
polic emen</w>
pig eon</w>
pic asso</w>
pen s
ov o</w>
os aka</w>
ord n
ordn ance</w>
op ic</w>
odon ts</w>
occup ying</w>
o dor
o .
nucleoti des</w>
now -
nor derney</w>
no tre</w>
no bles</w>
need le</w>
nam i
mu si
mo to</w>
mil ey</w>
messi ah</w>
ment -
mausol eum</w>
mar kings</w>
malay sian</w>
mag istr
mag enta</w>
m k</w>
loy alty</w>
lom bar
loc als</w>
liv ing
liter al</w>
lil le</w>
li a
lar va</w>
lan es</w>
lam ps</w>
l ene</w>
k ley</w>
ju lie</w>
join ts</w>
ja ke</w>
iti ba</w>
it t</w>
it ly</w>
is che</w>
ing le</w>
infl ation</w>
in cub
il ians</w>
ij ssel</w>
ig s</w>
identi fying</w>
ic onic</w>
ibbenbü ren</w>
i ors</w>
i od
i ko</w>
hel ene</w>
he aling</w>
harm ful</w>
har lem</w>
har d-
hang ed</w>
h tt
h ector</w>
h ash</w>
guit ars</w>
gras shop
go l</w>
glaci ers</w>
gh er
gaz a</w>
g ums</w>
g le
fu kushima</w>
fossil ized</w>
f us</w>
f og
expres sion
exce eded</w>
ex eter</w>
evel yn</w>
et es</w>
enlighten ment</w>
en am
empir ical</w>
ell is</w>
ec hin
e ste
dun dee</w>
du mp
din er</w>
dic t</w>
di ans</w>
di -
depic ts</w>
depen dency</w>
den a</w>
def ences</w>
de position</w>
dad dy</w>
da xter</w>
da im
d ment</w>
cuc koo</w>
crypto graphic</w>
cos imo</w>
conv inc
contrac tion</w>
cont acted</w>
confir m</w>
concentr ations</w>
concentr ate</w>
con way</w>
con flu
compl ained</w>
compar ing</w>
comp are</w>
comman ds</w>
col der</w>
clos es</w>
ci vile</w>
che er
char tres</w>
challeng er</w>
cha os</w>
ch ip
cer v
cap ability</w>
camer as</w>
c ure</w>
bul le
brit tany</w>
brigh ton</w>
boy friend</w>
bom b
blan k</w>
bl og
bel oved</w>
bear ded</w>
be ast</w>
barbi rolli</w>
bapti ste</w>
b ison</w>
auto biographical</w>
ati st</w>
at u
ass aul
as sign
argu es</w>
appalachi an</w>
antim ony</w>
ann on</w>
ang a</w>
anal ogy</w>
ana heim</w>
an onymous</w>
ambigu ous</w>
alter nat
alexand re</w>
aband on</w>
aar au</w>
a very</w>
a the</w>
a hon
6 4-
3. 7</w>
179 6</w>
13 9</w>
1 23</w>
1 200</w>
1 11</w>
ˈ s
án chez</w>
z in</w>
y the</w>
wor cester</w>
with draw
withdraw al</w>
wil bur</w>
whites nake</w>
wh er
wel ding</w>
wat ch
vic eroy</w>
vet tel</w>
ven tions</w>
upri ght</w>
up grade</w>
un named</w>
un finished</w>
un anim
types etting</w>
tw ater</w>
tun a</w>
tribun al</w>
treat ments</w>
tim ing</w>
th ian</w>
tetrap ods</w>
ter mites</w>
tem pl
tar a</w>
tap es</w>
t sar
symme tric</w>
sulph ur</w>
sul fur
su ed</w>
stra ße</w>
steel ers</w>
stan dish</w>
st ings</w>
spec ul
sp ell</w>
small -
slow ed</w>
simpl est</w>
sher iff</w>
sch e
sav age</w>
satur ated</w>
sanc tuary</w>
sam son</w>
salam ander</w>
sad dam</w>
s ánchez</w>
s ow
s b
rigi d</w>
ri gor
recogn izable</w>
re union</w>
re lax
re fri
refri ger
re ac
r ale
ques tioned</w>
quar tz</w>
q ing</w>
pro gramme</w>
pro dig
princ ely</w>
presby ter
pres su
pre sumed</w>
pp en</w>
pos it
pl ug
pit ches</w>
pic ks</w>
pi zza</w>
pi azza</w>
peri hel
pen ding</w>
pe ña</w>
pe er</w>
pash a</w>
pain ful</w>
p us
over come</w>
osper m</w>
opter yx</w>
on as</w>
oc o</w>
o edi
o don</w>
nurser y</w>
nikol a
nec ks</w>
ne sting</w>
nation al
na ils</w>
n emor
nemor ino</w>
mugh al</w>
mor phy</w>
mix es</w>
mer cia</w>
may be</w>
mat su
mar co</w>
man del
mag gie</w>
ma stur
lac ks</w>
ku ro
ke yan</w>
ke t
kaz akh
karthi keyan</w>
k ati
jum ps</w>
ju ana</w>
j k</w>
it aine</w>
is ch</w>
ir ri
iod ine</w>
intro duces</w>
inter change
integr ity</w>
instrument alist</w>
inst all</w>
in habit</w>
i ma
histor ies</w>
himal ayas</w>
highest- grossing</w>
hebri des</w>
hand ic
gu ern
grad ual</w>
gra z</w>
gib bon</w>
gh ana</w>
gener als</w>
gar ry</w>
gar n
ga ul
g ear
franç o
frag ment</w>
foli age</w>
fol ey</w>
film maker</w>
fig aro</w>
fam ed</w>
fab ric
f ati
ex otic</w>
ev na</w>
eth ical</w>
es ville</w>
es que</w>
es hip</w>
es cal
en ary</w>
emplo y</w>
em in</w>
el vis</w>
el ius</w>
el ap
ecoregi ons</w>
eclip se</w>
ec tions</w>
e us
e h</w>
dw elling</w>
dr unk</w>
discus sions</w>
dis rup
detec tor</w>
denti st</w>
dele tion</w>
deci duous</w>
deb ated</w>
de x
de vised</w>
de f</w>
dar t
d mit
d illon</w>
d ash
cur tain</w>
cuc um
cru el</w>
cr ush</w>
con ve
compos ing</w>
comp li
comp ass</w>
commit tees</w>
com b</w>
col on</w>
coff in</w>
cla ve</w>
cl us</w>
ci der</w>
chal k</w>
ch ir
ch ab
cat ch
cas ual</w>
carb ocation</w>
can nes</w>
can ary</w>
cam el</w>
bur rows</w>
brow ne</w>
brew ery</w>
boy cott</w>
bombar dment</w>
blue grass</w>
blu es
bl own</w>
bi osphere</w>
bever age</w>
best-of- seven</w>
behavi oral</w>
beat rice</w>
bas ins</w>
b p</w>
b ates</w>
avo iding</w>
att achment</w>
artem is</w>
arch es</w>
appe als</w>
apost olic</w>
anto ine</w>
antenn ae</w>
ang ola</w>
andre as</w>
and ra</w>
an ac
am ine</w>
alcohol ic</w>
alban ian</w>
al der</w>
ak in</w>
air borne</w>
ah n</w>
acqu ire</w>
acc ess
ac ro
abdom en</w>
5 6
3. 6</w>
17 50</w>
16 80</w>
м и
е л
á r
zz y</w>
z ol
z io</w>
ym ers</w>
y man</w>
wor ried</w>
won ders</w>
wil lem</w>
wed nes
we in
war ran
wal k
w ur
vul can</w>
victor ious</w>
v or</w>
v ich</w>
ur l</w>
under world</w>
under going</w>
un common</w>
tu dor</w>
tre -
transl ator</w>
tra iner</w>
tr un
tiff any</w>
tic o</w>
thir teenth</w>
ten ing</w>
tar s</w>
ta ji
ta -
t ev
t ata</w>
syn dicated</w>
suppl ement</w>
super stars</w>
super man</w>
super continent</w>
strugg led</w>
sti l
sti ff</w>
stead ily</w>
st ocks</w>
sport sc
spon tan
soci ally</w>
snow y</w>
si ri
si r
sh ed
semi- finals</w>
sem en</w>
se ab
scu tes</w>
scor er</w>
sal inity</w>
sa p</w>
s later</w>
s lan
s ink</w>
run g</w>
roy alty</w>
role- playing</w>
ring ed</w>
reserv oir</w>
ren oir</w>
reg is</w>
re- election</w>
ras putin</w>
rale igh</w>
rafa el</w>
r t</w>
r amp
public ity</w>
prosper ity</w>
propri etary</w>
pro jected</w>
pres sing</w>
pre dominant</w>
praetor ian</w>
pompe ii</w>
pol ymers</w>
pir ate</w>
pilgri m</w>
pen n</w>
pen cil</w>
pedestri an</w>
pec uli
paul ine</w>
patric ia</w>
past e</w>
par en
par al
p ray</w>
p aths</w>
p ant
ox ley</w>
out skirts</w>
ou ting</w>
ou se</w>
ornam ental</w>
or ship</w>
or acle</w>
opé ra</w>
op hi
och on
observ able</w>
ob servers</w>
ob o</w>
o tes</w>
northum bria</w>
nf c</w>
nati ves</w>
na than</w>
n in</w>
n d
n ard</w>
mu th</w>
mo v</w>
micror aptor</w>
micro organisms</w>
mer ge</w>
media wiki</w>
med ina</w>
me try</w>
may er</w>
man ning</w>
loc ate</w>
loc alities</w>
linna eus</w>
li l</w>
law suit</w>
laur ent</w>
lan tern</w>
lam arc
laf ay
lafay ette</w>
l u</w>
l ol
khy ber</w>
key boards</w>
ker ry</w>
kal ā
k em
k c
jam ie</w>
j et
initi ation</w>
ine e</w>
indy car</w>
incar nation</w>
inc umbent</w>
imp lied</w>
ii hf</w>
ig a</w>
hy n
horiz on</w>
hor ses
hor ri
hor mon
holid ays</w>
hit ch
hem or
han del</w>
half- brother</w>
ha k
h t</w>
go gh</w>
glac ier</w>
gh o
gener al-
ge ophys
ge er</w>
g ins</w>
g ills</w>
fundam ent
fr atern
for elim
explos ives</w>
ex hau
ev ic
est a</w>
escor t</w>
es ther</w>
epi st
ell an</w>
ec ho
e po
e gre
e dison</w>
dr on</w>
dom itian</w>
do b
dis placement</w>
differ ently</w>
di m
di gest</w>
deem ster</w>
de w</w>
de feats</w>
de dication</w>
daw son</w>
d arm
d ams</w>
cos mic</w>
coordin ate</w>
conson ants</w>
confu ci
con y</w>
comm it</w>
col er
co el
co ar
cl ergy</w>
chondro itin</w>
cher no
che on</w>
character ised</w>
cham pag
challeng ing</w>
ch uk
ch iron</w>
ch io</w>
[...]
