<PAD>
<UNK>
<S>
</S>
the
,
.
of
in
and
a
to
&apos;
is
was
)
(
on
as
for
by
s
with
he
an
that
it
at
from
``
his
are
j@@
or
which
were
k@@
be
first
:
also
s@@
one
this
d@@
has
n@@
l@@
m@@
b@@
w@@
its
have
had
h@@
after
they
c@@
not
their
t@@
her
but
p@@
;
new
au@@
she
other
two
who
ember
when
amer@@
y@@
g@@
i
many
most
been
known
r@@
al@@
land
man
ro@@
-
world
into
used
ap@@
an@@
can
all
time
f@@
born
ch@@
ican
there
during
more
in@@
may
some
city
or@@
\
only
called
br@@
made
o
about
en@@
/
such
years
c
became
united
ar@@
over
v@@
states
uary
between
ger@@
-@@
ish
than
mar@@
later
i@@
z@@
part
ia
where
son
us
up
three
u@@
st@@
is@@
year
1
gl@@
then
these
jo@@
state
national
him
name
would
while
ly
people
re@@
str@@
south
k
second
car@@
war
out
ed@@
2
de
es
un@@
north
area
th@@
it@@
y
music
including
oc@@
bri@@
am@@
t
university
eu@@
before
m
tish
well
el@@
series
both
ju@@
fran@@
.@@
le@@
n
a@@
d
e@@
until
no
at@@
ab@@
ept@@
ber@@
season
won
ii
number
day
sp@@
through
found
family
named
early
released
en
am
under
since
school
os@@
use
because
album
team
each
being
species
however
group
several
l
dec@@
four
them
une
ch
often
county
large
king
work
system
er@@
tober
e
x@@
will
so
like
small
same
gust
par@@
3
ton
r
any
es@@
around
on@@
west
best
can@@
nov@@
ad@@
hn
fe@@
played
ex@@
river
march
sh@@
film
now
major
if
began
al
century
ou@@
er
b
mon@@
v
as@@
man@@
ge@@
band
against
age
very
af@@
old
eng@@
4
ril
game
town
ol@@
died
ic
illi@@
house
o@@
sc@@
long
pe@@
show
ian
games
high
water
main
end
government
%
el
ond@@
fren@@
east
li@@
alian
center
les
international
life
km
ry
ir@@
10
ica
ra@@
ak@@
ot@@
char@@
alia
s.
million
form
different
6
p
ha@@
`
following
island
for@@
way
did
although
song
back
place
do
include
great
per@@
em@@
ce
tropical
ric@@
di@@
et
u
5
ne@@
bar@@
based
general
president
w
°
sea
said
2007
av@@
be@@
took
league
near
ti@@
death
si@@
could
another
line
last
2010
har@@
set
dis@@
member
2008
ag@@
five
book
home
art
largest
television
usually
moved
h
no@@
father
along
common
2006
much
ma@@
air
started
held
dia
x
col@@
single
gre@@
ina
left
ers
her@@
20
make
nor@@
members
down
mp@@
movie
history
central
f
park
im@@
important
championship
ur@@
award
30
8
cl@@
bert
12
order
own
7
ing
se@@
still
storm
sw@@
party
country
army
children
and@@
g
modern
ley
given
led
times
third
2009
we
within
even
2005
15
company
formed
ac@@
ash@@
located
ul@@
ph@@
royal
original
district
sch@@
built
match
et@@
created
oly@@
11
rock
field
ans
men
us@@
white
using
public
ar
region
example
period
9
published
ine
ri@@
my
division
ain
lan@@
college
3@@
former
western
church
point
you
red
$
late
become
top
25
vi@@
went
hurricane
16
ice
de@@
2011
sometimes
written
body
nia
ford
ed
due
play
live
off
six
ate
those
young
2@@
received
14
title
what
next
term
power
bo@@
side
football
op@@
bel@@
black
able
ney
just
women
é@@
fl@@
win
tic
ada
ut@@
rope
cor@@
language
head
ard
days
18
ill@@
player
he@@
ames
ec@@
came
um
&apos;@@
cali@@
ay@@
few
gu@@
&amp;
local
le
ke
popular
among
produced
key
role
southern
kingdom
13
less
service
ese
northern
ic@@
me
lin
mic@@
wrote
population
miles
included
record
ore
according
om@@
mo@@
e-@@
la
ver@@
ang@@
developed
mother
married
17
az@@
=
famous
ris@@
os
co@@
though
bl@@
similar
ts
final
der@@
hen@@
light
con@@
21
pl@@
together
bridge
2004
capital
na
z
tr@@
wal@@
id
bu@@
law
parts
gr@@
24
pr@@
again
star
ation
mor@@
4@@
ob@@
la@@
ter
station
short
ington
making
ev@@
works
building
countries
club
ago
wife
ey
total
2003
worked
grand
career
force
areas
see
hard
2000
battle
il@@
founded
ek
event
ie
islands
phil@@
19
bi@@
100
me@@
22
23
served
every
io
recorded
without
awards
research
union
earth
fre@@
eastern
ov@@
iz@@
war@@
board
ussian
hall
considered
qu@@
seven
military
ich@@
28
version
ena
includes
eg@@
su@@
go
today
ad
ten
per
site
director
type
ist
26
27
re
orge
human
professional
having
stri@@
we@@
ens
ft
video
minister
square
tian
right
province
act
coast
mer@@
various
take
living
republic
established
lost
others
min@@
joined
ta
2001
anese
15@@
hockey
all@@
summer
ant@@
free
non-@@
od@@
forces
ah@@
sl@@
word
hel@@
office
pol@@
mi
good
airport
ind@@
enn@@
ell@@
records
actor
science
id@@
continued
once
7@@
rica
flor@@
development
character
road
st
color
bal@@
originally
gi@@
sal@@
race
political
little
help
described
open
il
natural
surface
special
council
daughter
ler
2012
cam@@
29
16@@
the@@
6@@
returned
bur@@
anish
person
story
night
does
ste@@
pi@@
ok@@
seen
2002
tur@@
gave
co
level
across
ward
singer
ana
cup
study
ah
bra@@
ker
9@@
energy
sa@@
lake
prize
queen
official
street
points
announced
range
wil@@
control
how
academy
ania
pri@@
museum
ben@@
almost
inter@@
position
gar@@
mat@@
ant
ma
ner
ovi@@
songs
away
green
ent@@
ca@@
appeared
ated
emperor
groups
result
tor@@
fer@@
ales
opened
ics
stage
mal@@
low
dy
taken
san
cath@@
never
association
ong
5@@
current
society
8@@
ane
lin@@
means
up@@
ham
food
ussi@@
thought
ter@@
least
brother
court
50
ean
love
aul
fire
discovered
stone
tour
ico
orchestra
gh@@
lived
soon
style
strong
atin
ates
social
ach@@
caused
ent
men@@
size
months
dr@@
either
ancient
must
throughout
ai@@
signed
te@@
eight
program
ther@@
empire
get
books
support
radio
é
end@@
working
!
asia
awarded
production
stars
animals
ida
rist@@
child
sm@@
pal@@
ea
present
1999
run
list
sent
generally
performed
sy@@
lead
playing
ama
ann@@
elected
der
mostly
length
reached
plant
fish
ip@@
ick
plants
design
ever
attack
cal@@
car
should
kar@@
pac@@
chemical
bay
changed
space
ring
victor@@
se
sold
uk
case
ur
mi@@
middle
ud@@
organization
half
lands
mel@@
players
above
blue
2013
studio
teams
village
china
...
istan
1998
lu@@
fourth
sub@@
31
currently
ony
instead
civil
himself
change
wik@@
ham@@
federal
movement
pro@@
40
ams
cells
eventually
tri@@
especially
upon
over@@
big
wood
ating
commonly
traditional
to@@
followed
mark
ism
ground
los
actress
ocean
ati@@
police
ub@@
uses
ies
1994
events
chin@@
met
ital@@
dian
reg@@
eter
ons
lower
medal
forms
a-@@
close
?
omas
our
referred
addition
formula
designed
governor
features
thus
ty
prime
reported
killed
del@@
ser@@
further
systems
aw@@
port
related
studied
theory
t-@@
da
round
duke
ros@@
tin
hael
artist
era
female
tim@@
information
names
independent
minor
prince
ik@@
shows
bro@@
port@@
process
ines
1997
business
don@@
yp@@
ations
rather
14@@
r.
chief
ze@@
cul@@
got
ren@@
education
winter
mass
chic@@
release
pan@@
leader
community
mus@@
sha@@
ific
success
est
highest
full
dar@@
outside
feet
te
po@@
episode
bor@@
sports
birds
front
oll@@
1995
est@@
ted
types
adian
performance
arts
institute
bank
cities
saw
hit
opera
sk@@
hu@@
&apos;t
gen@@
ig@@
gold
put
mary
replaced
champion
new@@
introduced
wrestling
remained
wide
ath@@
debut
beginning
far
rights
novel
um@@
ep@@
bel
ds
below
fi@@
og@@
sun@@
leading
department
writer
ai
out@@
better
lo@@
smaller
den@@
depression
larger
ous
committee
ended
uc@@
degree
s-@@
itself
1996
ire@@
o-@@
vir@@
hill
average
seat
sun
cre@@
meaning
gal@@
hot
territory
valley
ra
lines
added
kel@@
#
railway
rob@@
base
rich
successful
students
ass@@
track
ru@@
mad@@
languages
available
ones
start
an-@@
structure
mil@@
ing@@
inc@@
hun@@
project
ell
ow@@
mos@@
possible
th
upper
hl
hours
jack@@
ship
bos@@
may@@
woman
don
rest
model
god
ay
im
election
1992
honor
uk@@
week
jew@@
professor
10@@
appointed
olic
ran@@
metal
kh@@
ve
ence
ting
ris
defeated
ö@@
allowed
y-@@
native
gin@@
ka
decided
cell
nine
mac@@
pre@@
come
org@@
return
hom@@
standard
genus
numbers
utch
network
find
spent
angel@@
class
certain
sam@@
win@@
studies
remains
als
page
musical
ne
1990
words
material
festival
brought
brown
too
writing
divided
jer@@
q@@
parliament
despite
200
chess
saint
medical
mainly
believed
tre@@
rank
parents
ack@@
ban@@
stan@@
metres
source
cross
80
shown
racing
animal
tree
dance
give
ipe@@
mis@@
fin@@
officially
mu@@
changes
ven@@
money
re-@@
training
approximately
behind
passed
ich
1993
move
ac
contains
magazine
ib@@
ef@@
ist@@
particularly
real
finished
cy@@
active
services
author
med@@
ings
ali@@
navy
places
super@@
cur@@
placed
forest
heavy
iv@@
hol@@
producer
ara
directed
buildings
significant
comes
hi@@
recognized
chart
recording
sister
secretary
pope
date
computer
aircraft
ox@@
17@@
cm
12@@
male
competition
attended
construction
becoming
ms
hy@@
ise
whose
cr@@
nearly
tex@@
ol
sound
1989
air@@
hand
pressure
higher
mountain
master
al-@@
bas@@
lord
enna
tw@@
wind
scale
doctor
adel@@
finally
castle
ion
let
ois
oldest
1991
ulf
under@@
ling
action
section
heart
smith
host
chemistry
super
idea
ken@@
industry
lam@@
ins
roman@@
ca
library
goals
mur@@
mountains
dark
channel
quickly
ear@@
wall
birth
ab
winning
feature
probably
1988
damage
always
private
individual
sel@@
entire
nations
+
ino
makes
ander
completed
ge
primary
du@@
1980
typically
1984
future
ni@@
west@@
val@@
separate
composer
associated
blood
widely
wh@@
formation
eph
albums
die
previous
ram@@
terms
ery
data
13@@
ut
enough
ash
involved
ite
bs
go@@
ale
ance
regular
tournament
trade
characters
hal@@
labor
ani
roc@@
complex
friends
ary
ran
ids
cause
luc@@
culture
ble
fifth
ona
status
nature
oil
paper
takes
19th
ug@@
rule
amp@@
piano
helped
longer
earlier
tor
ˈ@@
media
nation
ene
opening
taking
buried
defense
bon@@
winds
er-@@
60
eph@@
greater
′
article
au
unit
stadium
composed
entered
70
berg
collection
ir
whom
here
ston
sar@@
fri@@
complete
ang
featured
towards
wealth
van
units
ke@@
recent
particular
mm
course
tic@@
boy
fall
done
evidence
entertainment
20th
simply
des@@
ha
mass@@
border
1986
commercial
ipp@@
1979
fr@@
raw
room
yan
kn@@
scientific
kilometres
flight
oo@@
ps
fa@@
bird
onto
ade
camp
art@@
rh@@
ability
du
fame
palace
regions
plays
conf@@
foreign
inside
theater
health
films
aland
owned
distance
km2
face
ga
bre@@
ak
ens@@
conditions
gust@@
ast@@
technology
cap@@
covered
1@@
bill
grew
que@@
haw@@
weeks
ya
electric
cos@@
already
schools
location
arch@@
artists
dead
iron
forced
older
hor@@
mph
far@@
news
elements
sell
0.@@
post
moving
ile
yellow
friend
1987
ets
produce
deep
un
turned
den
ini
amount
ors
troops
function
wanted
golden
numerous
sing@@
economic
worldwide
ota
bul@@
dan@@
sylv@@
1969
specific
previously
ata
closed
ory
beach
off@@
destroyed
comedy
leaves
common@@
husband
bus
levels
anne
interest
j
gri@@
temperature
1981
census
singles
except
cover
turn
co-@@
running
ano
gas
leaving
ball
annual
category
might
fort
1976
religious
ue
disease
1975
des
estimated
abeth
chester
1967
asian
lie
ix
peace
whole
baseball
solar
1983
minutes
effect
500
variety
appearance
ver
appears
allow
speed
asked
ator
guitar
ri
ly@@
true
management
cathedral
pp@@
lem@@
ta@@
1972
sons
ages
sn@@
appear
pun@@
consists
told
stories
raised
yn@@
ways
foundation
marriage
1974
physical
worth
star@@
cent@@
cases
engine
garden
say
trees
starting
rey
fiction
fields
themselves
sol@@
von
1982
count
erson
1945
marine
going
discovery
officer
declared
cast
cel@@
zer@@
rec@@
contract
silver
ks
ess@@
rules
ci@@
gian
note
cro@@
waters
copies
reaction
eggs
humans
figure
mid-@@
ness
stated
simple
lee
ish@@
ists
pop
provided
retired
animated
ster
jan
burg
subject
majority
pen@@
limited
ber
ger
gra@@
á@@
sur@@
stop
cold
nuclear
operation
examples
past
campaign
text
conductor
memorial
test
leave
d-@@
ill
create
ba
towns
cas@@
direct
problems
on-@@
edition
pat@@
provide
lives
independence
itt@@
eye
table
a.
1968
arms
4-@@
dor@@
35
via
mag@@
anc@@
ae
ette
di
influence
je@@
1960s
0
personal
1985
1944
arth@@
sex
houses
circuit
ech@@
initially
overall
row
sources
issued
hospital
seasons
peninsula
1973
els
voice
executive
need
ot
1949
earned
lady
ium
directly
wing
mount
acting
cultural
soldiers
nominated
relationship
folk
software
greatest
3-@@
girl
ships
ison
presented
says
ville
gene
code
rose
ald
settlement
naval
reach
san@@
ants
90
historical
ky
1971
your
sax@@
colors
movies
in-@@
del
ty@@
1970
5-@@
showed
flat
det@@
younger
bun@@
tro@@
concert
required
boo@@
ray
route
staff
things
box
marie
earliest
ari@@
adi@@
sen
yr@@
engineering
brand
pieces
historic
spring
month
congress
lar@@
families
rate
ace
bud@@
ili@@
bourne
listed
senior
primarily
practice
1977
junior
sport
ith
weather
ern@@
nearby
brothers
increased
cub@@
supported
tail
fact
tried
dem@@
articles
shot
pet@@
ny
assembly
constitution
normal
1965
cut
renamed
letter
giving
moon
conference
penn@@
view
defined
blues
sa
championships
300
ized
student
highly
ov
market
fully
double
so@@
democratic
cancer
therefore
fossil
organized
hum@@
sky
ott
bad
dry
objects
sign
75
kind
tar@@
hold
din@@
runs
method
races
1961
responsible
shortly
effects
eyes
1st
piece
land@@
symphony
branch
fu@@
bab@@
ga@@
jack
molecular
generation
districts
evolution
basic
edge
ō@@
rain
machine
1941
notable
remaining
ard@@
value
45
ity
treaty
all-@@
domin@@
att@@
alone
jud@@
relatively
cyclone
classical
lor@@
regional
foot
eth@@
accepted
1978
sides
morning
inson
ff@@
rivers
imperial
press
ordered
ann
medicine
anti-@@
ali
1948
heritage
security
adult
southeast
administration
planet
captain
″
burgh
weight
activity
1942
aged
mouth
heat
ee
label
1947
princess
ends
1980s
noted
ala
companies
ott@@
origin
combined
musician
fight
wor@@
ns
winner
sian
powerful
galaxy
call
tells
che@@
reign
plan
fossils
pool
ü@@
ont@@
northwest
metropolitan
recently
bai@@
stand
hotel
tower
actually
ick@@
carbon
look
ally
stations
wat@@
whether
attempt
refers
manager
jersey
gers
motion
bell
mid@@
results
2-@@
prey
physics
ez@@
cape
proposed
sciences
achus@@
cer@@
etts
met@@
1940
likely
relative
episodes
unlike
direction
1966
ment
needed
gor@@
pu@@
iel
oy@@
teacher
kept
adopted
organ
hard@@
cow
senate
growing
authority
oul@@
prior
revolution
mann
growth
res@@
ess
1963
1952
lad@@
solo
keep
train
represented
newspaper
attacks
behavior
activities
hosted
satur@@
wins
command
report
drive
umbia
ado
confirmed
removed
object
ians
rise
applied
indi@@
ron@@
leg@@
product
multiple
drama
com@@
search
administrative
transport
int@@
1960
organisms
1-@@
mas
green@@
billion
completely
anti@@
legal
shape
wings
graduated
user
deal
driver
i-@@
crown
pre-@@
wild
1.@@
dynasty
girls
ius
bran@@
anna
selected
access
tions
powers
fred
claimed
users
job
gary
1964
conducted
1970s
environment
ura
ro
my@@
politician
acid
sin@@
contain
eing
8-@@
competed
property
insects
sim@@
triple
wall@@
occurred
self-@@
tu@@
sil@@
dates
pot@@
principal
1946
symbol
sites
ys
flower
ology
split
goes
lot
si
write
fell
picture
horse
ww@@
bad@@
males
failed
painting
centuries
black@@
iter
rural
orange
break
res
web
flag
tis
programs
serving
difficult
twice
gam@@
rocks
heav@@
grow
les@@
policy
provinces
1958
prison
ola
zone
por@@
victory
develop
sexual
water@@
tit@@
eff@@
exist
literature
gained
analysis
gun
southwest
dou@@
ario
provides
continue
1959
poly@@
mean
fur@@
allied
anta
pictures
ner@@
ide
mul@@
idae
increase
clar@@
oph@@
formerly
1936
allows
vic@@
tom
equal
play@@
commission
lies
1955
poet
stra@@
methods
charge
bir@@
northeast
largely
surrounding
sul@@
frequently
bear
landfall
hon@@
universe
om
fellow
pur@@
agreement
mun@@
fighting
bot@@
cars
coach
lev@@
1950
bodies
legs
join
hi
build
poor
flowers
materials
1957
k-@@
gives
33
remain
core
ria
plane
coming
bar
armed
holy
mond
pass
highway
experience
sixth
sor@@
additional
teeth
chosen
scene
suggested
climate
ach
law@@
writers
icans
fal@@
nic@@
pole
ym@@
0-@@
sense
roles
connected
unknown
invasion
tive
ceremony
arrived
fruit
2.@@
cycle
1956
1962
strength
usa
brain
twelve
lor
uel
tag
travel
loss
internet
youth
agreed
draft
ster@@
biology
ung
functions
ish-@@
ame
swit@@
dub@@
federation
cop@@
captured
prominent
carried
vel@@
read
cat@@
occur
females
atomic
mir@@
1939
vol@@
whit@@
launched
dog
acts
refer
issue
ats
aria
ion@@
dam
taught
influenced
fox
fil@@
ades
sburg
itz@@
care
theme
dev@@
steel
hour
sets
content
rap@@
giant
1990s
cz@@
alternative
yet
convention
atre
gil@@
spread
occupied
ker@@
corps
follows
magnetic
clear
yl@@
financial
parish
derived
bass
65
biggest
response
ier
32
concept
9-@@
ending
performing
creation
immediately
nes@@
slightly
maximum
lo
−
bat@@
e.g.
wood@@
guest
colony
64
meters
gent@@
camp@@
closely
1918
vision
shark
cons@@
1943
elle
ical
bands
lat@@
vi
ela
slow
matter
fought
daily
infantry
lé@@
eter@@
straight
trophy
bought
starred
urban
inf@@
shire
peak
mayor
pos@@
ora
osaurus
ties
causes
genetic
azi
yard
secret
seeds
subsequently
400
oz@@
inspired
compared
han@@
ato
industrial
app@@
kin
eat
resulting
kill
ideas
bol@@
ators
rare
tam@@
anth@@
ansas
en-@@
39
ballet
saying
managed
know
gray
serve
hand@@
coastal
ari
boys
ey@@
meeting
chairman
speaking
paintings
designated
broke
editor
glass
roughly
yland
inner
ys@@
letters
ve@@
ful@@
purpose
anus
broad@@
ā@@
aska
cost
electoral
standing
think
esh
95
matches
hio
dre@@
containing
ustin
territories
calendar
bury
onic
mathematics
mer
volume
nar@@
engines
borders
normally
gun@@
agency
forming
angle
speech
mammals
attacked
dies
mixed
windows
ves
ew@@
operations
yo
easily
occurs
isa
20@@
48
36
ose
7-@@
causing
how@@
inches
reason
issi@@
creek
guitarist
basis
titled
ranked
pair
37
tan@@
ize
diameter
bishop
connec@@
properties
1953
commander
visited
tion
ank@@
ugu@@
traditionally
rail
founder
42
jazz
actions
problem
tok@@
ically
positive
shared
apol@@
individuals
link
phia
attention
alliance
wel@@
observed
perform
two-@@
1919
sing
mont
cra@@
meet
republican
tracks
laws
constructed
continental
fine
block
typical
entry
skin
planned
seventh
0@@
wa
extended
holds
basketball
operating
00
succeeded
bet@@
plans
stopped
suffered
element
harv@@
ten@@
instrument
electronic
goal
ites
tradition
miss@@
knowledge
-like
ilton
til@@
enter
wave
distribution
do@@
cy
try
permanent
organizations
arctic
tom@@
hands
corporation
unique
defeat
jun@@
rot@@
ball@@
1954
if@@
digital
issues
150
temple
organic
mans
intend@@
coll@@
molecules
ark
sain@@
assistant
latter
6-@@
rick
abbey
broadcast
possibly
image
traveled
wars
arm@@
hills
falls
va
vote
guard
1950s
visit
fast
roads
beat
illy
reduced
ses
compounds
borough
thousands
mission
fel@@
yweight
cemetery
versions
ars
aqu@@
comm@@
1929
omb@@
34
radiation
ä@@
igan
ei
covers
aj@@
architecture
wrest@@
products
allowing
ella
ez
onia
ding
orbit
choice
trans@@
18th
religion
sand@@
floor
athletes
rac@@
begins
singing
bottom
ett
by@@
critics
marked
q
eur@@
pic@@
regarded
justice
titles
reaching
sus@@
oth@@
score
46
ole
believe
ren
iter@@
extensive
bed
describe
participated
54
tal@@
1920
awa
mon
kings
uss
49
extreme
quite
identified
ruled
ken
bit
gall@@
screen
ridge
producing
1938
gate
distinguished
mile
roll
affairs
1951
lieutenant
87
fans
sharp
global
rich@@
outer
formal
eo
presence
ily
ywood
credited
contact
safety
consisting
positions
share
comic
potential
dedicated
perhaps
advanced
ry@@
1933
selection
classic
lack
ail@@
talk
ero
secondary
liberal
claim
1937
refused
representatives
scientists
reference
selling
expected
lav@@
painter
reserve
respectively
comp@@
hundred
arab@@
rison
figures
mas@@
hind@@
iana
pier@@
18@@
structures
eb@@
que
workers
resulted
kins
flying
net
ami
44
apple
champions
tra@@
critical
compete
ó@@
cu@@
odd
ock
chain
becomes
color@@
actors
assic
í@@
ff
flow
ents
opposite
teaching
economy
offered
3rd
something
separated
ern
eth
clin@@
ave
xon
1930
1917
ative
officers
ked
gard@@
store
divisions
mes@@
intended
map
tak@@
baby
she@@
rub@@
desert
seconds
1935
youngest
non@@
ow
41
distinct
1925
settled
ely
yn
income
merged
wan
protection
fly
decision
ech
back@@
asteroid
household
models
eon
ba@@
contest
bush
instruments
conflict
hem@@
lakes
temperatures
newly
online
follow
dal@@
initial
affected
nell
bean
assigned
dale
bacteria
elections
ello
spoken
tribes
eva
ita
max
bou@@
equivalent
stay
1,@@
visual
fuel
wa@@
pages
dropped
ying
basin
quality
rem@@
sequence
controlled
и@@
1928
solid
ski
underground
ep
ering
internal
1924
es-@@
banks
vis@@
account
66
copy
counties
three-@@
granted
website
want
hair
scored
gn@@
fleet
meant
avis
well-known
circle
ost
cri@@
bronze
depending
3,@@
stock
wis@@
cont@@
ther
owner
gang
grade
portion
bang@@
contemporary
ón
1934
alongside
bour@@
display
cru@@
han
dating
expanded
trains
evolved
parks
ze
kg
developing
1923
boat
ack
aut@@
ads
gets
38
studios
communities
traffic
freedom
string
bone
spot
3.@@
officials
supporting
broken
sum@@
but@@
ranean
images
rop@@
cab@@
hug@@
ain@@
amb@@
adults
warning
43
und@@
tel@@
kin@@
parties
fictional
filled
form@@
shell
revealed
trust
ece
favorite
visible
approach
istic
compound
harmonic
laboratory
longest
massive
farm
passengers
etc
rav@@
reading
weapons
combination
arabic
rapidly
née
55
tab@@
mate
weakened
berger
iss
campus
cle@@
learned
citizens
nig@@
ised
ille
shaped
apart
ded
operated
arm
receive
headquarters
lic@@
serious
ik
loc@@
presidential
reasons
²
ek@@
wear
notably
importance
ky@@
layer
bring
ake
memory
lim@@
1927
aired
paid
motor
height
projects
reactions
novels
medieval
coordinates
ho@@
capacity
watch
punk
heads
aven@@
slowly
year-old
85
crew
concerts
environmental
nas@@
serves
brian
52
subsequent
gold@@
2nd
prevent
rian
admir@@
crime
bow@@
53
candidate
5th
gab@@
ki
question
premier
bones
step
philosophy
card
clay
skull
16th
journal
urt
sab@@
bon
1916
ever@@
factory
ahead
joint
parallel
economics
sq
impact
2014
conservation
couple
explorer
ig
5,000
sales
47
nu@@
survived
oman
uce
marks
classified
enti@@
fashion
e.
́
radi@@
mol@@
top@@
sen@@
illa
musicians
lay
lind@@
acy
electron
chamber
exchange
adapted
acqu@@
why
avoid
ered
ross
1900
patrick
looking
universal
eder@@
composition
dur@@
percent
gro@@
1922
ager
painted
starring
laid
ement
anda
escape
unusual
mobile
leaders
founding
beyond
facilities
succession
ith@@
incorporated
forests
head@@
och@@
wind@@
risk
lab@@
feed
attempted
mentioned
passenger
lane
extremely
applications
enemy
surrounded
heard
sugar
arg@@
claims
pin@@
walk
600
volcanic
enc@@
negative
stones
churches
aur@@
red@@
ned
pay
gallery
aries
nam
residents
maj@@
rel@@
historically
micros@@
lion
high-@@
grand@@
waves
boundary
ux
huge
plat@@
dinosaurs
ante
mut@@
stages
tall
harbor
ja
7.@@
eller
ase
classes
determined
ning
dep@@
deputy
mine
actual
soil
represent
values
convection
featuring
periods
zoo
ɪ@@
processes
difference
ː@@
performances
alism
uni@@
sia
evening
arc@@
ls
acres
vo@@
cabinet
cloud
municipality
extinct
resistance
walls
61
ric
message
ij@@
son@@
wards
literary
coal
invited
4th
acquired
esia
ization
passing
ocene
songwriter
86
ex
organ@@
sand
existed
review
occupation
one-@@
intelligence
hole
trial
sh
felt
stayed
universities
pap@@
arrested
holding
eleven
cher
evolutionary
1911
losing
gardens
engineer
genera
od
essee
pres@@
thr@@
oxygen
eighth
severe
mainland
esp@@
56
recognition
brun@@
zero
cob@@
reports
colored
aud@@
mill
i.e.
oon
atoms
technical
ans@@
trying
opher
pom@@
horn
diet
ilian
twenty
lyrics
17th
sem@@
pear@@
bond
orders
ko
anders
oft
dom@@
municipal
treatment
stands
wol@@
log@@
not@@
snow
of@@
1912
losses
jur@@
ō
nothing
fif@@
occasionally
minster
tem@@
copper
squ@@
surviving
opposition
ula
galaxies
25@@
broad
warm
cricket
inv@@
post-@@
mental
ordan
81
em
emergency
grown
someone
entirely
59
ome
stal@@
transferred
uncle
aul@@
tha
begin
constant
authorities
save
politics
sharks
throne
bull
pon@@
4,@@
equipment
hunting
tin@@
damaged
soft
describes
jac@@
achieved
aga
homes
technique
mod@@
sten
reau
legend
ais@@
oh@@
fan
democr@@
expedition
our@@
rainfall
nor
raine
rapid
existing
ial
satellite
guns
1931
garian
lasted
1926
ational
ür@@
1932
cast@@
ust
protect
charts
wheel
700
populations
da@@
blu@@
indicate
clubs
printed
medals
aff@@
spirit
bec
entitled
vin
prefecture
camps
recordings
51
audience
anian
estate
subtropical
influential
1913
scar@@
fair
za
obtained
bach
singer-songwriter
pronunciation
ito
plate
1910
focus
essi@@
stan
failure
suggests
mind
li
rod@@
conservative
linked
showing
device
medium
murder
ure
fishing
nam@@
protein
ao
nie
animation
protected
sang
bowl
ton@@
identity
iper
celebrated
popularity
supply
liquid
gerald
dam@@
agent
hundreds
800
creating
const@@
degrees
cousin
kir@@
circulation
olas
otte
setting
well-@@
feathers
architect
arranged
rid
stein
increasing
fol@@
predators
finish
erine
forward
án
ap
82
chance
allies
existence
situated
shall
knight
unable
violin
19@@
attached
72
combat
offices
pink
bis@@
happened
roit
bonds
chr@@
charged
dogs
starts
nes
aviation
document
gradually
aceous
lyn@@
vocals
getting
drivers
tools
hart
concentration
6th
und
capit@@
king@@
interior
eve
avo@@
pel@@
flows
tney
m.
lith@@
ute
will@@
continues
ron
ett@@
alp@@
к@@
partner
67
nag@@
belt
atom
laur@@
uck
definition
kers
ine@@
ores
ministry
minute
contrast
ew
axis
molecule
purposes
ils
ova
ode
agu@@
ira
sisters
1914
monarch
high@@
ester
99
toward
pul@@
daughters
sud@@
ful
governments
maintained
ax
las
wich
capture
catal@@
ego
erto
dol@@
ori@@
ological
miss
measure
1921
ador
carry
salt
sec@@
umb@@
classification
reviews
tribe
hits
resources
web@@
specifically
sta
rar@@
96
headed
cat
application
transfer
vice
itz
4.@@
airlines
fle@@
outstanding
academic
div@@
lan
kl@@
tip
plain
biological
graduate
dated
tennis
earthquake
breaking
dra@@
chose
hur@@
evel@@
relations
ben
purchased
ign@@
interview
aming
aid
communication
hydrogen
finds
chair
iller
widespread
chapel
north@@
sequel
streets
ucky
efforts
crossing
gay
sav@@
contained
pep@@
rep@@
chron@@
notes
ments
owa
seats
colonial
amin
fantasy
sub-@@
phase
useful
debuted
promoted
op
studying
gar
external
winners
offer
84
neck
orbital
oen@@
authors
infection
density
tell
inger
adding
advantage
successfully
path
orn@@
cow@@
rence
2,@@
soldier
ight
ag
suggest
anity
covering
ranges
changing
socialist
feeding
ality
ening
2,000
57
talent
mak@@
faced
attempts
agan
successor
ip
visitors
situation
syn@@
th-@@
10,000
strait
mining
crossed
rell
rice
thick
cav@@
1,000
а@@
exhibition
rad@@
ides
pilot
opposed
items
address
120
pit@@
grant
upgraded
trained
moves
representative
sup@@
leadership
orthodox
interested
micro@@
deaths
immune
sid@@
lia
cher@@
thin
returning
mechanical
corner
express
98
techniques
neighborhood
ok
bay@@
97
burn
sweet
onian
pianist
planning
necessary
sat@@
capable
ass
5.@@
ə@@
poetry
old@@
reality
isl@@
68
gh
supreme
judge
synthesis
experiments
expansion
58
bru@@
survivor
pa
caught
rolling
beautiful
1915
stor@@
71
virgin
7th
documentary
ches
narrow
links
indigenous
ing-@@
8th
cou@@
traveling
lb
acc@@
berry
formally
journalist
differences
decades
firm
ce@@
communist
cook
observations
ere
ila
suicide
passes
priest
signs
pent@@
yl
replace
decade
learning
dri@@
styles
10-@@
gle
enny
hosts
brow@@
drawn
drug
doing
eta
expressed
tun@@
abandoned
mode
electrical
9th
thousand
outh
challenge
script
frogs
tran@@
ened
grave
settlers
eman
terminal
larvae
translated
mania
romantic
breeding
entrance
canton
dan
canal
kinds
rhe@@
globe
dancer
kil@@
hemisphere
ampton
79
sit@@
rol@@
effective
constitutional
represents
liber@@
wine
hr@@
tie
locations
appearances
domestic
distributed
fa
kat@@
cour@@
ão
genetics
productions
bin
really
gom@@
villages
signal
poem
characteristics
historian
faith
inhabitants
78
eli
magnitude
73
ا@@
signature
coat
dancing
rain@@
ters
sac@@
briefly
heavily
subjects
session
ethnic
len@@
rooms
sections
az
sy
chi@@
ders
residence
ugal
offers
yards
duchy
g-@@
preserved
tica
consider
killing
noble
collections
wer@@
oxide
hil@@
flooding
eds
multi-@@
birthday
receiving
proved
lyn
1908
exp@@
15th
iro
1896
shear
regularly
otherwise
manuel
movements
62
hero
jet
1901
atmosphere
herself
pattern
ged
mund
fresh
rangers
needs
mice
cole
oper
accompanied
acted
dim@@
electrons
nish
seed
south@@
cass@@
explained
adventure
measured
ax@@
uv@@
childhood
instance
sey
mingham
asp@@
defeating
providing
calls
atar
vary
â@@
railroad
walking
run@@
1930s
oner
row@@
vehicle
atic
о@@
hab@@
ong@@
tes
shop
isle
brew
assi@@
semi-@@
branches
roots
honorary
invented
fixed
rarely
condition
eagle
ped@@
flood
hired
flora
var@@
tol@@
trip
ath
etta
temporary
attle
sus
eldest
iting
su
sts
phrase
bec@@
eron
virus
advance
senator
band@@
chel@@
accident
price
lap
med
hunt
77
usc@@
ous@@
publication
bachelor
facility
mechanics
organism
mechanism
thing
ti
greatly
strike
stream
particles
psychology
hop@@
collected
effort
93
14th
license
jobs
alized
patterns
courses
haz@@
py@@
rating
rud@@
require
southeastern
pa@@
bap@@
transition
artistic
suburbs
whereas
1861
personality
telescope
low@@
souri
omer@@
crash
producers
struck
machines
gol@@
produces
survive
frog
tia
connection
drawing
soul
essed
na@@
door
inland
imp@@
oo
stick
scenes
kr@@
smallest
consisted
injury
ji
leop@@
dominated
milk
bright
ping
simp@@
stu@@
threat
esian
statement
proteins
hope
pronounced
gods
qualified
brief
fifteen
evin
statistical
grace
ban
flash
inn@@
gone
perfect
ears
evil
understanding
bara
ua
ces
maine
x-@@
ums
critic
chapter
equ@@
primitive
dinosaur
window
a.@@
speak
69
aware
introduction
hammad
eton
ou
peaked
aka
task
fired
down@@
disc
250
1903
flies
bes
æ@@
intensity
contributions
publishing
improve
ush@@
scales
designs
habitat
phot@@
phy
ast
solution
lightning
af
ched
commissi@@
ures
stock@@
delta
fluid
sev@@
1905
reputation
le-@@
88
long@@
reduce
aver@@
tea
missing
testing
inn
pay-per-view
dod@@
rays
philosopher
sum
pod
pit
tim
gon@@
electricity
governor@@
key@@
bound
arena
30@@
aissance
agricultural
thor@@
bil@@
alist
rings
depth
originated
ming
long-@@
1.5
agriculture
ude
tenth
yer
ɛ@@
details
planets
learn
leads
tiger
everything
devices
mari@@
housing
strip
regiment
neither
drummer
eaten
tries
ret@@
comedian
computers
boundaries
establishment
vehicles
ensis
meets
improved
representing
survey
institution
disaster
descent
specimens
hence
76
1902
retirement
deer
modified
rit@@
eau
loy@@
four-@@
tale
helps
favor
83
mati@@
hes@@
ugos@@
ranging
background
sed
hattan
delivered
ture
leaf
genre
exists
afterwards
mathematical
lov@@
institutions
roy@@
cia
sale
ingham
drafted
40@@
request
ayne
continuous
nit@@
finals
eland
50@@
dean
lifetime
aq
restaurant
м@@
1890
elli@@
3,000
chi
cluster
oreg@@
suitable
hearing
rio
*
involving
duc@@
investigation
grounds
strongest
transportation
incident
categories
adaptation
tend
holiday
igh@@
mythology
courts
quet
ements
composers
stre@@
lian
pas@@
cin@@
drink
pil@@
egg
owners
av
ays
stores
slam
ions
sculpture
factors
balls
storage
sep@@
magic
rocky
g.
draw
1895
filmed
approved
max@@
lowest
designer
5,@@
cats
threatened
itch@@
god@@
weekly
determine
progress
sau@@
multi@@
crisis
89
74
cattle
viewers
engaged
scholars
tube
ious
tool
plot
muda
purple
tourist
isation
stable
ref@@
executed
worn
involves
knew
standards
6.@@
vocal
supplies
8.@@
ko@@
nick@@
n-@@
sounds
scheme
itzer
pav@@
aceae
revolutionary
picked
rico
exposed
zer
pairs
turns
soci@@
signing
rising
esa
veg@@
tan
codes
swimming
premiered
iver
commissioned
hob@@
blo@@
shi@@
limit
partly
electro@@
employed
experienced
strengthened
voted
ready
manner
carrying
mes
barn@@
disk
offensive
principles
ards
journey
1907
defensive
continuing
joining
let@@
kshire
agon
routes
keys
drop
budget
ort
chil@@
genes
views
hydro@@
aya
jump
shore
requires
coins
gy@@
symptoms
hypothesis
р@@
ular
mart@@
companion
launch
spectrum
snow@@
63
gs
overseas
ague
ias
physiology
turning
cable
indicates
translation
rab@@
cran@@
belief
mill@@
woods
half-@@
bi
speaker
chancellor
sought
generated
sung
ingly
zy
typhoon
bod@@
aster
mixture
burned
amateur
umble
proper
contributed
rat
educational
nav@@
plus
concerto
ultimately
establish
deb@@
ye
1906
competitions
spe@@
drew
annually
marry
ú@@
principle
finding
dig@@
rest@@
pepper
shooting
increasingly
good@@
athan
ished
weak
mineral
ais
extra
snakes
cultures
anger
happy
finishing
ée
dest@@
ink
somewhat
eks
kes
nomination
none
rates
ie@@
steps
1904
guide
prepared
centers
elder
ologist
ando
nickname
sel
dangerous
eating
hus@@
1909
mir
artillery
distinctive
1898
sized
respect
alan
ince
fundamental
bears
tics
tar
-based
format
meat
mit@@
ancy
asteroids
terrestrial
mo
tians
amounts
nat@@
gir@@
clothing
sic@@
playoffs
coc@@
-ray
communications
lists
bringing
wooden
1889
safe
ship@@
demand
tile
dg@@
storms
promotion
replacement
charter
vast
resigned
amy
1893
scheduled
resolution
1897
single-@@
ason
moment
9.@@
grandfather
92
anniversary
drums
tank
ising
manufacturing
low-@@
lap@@
sche
charges
documents
ited
anything
zburg
consecutive
poems
toy
akh@@
injured
ree
scoring
component
specialized
attracted
continent
colonies
ict
gain
relatives
origins
man-@@
goods
criminal
6,@@
ardo
ect@@
а
educated
sovereign
feel
prot@@
shaw
som@@
tax
dioxide
lawyer
activist
returns
ministers
provincial
enberg
outs
nicknamed
add
stand@@
choir
spiritual
kan@@
allas
thirty
fit
inducted
ules
extratropical
oke
candidates
debate
heir
ed-@@
layers
chocolate
pop@@
colleges
ny@@
goddess
0.0@@
armies
spar@@
ances
tissue
responsibility
skills
otto
committed
closer
promote
violent
fires
monastery
v.
hip
violence
immigrants
ninth
ild
ر@@
ruler
extension
orbitals
olf
ika
hawks
counter@@
mature
è@@
ivan
membership
minerals
frequency
udi
fab@@
wed@@
passage
concluded
ippe
def@@
significantly
amm@@
witch
emb@@
mouse
roy
literally
spots
fever
91
restored
edo
lay@@
·
geometry
tion@@
any@@
afternoon
coo@@
considerable
hoo@@
components
decline
avi@@
arrival
bo
wrestler
ask@@
wounded
1920s
funeral
franç@@
sign@@
duchess
scientist
wells
focused
viruses
concrete
closest
regarding
rhythm
taker
easy
arist@@
factor
vit@@
tone
á
characteristic
scholar
rocket
researchers
bases
lig@@
defend
minimum
ho
assumed
ud
act@@
00@@
cham@@
ditionally
iki
meter
aa
test@@
downtown
pra@@
isolated
fair@@
94
ire
pan
asa
crowd
dominant
sk
quantum
shallow
oma
ə
nest
mercury
fur
ost@@
amongst
worms
finance
springs
best-known
sion
mounted
lock
ram
marsh@@
oid
ū@@
angel
texts
hat@@
feud
sou@@
fortune
measures
150@@
strongly
pag@@
weekend
prisoners
seeing
thirteen
battalion
driving
antine
vocalist
exactly
snake
adventures
proof
athletics
landing
quarter
shrine
non
pe
dream
ities
oven
ament
resort
colonel
kur@@
silk
trav@@
900
battles
mig@@
correct
avian
orian
exact
buffalo
ae@@
mg
plates
gap
maintain
conn@@
choose
guy
13th
ouse
cov@@
competing
enh@@
enters
practical
send
tist
amaz@@
displayed
nominations
designation
him@@
hler
destruction
geological
belong
nose
begun
lesser
ashi
uch@@
ord@@
cho@@
isabeth
cen@@
110
cave
uck@@
appearing
weapon
yst@@
odi@@
tram@@
ths
junction
pick
millions
toured
tra
camera
operate
parent
reptiles
northwestern
eville
ul
polar
masters
osa
entering
subspecies
1881
rus
roe
ün@@
rows
variations
ously
faster
persons
usalem
pitch
destroy
holes
hurricanes
pulled
wrestlers
linear
accounts
cream
iner
ography
min
sman
sleep
traded
canceled
processing
agents
ar-@@
collapse
elec@@
votes
rescue
bing
anthem
southwestern
scre@@
spend
bread
print
10th
gib@@
index
90@@
extent
ulation
volumes
broadcasting
mantle
relationships
northeastern
platform
teach
essential
telephone
erg@@
wet
work@@
carrier
fear
cus
cool
ine-@@
magn@@
apparent
brig@@
leans
augh@@
shorter
attorney
ving
ch-@@
ency
medi@@
legislative
testant
franchise
twenty-@@
post@@
gran@@
lying
vul@@
1940s
shells
to-@@
rever@@
onal
looks
tel
portrait
siege
observatory
roof
graduating
phon@@
arian
alive
programming
0,000
pro
flights
biologist
osaurs
1000
bron@@
foods
saints
bat
controversial
theories
akh
eline
4,000
்
ía
are@@
beauty
othy
buck@@
anyone
wi@@
1864
clothes
rev@@
expression
70@@
landscape
et-@@
asks
100,000
inj@@
har
aquatic
lights
u-@@
baker
rang@@
opportunity
falling
rats
в@@
cyclones
chor@@
converted
ranking
seal
van@@
ws
plan@@
vertical
target
erman
enemies
lif@@
theoretical
cock@@
bridges
fig@@
bet
policies
victims
š@@
remove
driven
minority
masses
с@@
ji@@
reef
rejected
bak@@
singers
plastic
indicated
metals
anni
oe
aea
burial
vin@@
fire@@
ote
moons
tons
tales
enjoyed
dres@@
gothic
publications
treated
zen@@
partnership
alymp@@
ably
or-@@
pc
rear
looked
maps
achieve
bit@@
direc@@
stood
writings
izing
aus
ka@@
m-@@
wick
maker
sard@@
metre
ental
kilometers
1865
illness
shar@@
gro
ι@@
guests
tier
fied
el-@@
disorder
oper@@
edit
bus@@
inian
variation
intense
andy
mail
1876
kim@@
organised
honors
12th
♭
symbols
phone
doubles
nephew
visiting
bold
calling
explain
owed
repeated
at-@@
tiny
keeping
sle@@
trading
bomb
suburb
landed
predicted
cards
beer
nucleus
mosque
chap@@
iny
stem
experiment
aks
partially
crops
households
oto
anch@@
exc@@
rifle
replacing
wearing
mot@@
diverse
tests
structural
description
ride
fourteen
180
ori
businessman
orbits
60@@
organs
extinction
kno@@
register
editing
monument
sure
leaf@@
no-@@
ici
liberty
wig
arch
ecu@@
accept
sauce
editors
usage
papers
rated
context
powder
sels
193@@
ols
ser
functional
blind
conquest
ports
grass
inity
mud
jo
supporters
geographic
ancestor
else
т@@
aire
tunnel
slide
ail
nevertheless
teachers
wid@@
seas
novelist
jaw
acids
raise
and-@@
å@@
temperate
oids
astronomer
aki
rat@@
fruits
sheep
knights
buff@@
kangaroo
eruption
citizen
insect
emerged
1879
aux
1894
attend
opinion
adeus
duties
lob@@
second-@@
tis@@
anz@@
layout
drives
ero@@
boxing
identical
dy@@
fia
1885
rival
conserv@@
diseases
guards
everyone
revol@@
declaration
oct@@
audio
ni
fairly
ral
substance
belongs
wildlife
shel@@
oned
abel
aspects
mix
questions
ging
ices
assault
saffron
owing
banned
hill@@
ries
ischer
kids
icle
defended
drugs
strat@@
fighter
enne
ock@@
stating
friendly
192@@
achievement
concerns
7,@@
recognize
1850
eff
dress
160
powered
warfare
stress
rebellion
reli@@
palae@@
parliamentary
spring@@
progressive
cooking
spiral
195@@
cotton
1859
neu@@
oons
f-@@
soundtrack
×
fragments
hos@@
sher@@
output
pointed
tos@@
ple@@
ín
stronger
coral
hyper@@
glands
л@@
lose
inch
ki@@
clean
coalition
ues
och
present-day
statue
rie
credit
median
50,000
affect
1899
expensive
elling
olithic
.5
videos
inda
у@@
facing
chop@@
usi@@
graphic
boats
premiere
clusters
beth
commun@@
cello
eliminated
adjacent
tied
annes
ulu
distances
gates
confused
enterprise
martial
departments
cha
dwarf
leap
mid
imm@@
gravity
usual
algae
ancestry
bed@@
jay
fund
wolf
equation
purchase
goaltender
breed
zones
senators
abundant
ulate
liked
automatic
planes
seems
sees
bever@@
furt
peoples
publicly
remote
rounds
ped
mainstream
11th
particle
ician
dependent
20-@@
helping
diversity
fat
costs
1892
ching
stit@@
aer@@
1875
newspapers
aide
corresponding
worst
oda
pocket
municipalities
dramatic
po
trouble
conducting
crater
irs
bia
ava
thereafter
odeon
duo
historians
1871
sustained
l-@@
akia
voting
sixteen
mask
coffee
tours
ges
spr@@
1891
collaboration
000
inus
formations
cover@@
170@@
viv@@
pale@@
soap
anwhile
apparently
had@@
gener@@
descendants
impossible
fallen
printing
rag@@
whe@@
superior
industries
theaters
east@@
forth
archbishop
fordshire
ander@@
pick@@
so-called
frequent
dust
surgery
anic
aim
tically
elsewhere
oak
д@@
alis
physicist
ilo
experimental
viol@@
portrayed
rein@@
isher
avia
increases
bordered
publisher
attraction
ci
ault
muscle
autumn
chase
billi@@
1888
chur@@
controls
stur@@
leg
segment
,0@@
oes
dum@@
20,000
rulers
ower
amus
similarly
empress
qualifying
p-@@
regent
shadow
electr@@
add@@
ater
aph@@
dances
pus
admitted
stored
execution
tallest
river@@
pure
operates
prayer
org
wants
escaped
م@@
update
asc@@
ب@@
remnants
presidency
dish
installed
rounded
prec@@
eling
1870
suspended
iti
circular
engineers
ll
sentence
fled
andra
museums
physician
ratio
zh@@
una
legislature
suddenly
surrender
melody
cell@@
1880
creative
plateau
cardinal
atrina
.com
mé@@
poles
random
fac@@
ranks
settlements
horses
restricted
0s
rebuilt
secure
ui
196@@
ng@@
argued
oj@@
networks
insurance
turtles
shares
currency
shock
platinum
immediate
binary
tongue
ob
6,000
sole
generations
divorced
icki
retained
ambassador
holder
exception
registered
indeed
dollars
judges
1867
beam
widow
recovered
ox
touch
directors
markets
ale@@
lep@@
attributed
1862
sound@@
truth
viewed
vil@@
1882
eu
pushed
ves@@
seem
interaction
unless
sample
ort@@
bow
aro
wider
valuable
tiv@@
verse
tomb
alists
olog@@
civilization
tournaments
att
80@@
burns
shopping
concepts
wire
six-@@
hop
balance
reaches
bian
armor
pack@@
faces
rid@@
mirror
univer@@
comman@@
honey
9,@@
inae
potassium
waste
hall@@
een
nick
és
auc@@
trail
parad@@
altar
tire
pen
moderate
devil
sword
detail
evelt
messages
creatures
hunter
show@@
tivity
2.5
yon
colum@@
ane@@
uan
ml
sailles
cha@@
hell
effectively
11@@
servant
variable
dome
vampire
ilia
н@@
bac@@
dt
telling
lords
bane
ently
criticism
thinking
specimen
pad@@
enia
crust
ph
bigger
advice
employees
earn
archipelago
touring
renowned
releases
coun@@
conquered
و@@
grows
slav@@
praised
restoration
naming
smooth
cot@@
enson
iss@@
root
five-@@
suffering
earning
abolished
obtain
ts@@
esses
extensively
tornado
varies
slave
gan
nos@@
gas@@
then-@@
shield
ube
conduct
populated
rattlesnake
bin@@
farming
attacking
kreis
dow@@
pson
abstract
carbon@@
patent
α@@
fic@@
stat@@
tot@@
preservation
1887
endangered
obe
businesses
lag@@
160@@
shops
1866
soccer
illustrated
encouraged
rov@@
invaded
reform
inc
offering
cli@@
blocked
riding
inia
exile
1800
struggle
dissolved
anism
sector
emp@@
regard
preferred
skating
hidden
patron
vessels
hip@@
predator
dic@@
lington
aine
characterized
agencies
1860
sessions
suff@@
supports
rad
occasions
thrown
contribution
voyage
1812
shortened
alpha
barrier
onso
1831
scholarship
understand
easier
past@@
sig@@
matrix
boards
tune
valleys
involvement
stroke
great-@@
1857
step@@
flowering
elled
controversy
instein
derney
riv@@
besides
lt@@
mall
seek
deposits
westward
matters
ña
grandson
appointment
pm
friendship
measuring
wheat
clearly
sponsored
constellation
consistent
opponent
arc
resident
heim
recommended
feder@@
coined
fall@@
continents
eh@@
associate
σ@@
ises
ert
esc@@
rubber
lux@@
plains
familiar
clouds
golf
apply
supposed
wald
absence
sar
voices
signals
protocol
first-@@
limestone
aw
stown
1852
secret@@
itting
sop@@
net@@
is-@@
athlete
prov@@
1872
hara
ν@@
rugby
whilst
transmission
hotels
accused
chromosomes
declined
house@@
elementary
hearts
dense
distinguish
ç@@
ump@@
elli
administrator
burning
sli@@
1851
scand@@
operas
comics
giants
outbreak
zinc
consist
relief
140
preparation
athletic
gift
espeare
template
instrumental
sted
gren@@
ector
sor
airline
conventional
doors
oz
pin
ener
residential
drinking
zig
neutral
horror
arrest
remembered
lem
extending
ă@@
taste
ure@@
onda
1856
presidents
astronomy
icles
assists
six@@
cheese
blocks
circumstances
infl@@
transit
domain
ator@@
rit
oa
putting
apos@@
grandmother
atmospheric
server
raid
carbonate
thi@@
interests
ashes
nova
ined
desire
paint
strings
diary
audi@@
atory
lod@@
interpretation
full-time
lessons
motor@@
varieties
wait
funding
sitting
ablanca
gur@@
ishing
ère
forum
hail
130
swe@@
,000-@@
beating
quotation
dragon
bars
nut@@
runner
sight
à
nas
ide@@
duty
catch
aku
watched
palm
readers
amoto
tang@@
marble
él@@
dic
colon@@
naturally
lions
handle
agg@@
twin
aja
personnel
amas
criticized
bassist
cited
tide
ored
quint@@
fam@@
airing
statistics
connect
éri@@
radical
coastline
hear
pur
internationally
vegetation
ck@@
odes
nan@@
ills
substantial
mim@@
absolute
beneath
fewer
best-selling
akey
sacred
error
illegal
mose
centimetres
absorbed
1853
flowing
marathon
illo
establishing
beck
leton
chorus
filming
1848
sch
landmark
performers
traditions
exclusively
discoveries
ifer
appeal
ential
concentrated
bass@@
railways
tech
cuisine
lined
extends
morph@@
én@@
vector
rap
ó
cash
yc@@
fastest
10.@@
hr
squad
21st
esis
cycling
č@@
geographical
tanks
1844
vertebrates
yes
ring@@
false
doctors
romance
partners
sport@@
assist
pounds
faculty
izes
patri@@
crystal
strategic
cad@@
shift
myster@@
ras@@
vs.
abbreviated
intermediate
posted
ks@@
collision
haven
sufficient
independently
strategy
edited
promised
itch
legendary
mit
1874
ask
ruling
commanded
princ@@
sting
tes@@
industri@@
kid@@
alties
gaz@@
tical
hua
fried
conservatory
rese
switched
councils
radius
bath
hosting
chlor@@
ozoic
abroad
identify
oc
artificial
ijing
civilian
youn@@
fairy
horizontal
monster
estimates
ump
fix@@
plac@@
tourism
bomb@@
cross@@
icon
rough
trac@@
pale
remainder
qui@@
enting
aling
double-@@
ال@@
τ@@
chal@@
wrong
bark
accurate
describing
tly
ive
murdered
grammar
optical
alization
astronomical
caster
ader
competitive
autonomous
ate@@
yah
photographs
ives
closing
understood
1877
advertising
olia
saved
liga
dispute
billiards
foster
heated
pass@@
alla
tag@@
sad@@
oria
aco
wore
eleventh
elephant
bombing
emi
nervous
themes
planted
volcano
mad
emy
mills
killer
lius
belonging
beliefs
amed
listen
kan
gow
comparison
panel
oos
insky
acre
abi
teen
ects
evan
counts
silver@@
ider
ops
fun@@
reliable
waiting
practices
cylinder
span
iti@@
elevation
arrangement
donated
tornadoes
milli@@
migration
1858
hind
chro@@
outdoor
by-@@
pioneer
tax@@
silent
fore@@
ista
tub@@
explains
uto
ي@@
tension
observation
tap@@
millennium
genome
day@@
compact
explosion
1840
of-@@
con
1884
funds
restaurants
skeleton
hood
pet
ume
monarchy
assistance
bles
preserve
ré@@
sentenced
habitats
oral
uniform
zz@@
winters
possibility
ink@@
oni
scattered
comprises
30,000
tional
unified
realized
defending
190@@
argument
conv@@
ritz
pay@@
ased
guerr@@
crowned
gul@@
1821
nearest
и
aismith
mines
ear
cut@@
road@@
fi
vel
cla@@
ա@@
moths
gg@@
pain
sters
certified
ل@@
е@@
alpine
п@@
forcing
exposure
lets
lung
celebration
edi@@
emen
sedimentary
urg@@
189@@
wool@@
alle@@
integrated
distant
oceanic
feeling
urn
ennis
invention
clan
sley
vor@@
κ@@
che
rises
territorial
midway
genres
vegetables
fill
8,000
console
bour
í
inspiration
significance
1886
nineteenth
boy@@
relation
attending
dae
immunity
drum
talking
pow@@
off-@@
ensi@@
moral
gos@@
ration
prof@@
1843
wealthy
loop
essentially
path@@
nep@@
amino
ection
ases
channels
slaves
zo@@
spoke
1868
placing
ike
segments
г@@
sof@@
bü@@
15-@@
chains
tested
occo
comet
vill@@
contestants
og
scor@@
psych@@
-up
conc@@
de-@@
1854
liv@@
thy
oning
guilty
prop@@
trio
curve
equipped
ins@@
drove
rotation
velocity
rom@@
quartet
holm
rig@@
enz@@
portions
villa
cos
ret
ien
beetles
interactions
periodic
racial
accounting
expert
sequences
exclusive
uz@@
symmetry
iber@@
wit@@
finger
lav
injuries
red-@@
elic
ware
craft
butterfly
commerce
squid
displays
speakers
wish
ev
194@@
decoration
gospel
ancestors
throat
flam@@
rod
shores
nebula
ody
emperors
midd@@
armored
maintenance
ordinary
inhabited
grouped
cun@@
1878
1815
atics
answer
hub
bid@@
ī@@
uki
dove
spec@@
gum
define
ank
breaks
provisional
nec@@
citizenship
enstein
tul@@
heating
muscles
cord
ρ@@
yer@@
shoulder
instructions
magazines
reads
hammer
icia
1813
ession
owl
uring
offspring
abuse
buy
craw@@
detailed
dil@@
pseud@@
ecological
lit
call@@
main@@
watching
ck
ammu
dw@@
approval
wn
kol@@
participate
poll@@
premi@@
boxes
distinction
ours
towers
diagnosed
ec
tors
followers
nights
ners
ingen
-t@@
8,@@
advisory
steam
bees
hair@@
wedding
adu
spl@@
pie
writes
ont
oy
flooded
oline
sticks
airports
ly-@@
ste
fauna
flav@@
editions
ornith@@
ū
aps
oul
ex-@@
flux
hep@@
recipient
lac@@
experiences
spending
hatch
plague
itation
clock
evacuation
acle
abilities
dog@@
connecting
30-@@
varying
tobacco
enda
mel
1620
top-@@
tape
oms
ucks
judicial
int
dawn
equality
bacterial
1863
phenomenon
carries
jaws
thal@@
kel
dissipated
osis
eless
nik
schedule
ornis
town@@
heaven
hie
asking
zi@@
endemic
ros
limits
anapolis
ter-@@
1869
missions
intellectual
check
ges@@
arrives
bath@@
occasional
mathematician
environments
revolt
logic
fusion
eda
compositions
mark@@
ɔ@@
plasma
explanation
cross-@@
navigation
ere@@
23@@
lot@@
poverty
beds
harmon@@
oming
stadt
ß@@
priv@@
alphabet
abella
ant-@@
benefit
wake
ios
nuts
euc@@
inaugural
berto
fed
ble@@
optim@@
ampa
measurement
diamond
revenue
span@@
file
ele
eck@@
weed
representation
dying
bearing
eck
iji
atives
merely
1845
sculptor
oce@@
approached
ε@@
involve
cache
16-@@
solutions
doctrine
osh
topics
ał@@
merit
quarterback
áil
1830
shelf
tures
discipline
thirty-@@
veterans
neighboring
glee
brew@@
sal
concerned
asis
decides
ef
nur@@
ket@@
elite
rett
ultimate
shoot
ecting
kis@@
exhibit
claws
beg@@
collapsed
constable
scores
trials
737
sfield
chem@@
ima
naked
ary-@@
flavor
occasion
patter@@
prizes
otus
dee
protest
striking
quick
reproduction
eness
ologists
requ@@
excellent
equations
dro@@
1849
sizes
sort
happen
1837
icus
convicted
epic
triangle
innocent
akes
bore
1883
heter@@
referring
consul@@
belonged
infections
anny
backing
long-term
reed
empty
alli@@
etic
exploration
yle
treasury
102
freshwater
cardin@@
05
thermal
intr@@
travels
girlfriend
concern
endish
sodium
unsuccessful
opus
favored
197@@
eria
attractions
prove
enburg
ku
1,500
ceremonies
terrorist
bush@@
deck
brook
105
50th
encyclopedia
vari@@
ition
uma
esta
7,000
centered
bald
bot
rant
instant
warrior
ees
pros@@
summit
spacecraft
ough@@
creator
occurring
honored
gie
heights
thermore
alcohol
ingo
an-born
án@@
astronomers
sheet
numbered
depends
ule
pter@@
academ@@
lots
borne
suite
symbol@@
agree
twentieth
cant@@
grav@@
approaches
apped
pipe
mud@@
ilers
fe
imprisoned
ual
motors
essa
retain
18-@@
ticket
surfaces
hybrid
twer@@
appropriate
embour@@
seals
pursue
screenwriter
completing
nation@@
ather@@
maxim@@
ladder
ento
till
te-@@
sandy
cit@@
batt@@
owns
turbine
archaeological
liberation
orbiting
1816
wild@@
devoted
centres
uri
challenged
tess
1,0@@
loved
mem@@
cutting
nationale
mechanisms
ubs
sky@@
regardless
negie
brist@@
destination
divine
automatically
woody
edes
1847
worship
indoor
gan@@
ratings
files
frost
meg@@
tiles
ced@@
crimes
speeds
mosques
tracked
ots
adaptations
ederation
pine
737-@@
trapped
cep@@
possess
theology
3.5
tourists
rane
simultaneously
danger
um-@@
st-@@
infrared
columns
dancers
sti@@
jou
m2
collect
poets
ł@@
democracy
oll
rapper
opponents
corn
stems
scrip@@
conclusion
igi
ows
quar@@
je
ghost
sulfur
ο@@
activ@@
sitcom
aun@@
efficiency
jury
clockwise
chemist
patients
governed
governing
temporarily
istle
serv@@
enzo
crosses
ör@@
input
heath
singh
presents
proclaimed
1841
prisoner
sings
12-@@
principality
toxic
societies
challenges
teenage
gli@@
extend
surprise
ese-@@
offshore
boarding
gravitational
ido
optera
ema
happens
mammal
liqu@@
aim@@
diving
info
connects
oot
mb@@
vent@@
vale
retreat
revival
spines
aimed
tal
modern@@
termed
vis
seeking
founders
behalf
flag@@
massacre
ough
anes
ubert
spelled
gang@@
practiced
atively
etti
1832
leagues
initi@@
rainbow
pot
infrastructure
hanging
cult
tre
syndrome
ination
tidal
favorable
administered
marqu@@
mystery
encounter
documented
versus
hai
pride
brick
manufactured
storyline
meetings
hear@@
♯
gases
saw@@
tism
jam
shipping
lip@@
labels
thanks
elles
rush
vid@@
μ@@
dozen
raz@@
fold
curved
skill
rom
book@@
ingrad
currents
shifted
resource
ège
charity
demonstrated
reforms
ocks
threw
dimensional
crustaceans
lava
natur@@
1839
termin@@
tsunami
comprising
night@@
efficient
alternate
kie
decide
strange
fir@@
hitting
seg@@
believes
platforms
aparte
inherited
shut
column
casualties
owe
kab@@
locally
170
initiated
serial
claiming
hide
500,000
detect
reflect
disappeared
detected
rivalry
eighteen
associates
tru@@
revenge
generate
screenplay
oshi
dubbed
sulfate
rea
inspec@@
ense
ems
collecting
cipher
ading
ains
nasal
hunters
ony@@
northward
ʁ@@
pilots
housed
ô@@
aise
toys
measurements
moth
draws
full-@@
possession
teau
receives
limbs
cap
less@@
marketing
sailed
presenter
_
decorated
guardian
saving
handed
farmers
360
tract
tory
cube
1.2
1836
aunton
esi
punishment
download
dollar
nurse
ər@@
ensure
boro
withdrew
hil
conflicts
shr@@
lied
seriously
erected
phy@@
rookie
1873
sometime
cycles
submarine
evacuated
impressed
mating
mast@@
vre
bling
regul@@
graduation
grove
minimal
tz
doctorate
participants
ascal
siblings
fitness
processor
diag@@
altitude
λ@@
ocy@@
eway
oli
motto
hak@@
referee
funded
ic-@@
grain
ska
dell
guill@@
heroes
metro
permanently
discussion
keyboard
decisions
automobile
dle
manuscript
12.@@
xley
utes
ferry
gen
aunt
ñ@@
th-century
aser
anime
geon
enormous
ā
zing
amphi@@
near-@@
1814
slender
merchant
traits
resemble
cargo
hot@@
ström
severely
farther
ül@@
consort
bid
mountainous
riot
125
mutual
regulations
utus
edon
departure
creates
theorem
bility
spelling
shots
contestant
requirements
treat
sson
short@@
agn@@
violinist
oceans
х@@
disorders
beaches
π@@
poorly
indicating
architectural
tails
wark
eri
lime
quarters
aded
custom
derives
shep@@
roway
zi
presentation
lasting
undergraduate
prob@@
heading
spaces
achi@@
botanical
load
orchestral
attract
noticed
186@@
crow@@
fy
bounded
alls
delayed
chloride
celebrate
ler@@
angles
yellow@@
depend@@
reportedly
fen@@
remix
umes
bills
arius
ras
suit
requested
farmer
va@@
e.@@
diplomatic
loo@@
iel@@
negotiations
erra
permission
ately
urs
read@@
,@@
respective
frame
ovich
ideal
achievements
stomach
synthetic
bred
monthly
itoba
graphy
pack
beak
cloth
crashed
cone
kingdoms
ʊ@@
rier
substances
woodland
interpreted
remberg
liver
recovery
ections
h-@@
天皇
intensified
flew
chill
quit
mons
facts
iness
mand@@
frontier
surgeon
manufacturer
ilica
weakening
24@@
dorsal
queens
bonding
protests
arrive
lifted
fifty
audiences
warnings
forecast
attempting
ogen@@
trunk
ī
б@@
modern-day
tain@@
releasing
considerably
estimate
perception
floods
iza
udes
removal
interactive
ub
commented
flu@@
deals
ownership
applies
descended
carved
butter
asts
1835
ecosystem
ible
cliffs
seemed
rainforest
light-@@
skiing
wig@@
geology
enz
hardware
kit
festivals
power@@
overlap
set@@
odon
clo@@
chromosome
hem
lec@@
adaptive
carriers
affair
reverse
hed@@
los@@
nitrogen
ø@@
examination
sberg
04
olive
nests
whis@@
oblast
classics
arti@@
sensitive
fungi
umbai
idol
auto
transformed
ologne
pi
ables
das
gia
papal
brass
450
settle
spin
varied
exercise
rhy@@
plural
sharing
decay
references
topic
ells
rup@@
rin@@
loan
operator
impression@@
vig@@
ape@@
circus
complicated
fault
gros@@
ston@@
adver@@
pling
nautical
celebrity
equally
worker
metric
stro@@
pub@@
commercially
entation
nn
demands
bony
dressed
lun@@
non-profit
0.5
parishes
pand@@
psychological
toes
governors
chemicals
interface
electronics
1838
rhin@@
focuses
venomous
iva
rains
ongoing
circles
fs
coverage
underneath
elimination
encies
compilation
wan@@
variant
bits
instruction
arin
olds
ved
forty
reserves
playoff
edges
predominantly
cand@@
difficulty
mates
kiss
pets
sonata
healthy
tac@@
benefits
ple
1833
foot@@
digits
teachings
arta
eur
shapes
ush
fo@@
zed
attendance
esh@@
invertebrates
cleaning
feld
actively
loud
lesbian
algebraic
survival
quoted
venue
short-lived
butterflies
nest@@
1855
emer@@
berra
chest
esi@@
icism
dist@@
occ@@
iden
syl@@
shir@@
sporting
basal
fut@@
volcanoes
integral
percentage
cooked
elia
enhagen
tus
ete
rodents
oring
campaigns
oque
trend
enabled
ady
squares
tow@@
poll
emotional
highlands
four@@
iser
oku
consciousness
ž@@
osh@@
legions
tured
gathering
fun
amp
pretty
bic@@
hoped
mixing
prepare
idi@@
loosely
oves
thereby
filling
bio@@
parti@@
aden@@
legally
aneira
enrolled
erce
third-@@
е
select
trough
visits
telegraph
1.3
climbing
ologically
mention
rum@@
cellular
reporting
1500
depicted
fee
cuts
corners
alk@@
encer
heli@@
cs
-to-@@
mansion
guil@@
lift
quiet
satellites
180@@
inventor
1802
inheritance
oles
marking
strengthening
introduce
aker
ayer
influenza
nac@@
approaching
vital
beaten
earth@@
influences
dried
della
edway
weighing
dom
nett
immigration
rabbit
publishers
develops
wound
fortress
nan
ê@@
eps
mam@@
lining
separation
hammerhead
fins
costume
oh
atem@@
subfamily
aurus
tables
ɨ@@
mar
white-@@
reveals
sandstone
break@@
quantity
advis@@
rez
seventeen
assassination
tu
wasps
populous
perspective
neighbouring
cycl@@
éz@@
sick
penis
separately
dismissed
elevated
sati@@
fights
inary
bishops
exceptions
performer
otes
anywhere
hat
ér@@
bonus
accidentally
350
orch@@
viewing
lithium
database
gender
laureate
anie
ecklen@@
divorce
modes
inate
demolished
mysterious
sudden
corruption
neo
pirates
technologies
kilograms
mistress
bu
glacial
tively
itor
ensemble
exhibitions
ares
08
please
whales
blow
turtle
unusually
intact
sive
tissues
isch@@
1826
edia
quad@@
us-@@
188@@
cester
manor
1798
ald@@
shi
best@@
ichi
usian
atus
doub@@
remarkable
truck
archives
owski
fu
sunlight
anatomy
ured
pir@@
lasts
servants
ruins
experts
ty-@@
strata
lit@@
ns@@
oga
garia
voy@@
methane
pond
developments
expanding
kett
predecessor
anim@@
ques
encountered
suspected
hurt
201@@
rel
spiders
virtually
reducing
jin
suc@@
manuscripts
south-east
ope
itter
eats
shaft
entity
monkey
expand
clos@@
hm
latest
cott
dishes
browser
shoes
brands
lid
analy@@
neur@@
enes
granite
specialist
recalled
eppe
ation@@
~
repair
monks
ling@@
skater
inal
187@@
raced
membrane
opens
naturalist
tet@@
1,2@@
lik@@
gamma
developmental
cook@@
fron@@
1.6
vo
linking
stolen
box@@
shrimp
rotating
adol@@
ft@@
spac@@
cooler
witness
stops
repeatedly
chicken
astic
raising
hs
foundations
phen@@
till@@
contents
nucle@@
constituent
notation
aspect
victories
oslov@@
sho@@
essay
livan
odo
neighbors
smoking
feelings
constantly
édé@@
ifa
onwards
strict
tenburg
summers
phenomena
î@@
iles
ally-@@
busiest
ences
regime
mild
veteran
,000
dialect
lighting
counted
fatal
volunteer
stripes
arat
frag@@
prints
sz@@
doubt
quick@@
antiago
ation-@@
wives
aug@@
enos
pris@@
configuration
agar
demanded
painters
it-@@
ext@@
enforcement
ay-@@
acher
marines
runway
author@@
architects
chen
conver@@
electromagnetic
hang@@
centr@@
yers
aton
clarinet
fer
calculated
iri@@
sponsor
customers
sergeant
ordin@@
song@@
theatrical
viral
differ
joins
101
humanity
proposal
interchange
compl@@
rite
fication
flats
1846
grades
orph@@
duck
strengthen
ique
bee
rö@@
esti@@
foundland
yman
agher
collective
mented
organist
ibal
notice
oriented
holdings
sid
quantities
lighter
umbria
requiring
conductors
continuously
extr@@
sadd@@
51.@@
sphere
consequently
itus
disturbance
the-@@
spo@@
plaza
sending
wick@@
rol
ancestral
corporate
conventionally
mere
agh
ente
aves
4.5
meteorological
probability
knocked
1834
carp@@
joy@@
ix@@
erosion
beta
manage
citing
lic
explored
uka
alternating
dynamic
colleagues
choral
irregular
construct
denburg
reigning
tos
ecology
lub@@
relocated
radar
parade
pawn
mourning
slopes
prehistoric
earthquakes
ands
township
situations
ung@@
posts
indic@@
bul
warriors
qualify
kee
subway
pound
throwing
pip@@
playwright
guerite
orientation
fish@@
latitude
plas@@
ond
atha
ardi
weigh
achi
solve
wheels
infected
ducks
tives
errors
plant@@
transmitted
olan
inorganic
scout
duration
axes
gin
acoustic
vacuum
denied
dealing
100@@
escence
extant
iled
creature
gel@@
22@@
sp
north-east
judgment
firing
pollen
aws
midnight
floating
agua
puppet
estone
protons
encing
immigrant
licensed
fate
slope
comprehensive
fon@@
percussion
voiced
mist@@
praet@@
deser@@
nationalist
eruptions
odor
eligible
aging
graph
emigrated
guru
gem@@
gland
rounding
wo@@
interrupted
ingia
entries
ield
kowski
sne@@
difficulties
maid
silence
leigh
cinema
fiber
hanna
roller
apolis
altered
pioneering
sworth
lab
pigs
emphis
01
commune
cultivated
interviews
samples
acclaim
danced
chin
spider
dar
putin
necessarily
ification
slavery
ić
crop
ood
ylon
obvious
upset
cabin
bull@@
drawings
ment@@
wise
gio
ent-@@
mus
tsu@@
onne
len
disturbed
goal@@
subsidiary
sulfide
macro@@
margin
facto
politicians
wilderness
controller
variants
homeless
bombs
retail
backs
relating
summary
intelligent
stellar
computing
cartoon
ather
brightest
conqu@@
worm
nuclei
yg@@
arity
stere@@
copyright
confusion
discussed
diagram
footage
hen
mess@@
knee
cann@@
geologic
pigment
visa
avel@@
fighters
ires
atsu
monkeys
topped
life-@@
ukas
wr@@
kre@@
inst@@
sty@@
ining
ï@@
assembled
reformed
nickel
estates
neuro@@
forty-@@
chard
igh
roid
eigh@@
infin@@
swim
aí
lizards
gest@@
jumping
spong@@
timer
dealt
inqu@@
civilians
185@@
stretched
ool
ceased
victim
trap
free-@@
eg
kirk
sperm
eover
adal@@
deeper
objective
evich
odd@@
privately
as-@@
perf@@
inter-@@
на
uckland
thel@@
carnivorous
ballroom
canon
prompted
ubil@@
embedded
theft
prototype
د@@
persuaded
portraits
1890s
taxes
1829
enclosed
crus@@
remnant
bret@@
mos
econom@@
fantas@@
funk
utions
contested
namely
reporter
sits
encyclop@@
33@@
interesting
managing
bats
1817
ley@@
mal
öl@@
kills
omes
asting
1803
tribute
volunteers
arrangements
9,000
ו@@
evangel@@
libraries
hyp@@
spotted
oun@@
merger
streams
tasks
finale
aluminium
nerve
eled
harp
scho@@
lonely
→
crabs
tered
ammunition
maintains
mat
pull
accomplished
impro@@
otic
adesh
consul
decrease
apes
enty
kar
י@@
pregnant
attained
-shaped
chim@@
regulation
induc@@
terbury
secured
graves
rivals
priests
passion
tern
nice
heimer
downs
abd@@
joy
equator
ier@@
cruise
poin@@
kov
ophy@@
professionally
discontinued
ayas
fin
pump
diplomat
slip@@
clause
integer
convinced
resignation
righ@@
hurst
2000s
statements
penguins
maritime
aerospace
submitted
engage
them@@
faithful
archae@@
imag@@
addressed
differential
directions
orth@@
thorne
openly
smoke
conceived
ade@@
comments
targets
circuits
dividing
abs
assisted
conventions
recurring
ballets
ɒ@@
ester@@
cler@@
aligned
grap@@
uit
dictionary
combining
ceremonial
mps
honey@@
enko
prestigious
highways
floors
monsters
west-@@
typ@@
arriving
arrow
est-@@
gauge
throw
remember
trilogy
farms
lings
stir@@
logo
revised
developers
permitted
moor
clean@@
ati
apartment
grid
nationwide
urer
insul@@
algorithm
legislation
rand
esch@@
precipitation
portable
interference
cubic
chiefs
unofficial
pec@@
oi
dolphins
determination
philosophical
ingredients
cio
properly
drainage
expl@@
fibers
1621
ovsky
loves
completion
stro
toad
reconstruction
manufacturers
cavalry
resistant
abad
ivers
illes
ja@@
wing@@
galleries
eno
ylan
cephal@@
aver
pend@@
ahn
informed
yed
parking
resol@@
generating
led@@
drops
scope
advised
monde
carb@@
water-@@
intention
supporter
desktop
constitute
soprano
tempo
ayan
loo
cage
dges
venture
isol@@
styled
spawned
neo-@@
statesman
whale
virtual
chapters
one@@
illon
bey@@
peaks
innati
sville
cus@@
venom
tires
reserved
educ@@
laps
tenure
iri
bly
talks
115@@
denominations
pred@@
penalty
uprising
й
black-@@
iff
truly
disciplines
snout
proto-@@
lip
boxer
oti@@
isolation
phin
publish
partial
secre@@
buses
competitors
button
champ@@
cups
tertiary
praise
alty
large-scale
,000,000
198@@
sions
expres@@
herbivores
pli@@
lover
maiden
eagles
sided
tragedy
olo
ropic
gast@@
arina
encryption
ashing
frac@@
ovic
encia
pregnancy
sponsorship
doll@@
defines
yearly
ache
neg@@
tend@@
apest
contracts
grandmaster
chanan
pup@@
entin
ress
delivery
mutations
politically
cliff
gathered
pressed
iko
pill@@
divide
erc@@
light@@
option
ails
drag
pose
medium-sized
bie
restore
maintaining
journalism
frequencies
survivors
ister
ambique
ος
oit
monk
exhibited
considering
amber
ра@@
tunnels
suggesting
agger
ɡ@@
burst
alleged
drift
stom@@
calli@@
sur
unes
destroying
feeds
spans
coronation
shelter
pyr@@
zen
depend
bender
bitter
unclear
aromatic
exam@@
sacrifice
commentary
dé@@
tonnes
gross
vulnerable
feast
shor@@
teamed
collaborated
economist
arsenic
flour
filter
acclaimed
burg-@@
egal
coaches
prominence
pleasure
school@@
bout
photography
aking
perm@@
strain
succeed
debt
nin@@
asso
sym@@
ials
temples
chan@@
tough
cum@@
lich@@
realm
detective
agi
athy
relativity
ˈk@@
generic
m3
fertile
δ@@
nodes
reefs
hollow
improvement
full-length
managers
geography
ablo
eries
wavelengths
celestial
flo@@
coinc@@
jets
tram
biography
exhibits
behaviors
citation
shirt
1880s
rider
thickness
tops
terror
employment
47@@
handling
item
peri@@
chef
collectively
dreams
diocese
thea
euten@@
affecting
wool
excess
agne
sailors
surprised
contr@@
initiative
13-@@
07
ostr@@
big@@
announcement
pron@@
idge
1824
emig@@
planetary
missed
xton
participation
put@@
dung
perceived
archive
e-like
consumption
dge
messaging
il-@@
ership
idd@@
elin
atta
apping
soup
boss
finest
memories
hiding
inmates
ː
improvements
award-winning
26@@
̃
aches
embassy
occupy
ographic
ell-@@
1,7@@
sociology
183@@
goat
burg@@
rak@@
capuchin
origin@@
nobility
cent
prohi@@
promoting
flames
esty
igneous
bers
age@@
alistic
rely
oping
ön@@
pro-@@
app
comb@@
controlling
keeper
immun@@
readily
certainly
breakthrough
humor
trace
hip-hop
slot
cannon
celebrations
alt
tides
monuments
countryside
welcome
utt@@
kh
zz
implemented
trigger
erie
bride
asted
asco
hate
updated
pist@@
lock@@
.8
underlying
patrol
opposing
itors
lone
lungs
osaur
venerated
talked
240
appl@@
emblem
south-west
accessible
uria
lain
iah
ć
switch
sever@@
mix@@
forever
respond
expelled
tribal
tight
isi
synchron@@
conspiracy
د
gill
--
ellowship
100-@@
staged
websites
prefer
wyn
simul@@
fingers
disputed
bag
freely
attractive
40,000
fat@@
quarry
sharps
mia
upper-level
alien
bloss@@
anthology
monarchs
yang
resemann
enter@@
ë@@
ás
hometown
performs
1797
grandchildren
fortifications
dropping
din
bending
copied
backed
busy
glos@@
scripts
mach@@
customs
demonstration
nee
eugen@@
320
skiers
solely
rix
molluscs
ender
1818
stopping
dirty
popularized
tickets
uta
bombers
beetle
connections
onc@@
selec@@
ét@@
asse
lighthouse
strang@@
annexed
ʒ@@
urban@@
round@@
appa
welfare
list@@
jointly
protagonist
undergo
elaborate
lifestyle
iz
jurisdiction
statues
fluoride
bies
stead
sailing
cope
entine
misasagi
manufacture
lon
responded
aye
short-@@
seasonal
fishes
uli@@
locked
angry
kick
tut@@
character@@
restrictions
aside
este
preceding
advisor
ˌ@@
neutr@@
isbury
bes@@
violet
sap@@
legacy
essing
operational
counter
omy@@
eas@@
oun
graphics
sat
1.8
suffer
openings
1810
matic
zt
angels
divis@@
reinforced
dwarfs
1795
genocide
reconnaissance
hunger
protective
after@@
milit@@
special@@
surge
astro@@
shine
serge@@
critically
akers
magma
elers
jungle
ify
breakfast
diff
guided
arid
parable
spanning
hawk
monitor
phs
numbering
asus
admired
communion
oro
iy@@
retiring
debris
assuming
grants
ogo
roster
lavender
masks
fathers
1842
bam@@
bergen
procedure
cooling
nal
ettes
determining
inas
claw
cht
prevented
porter
handled
promise
amendment
weber
schemes
reflects
auer
dial
stretching
cup@@
calcium
iest
pupils
supplied
nautil@@
leather
self
watches
ollow@@
fav@@
class@@
kle@@
1-2
suspension
steep
ocytes
eson
specified
am-@@
developer
makers
assume
vibr@@
analog
brightness
payment
thesis
thrust
touchdowns
grasses
informal
bleeding
protecting
ɑː@@
helium
glob@@
sexually
thinks
etown
etto
jar
infectious
gaining
acute
viper
330
paternal
co-operative
dio
precise
shut@@
listing
deposited
1,3@@
hex@@
ega
eran
republic@@
observ@@
kinetic
ult
memor@@
assass@@
arra
ord
dissolution
toe
reser@@
strips
touched
underwater
emaker
factories
pools
construc@@
sit
enders
eship
realizes
plantation
eyewall
wiki
alloy
omon
clerk
burn@@
opter@@
specially
1790
parach@@
crystals
mushroom
unity
byshire
battery
profit
similarities
credits
terrain
beans
photograph
pitched
crab
ook
knows
concerning
excluded
tec
eight-@@
hunted
graphite
desired
electorate
labeled
nebulae
criteria
wardrobe
counting
earing
prices
ogenic
midt
sleeping
evsky
orchestras
à@@
progr@@
deem@@
owls
traction
yss
aggressive
badly
eable
grains
introducing
repairs
fasc@@
thes@@
cic@@
mammalian
س@@
shrubs
sin
organize
tall@@
beings
ication
lers
inated
superstar
promotional
dive
iders
reopened
poison
marketed
tation
ʻ@@
dozens
sculptures
əˈ@@
turn@@
trop@@
correc@@
salmon
grac@@
1805
symphonies
thunderstorms
delay
utt
uniforms
mistake
chronic
myth
wireless
halls
revel@@
myths
reproduce
rankings
package
uch
carbon-@@
aboard
valued
cod
curse
refugees
ʃ@@
ogs
proportion
ле@@
botany
second-largest
ede
ually
fro@@
mov@@
1799
dynam@@
tilles
reward
amme
lecture
liz@@
aca
muddy
nine-@@
ome@@
stry
covalent
nationals
mortar
admission
sai
terminus
imo
stabil@@
graduates
sailor
ury
pig@@
renewed
cake
definitions
recover
3000
wicz
ов@@
observer
tributaries
variables
pollution
1822
cavity
orn
gather
insur@@
frozen
184@@
ovo
rowing
discovers
light-years
19-@@
spin-off
inge
accommodate
kidney
cosm@@
professionals
uted
conce@@
over-@@
narrative
person@@
agrees
navig@@
reduction
suits
reproductive
toads
princes
homeland
ici@@
secular
angu@@
collabor@@
flat@@
conversion
itated
flown
civic
airfield
aining
itian
jail
mosaic
maternal
allone
voc@@
prev@@
25,000
daytime
conduc@@
aris
meal
murders
world-@@
convict
pointing
frey
aur
eng
rational
1,200
sweet@@
puts
harvest
ograph@@
soph@@
distr@@
avoided
hospitals
super-@@
colm
chec@@
block@@
illustrations
merging
horns
emphasis
humid
ective
grey@@
sich@@
tenor
pinned
wickshire
rip@@
oding
newer
puzzle
futur@@
saff@@
loose
ی@@
impressive
advocate
proc@@
presenting
oxy@@
venues
client
elding
yu
stability
axter
ld@@
peppers
itos
eti@@
barracks
jor@@
penet@@
disputes
furniture
temper@@
abe
н
obar
levard
journalists
26.@@
enlarged
ju
oco
peti@@
mort@@
meteor@@
verses
colonists
fra@@
engeance
50-@@
än@@
viewer
concertos
gif@@
aled
mechan@@
iction
α
basket
padd@@
nutrients
proven
rupee
tailed
bok
mart
gee
flesh
pulmonary
did@@
lizard
135
most-@@
fireworks
rift
twelfth
religions
avirondo
oka
cherry
eld
chus
wrapped
swing
everyday
essy
north-west
folded
arium
consensus
drowned
riots
gameplay
autobiography
extrem@@
chuk
under-@@
elephants
resses
sex@@
imprisonment
part@@
totally
corporations
paying
mou@@
minim@@
itic
amphibians
dinner
combines
harm
targeted
identification
shorts
cork
fying
29.@@
findings
complexity
36@@
edy
clinical
ucker
flute
prairie
1809
seized
disbanded
year-@@
15,000
translations
revived
tham
bur
condemned
manual
improving
swamp
geometric
aerial
pled
attitude
herbs
ondo
complications
ellar
115
bop
ferns
albatrosses
basalt
ill-@@
deliver
barrel
commanders
spherical
settings
endeav@@
decorative
noise
opportunities
chord
precision
correctly
sediments
drought
ffs
provid@@
worse
tique
eze
engagement
ե@@
deg@@
spices
cooperation
supervis@@
tong@@
contender
erupted
signatures
spite
transparent
1791
oux
trou@@
lio
16.@@
options
traces
mys@@
captivity
land-@@
hausen
nursing
participating
oration
quest
gifts
ttem@@
apostles
artifacts
1792
suburban
sist@@
heath@@
lda
discover
ng
ir-@@
boroughs
sketches
190
chan
p.m.
onist
curves
eccentricity
convert
opian
ground@@
container
clinic
recruited
arthropods
consumer
phar@@
17-@@
finishes
fare
1808
guidelines
defenses
oxidation
happiness
chassis
willing
themed
depths
arcade
proximity
rik
mic
volunteered
stap@@
delegates
ά@@
shields
fitted
proxy
deemed
baked
array
method@@
searching
successive
sci@@
combine
weighed
affiliated
sten@@
gly@@
fix
refuge
2,500
juice
calculations
pursued
ن@@
stairs
dos
logical
manu@@
feared
reveal
forbidden
anchor
motorway
photographer
endor@@
climb
stretch
marched
cones
enzymes
ace@@
customer
ighty
issa
trails
astr@@
oci@@
esting
maturity
fou@@
adoption
exit
1823
mese
zo
punch
metallic
greens
coaster
geographically
proton
open-@@
miner@@
tens
oste@@
tributary
petroleum
glac@@
phylum
alternatively
emann
touchdown
similarity
therm@@
grams
psychologist
±
arians
cock
idad
communicate
ape
crest
indie
sec
preliminary
appro@@
trick
footballer
ips
1819
width
1801
prote@@
anis
transformation
boun@@
1820
removing
chambers
ipeg
therland
gren
ater@@
1825
én
basil
pupil
trumpet
blade
ve-@@
tled
niece
popul@@
ballad
rib@@
barium
deceased
resid@@
sue
perme@@
antibiotics
withdraw
restr@@
parameters
gut
refl@@
pard
east-@@
flags
03
73@@
alize
pei
torate
1827
caus@@
incre@@
shoots
gusts
odonts
nitrate
locality
cowboy
learns
biochemistry
angular
pushing
sham@@
adv@@
lett
birthplace
isse
crip@@
rearrangement
bulk
possessed
tender
deadly
narrator
stun@@
11.@@
equilibrium
wonder
consumed
explosive
investig@@
ع@@
glory
orous
closure
remin@@
occupies
sea@@
techn@@
dual
billed
edible
collegiate
arily
theropods
lemon
emo@@
200,000
push
28@@
agas@@
asses
itan
barbar@@
broadcasts
fabric
underside
airplay
itt
binding
arguing
dimensions
accoun@@
olk
textile
filed
ected
machinima
enton
biodiversity
estr@@
enjoy
tite
directing
silicon
somewhere
flightless
manga
messenger
für
boot
mothers
than@@
ń@@
recipes
underwent
airplane
demo
colli@@
frames
ono
profession
walks
52.@@
1828
tears
agen
explorers
ematic
tuberculosis
cortex
otam@@
estown
aza
richest
cros@@
acquisition
horiz@@
alto
aquarium
commercials
monetary
accuracy
arose
luxury
distribu@@
blast
salts
c4
nom@@
lead@@
entrepreneur
ς
tips
knots
eshire
poker
aic
12,000
lacked
sei
ug
absent
grandparents
quito
val
ritual
co-founder
ansen
reader
missile
seemingly
aná
ind
posthumously
adron
promising
lowered
anor
perpendicular
definite
cir@@
cred@@
associations
digit
essions
dough
dat@@
ən
ה@@
side@@
smouth
1772
infant
gateway
hala
rescued
165
ysburg
penny
itis
collar
activation
chang@@
bottle
cons
contributing
launching
zes
react
broadcaster
40-@@
iths
ull
emerging
bolt
nar
advantages
hopes
sovereignty
authorized
coni
experim@@
exceptional
traced
ulated
ammon@@
arsen@@
elong
stil@@
illing
recreational
millimetres
soils
famously
essays
scandal
ffin
beside
organiz@@
laying
damages
illian
cantons
179@@
vet
θ@@
coe
freight
nomenclature
cephalopods
eni
perfectly
ilde
comparative
lam
cliffe
spectac@@
investment
alised
legends
angelo
inclination
icted
ović
moments
physically
furn@@
ische
53.@@
allegedly
bias
dig
emerge
public@@
helicopters
slower
prus
personally
hull
induced
wl
investigations
gale
terrorism
herbivorous
exploitation
66@@
responses
pler
-and-@@
unic@@
twins
separates
shale
autom@@
feminist
wizard
nude
gal
tou@@
lowlands
partition
witnesses
linguistic
aned
displaced
fo
tum@@
pyg@@
correspondence
dict@@
tactics
metamorph@@
alert
differs
100th
kitchen
threats
sens@@
pigments
manip@@
sequ@@
ан@@
eternal
polymer
lunar
elliptical
state-@@
enable
congressional
decisive
tionary
organizing
tz@@
evalu@@
toll
corresponds
pier
tioning
fluor@@
ogan
breast
eler
pace
eston
contribute
horn@@
dra
lman
cian
aud
encourage
secretly
oan
consequences
ton-@@
casino
wounds
roses
hound
retrograde
chili
deeply
motorsport
laser
sprint
mina
renewable
moss
televised
nineteen
oran
charted
convent
ural
synthes@@
juvenile
cestershire
propaganda
adap@@
fact@@
ints
servers
rog@@
log
isha
vine
schel
ité
costumes
advancing
neutron
asaki
spor@@
duet
vertebrae
ecosystems
staying
145
frontal
opithec@@
text@@
okee
ared
ims
gins
amis
fortunately
о
respected
sé@@
gorg@@
competitor
ached
all-time
nominee
sis
hist@@
bal
sien
abor@@
thin@@
trustees
skaya
wetlands
potato
ellers
gentleman
auction
caf@@
1,5@@
descendant
parasites
wau@@
steady
2.0
relli
reception
master@@
dipl@@
ropolis
aho
permit
uro@@
pies
inver@@
explore
cris@@
12,@@
carriage
emission
peaking
biblical
wasp
citrus
shelters
preparing
apples
climbed
ר@@
speaks
implies
ár@@
feels
shed
affects
sail
flexible
ajima
altogether
spectators
lov
uranium
casting
exiled
copy@@
ingu@@
alike
highlighted
acceptable
nocturnal
potentially
1,4@@
ène
nets
domesticated
oss@@
nut
1804
hygi@@
triggered
chick@@
anaphylaxis
urinary
discrete
1806
manages
ometer
arrows
vers@@
ów
ր@@
turnpike
washed
spinning
halt
colorful
vertebrate
atoire
diam@@
iner@@
umo
fishermen
concer@@
sie
eted
candy
posi@@
insisted
acht
patient
pistol
berries
achen
castles
deposit
wishes
epoch
ı@@
aque
regained
examined
trams
greenhouse
decree
acker
graph@@
illed
convers@@
14-@@
tful
sids
expe@@
investigated
alis@@
chemists
adr@@
petals
phrases
shipped
forec@@
fascist
1775
thief
otrop@@
pour
operators
fts
fork
chip
rent
reigned
right-@@
param@@
decimal
oath
ा@@
tene@@
capitals
tera
careers
1.4
patch
counter-@@
retire
comeback
ogen
parrots
adan
consequence
adémie
occup@@
akov
progressed
rowan
neighborhoods
static
elongated
combinations
177@@
ten-@@
anca
fraction
suppl@@
regim@@
zoology
sustainable
streak
lein
promises
agus
perennial
tends
livestock
altern@@
750
enabling
thumb
squadrons
ende
peaceful
azzo
lengths
ented
cadet
dominance
comparable
posed
limitations
ailed
marck
ranch
gigan@@
profile
11-@@
freed
asing
gen-@@
pits
compatible
alg@@
func@@
neighbor
solitary
trafficking
2.4
white-headed
inquiry
registration
sediment
reflected
formats
supposedly
uman
ultraviolet
tery
transported
infinite
activated
pig
ocaust
pinyin
landings
insist@@
cleared
macht
crucial
afterward
was@@
rati@@
acia
melting
therapy
coin
wand@@
designers
ame@@
rim
ovna
selen@@
accompl@@
landers
courthouse
generator
decreased
insight
loses
0.1
ratt@@
18.@@
khine
enced
ennes
wartime
gai
1776
chen@@
ige
ested
imaginary
darkness
asser@@
err@@
chaikovsky
granddaughter
riders
29th
distress
antin
1807
ysis
vessel
convicts
fig
bisexual
tracking
drinks
pref@@
catalogue
ев@@
creators
exemp@@
imposed
oks
hydroxide
precious
refuses
contracted
installation
deliberately
evergreen
neph@@
ennial
06
ect
acles
30th
inscriptions
cart@@
supramolecular
saxophone
trips
commenced
foo@@
resembles
genetically
treas@@
marginal
1789
kner
aims
spare
shirts
onel
harmony
enzie
computational
abr@@
hipp@@
preventing
air-@@
brighter
ishes
relevant
ldogs
aning
subdivided
rebel
plication
^
echidna
enlisted
bells
solvent
usia
strictly
breeds
eventual
brigh@@
designing
precisely
loch
inserted
automated
cultivars
resolve
relates
informally
ocking
oners
cerebral
ар@@
sectors
employer
low-level
tramway
rage
globular
2.1
sheets
mint
vend@@
notorious
sauces
yana
haus
sued
ś@@
otype
oval
luminosity
washing
2.2
fake
olus
recognizes
collector
dialects
ciphertext
vitamin
ibald
ellip@@
bledon
gel
rail@@
edly
re-released
cocoa
downgraded
unconscious
iem
derivative
&apos;aviation
103
legitimate
sworn
yi
demonstrate
white@@
3.0
ysi@@
sophisticated
aster@@
13.@@
alumni
rov
ireann
ferm@@
confidence
hymn
urus
arguments
lovers
ivory
procedures
corp@@
ĕ
oped
gi
real@@
essie
antiquity
dynamics
onas
destinations
exceptionally
spray
ologies
inos
strand
philanthropist
bullet
spreading
260
steg@@
rematch
pengu@@
inging
sius
triangular
analogous
instances
coup
300,000
anu@@
whenever
advances
tyrann@@
iding
export
etus
fail
heavier
choosing
1.7
arre
implementation
isotopes
splitting
moisture
ple-@@
saves
coached
ashore
diabetes
urine
spectral
modest
companions
repertoire
adi
tooth
voltage
omer
rics
stern
heart@@
asu
knighted
schol@@
zon
fluids
soluble
yak@@
garage
kai
pipes
albatross
dengue
afford
laboratories
plankton
lectures
enie
discuss
dot
alignment
fax
flood@@
courage
stays
loyal
duction
oked
brac@@
oamer@@
phases
pression
19th-century
spectro@@
tle
25-@@
hand-@@
instinc@@
tuning
reunited
thorough@@
entally
ashed
banner
30-40
incub@@
tine
weights
igu@@
sent@@
intervention
researcher
positioned
peat
stationary
shuttle
sends
ois@@
prevention
monasteries
vacant
guar@@
antinople
dormouse
believing
umberland
raids
need@@
confron@@
sexes
north-south
voters
visitor
ced
sad
dairy
momentum
metall@@
185
north-@@
acks
protocols
iring
batting
modification
cadilly
resolved
lifting
thys
comfort
destructive
5.5
strati@@
elius
phor@@
main-@@
alities
epidemi@@
dealer
valid
eras
odon@@
grou@@
grazing
seas@@
calculate
outing
check@@
investigate
ibn
bourg
moon@@
harmonica
ature
tonic
77@@
deaf
theropod
coasts
norm@@
cobalt
math
absorb
systematic
omo
uke
oncé
seller
trademark
unlikely
dup@@
burger
aftermath
deepest
knowing
conferences
clade
vinnik
trom@@
augh
oya
ées
seating
awareness
eper
graphical
incomplete
embryo
wage
pes@@
cost@@
geologist
switching
boom
-k@@
snails
wet@@
fountain
parasitic
gras@@
onds
eh
succ@@
decryp@@
13,@@
1,300
nian
icious
cel
receptors
7.5
crescent
bacterium
combe
caves
duchies
yne
gy
darker
doctoral
persec@@
then@@
hydr@@
accompanying
ause
spy
daylight
magnesium
prediction
ometric
aran
babies
alom
absorption
ucle@@
neutrons
administrators
receiver
्
disabled
interpre@@
photovoltaic
installment
ambulance
anga
notion
1,9@@
fos@@
larval
assassinated
wax
yellow-@@
observe
iya
whites
entia
mbar
uth
selective
amine
schl@@
explaining
liam@@
ск@@
radioactive
cabbage
stuck
likewise
eastward
turb@@
advertisement
resting
separ@@
voir
urian
disp@@
ril@@
uncertain
communes
extraordinary
prefix
excellence
mentions
sic
feld@@
onna
uter@@
oils
blan@@
ambia
pastor
ecliptic
isms
homin@@
innovation
facial
technological
militia
disability
dial@@
tectonic
thriller
tail@@
tox@@
wisdom
audition
mya
apparatus
pulsar
propag@@
voluntary
brings
zir@@
1609
flare
al.
loaded
rendered
zy@@
upcoming
gorge
spirits
quin@@
integration
projec@@
perpet@@
isters
acidic
suggestion
formes
overs
comfortable
crowded
10,@@
stic@@
biting
oop
omi
cruc@@
dem
ditch
atoo
ru
liner
vely
tour@@
simplified
treasure
campuses
confined
innate
emotions
constitu@@
decom@@
flattened
bro
2.7
ignored
choreographer
instructor
cool@@
builds
diplom@@
humidity
freedoms
consoles
120@@
mutation
colloquially
benef@@
phate
replied
flee
rumors
honor@@
threatening
blocking
auti@@
lease
spanned
compensation
kees
eighteenth
liners
ods
iola
rot
shepherd
nid@@
utter
aman
documentation
click
correspond
rally
avalanche
celebrities
translates
hierarchy
shepsut
02
thro@@
convince
dragons
pornography
sharp@@
solids
age-@@
second@@
octopus
surrendered
melan@@
quotes
goose
probe
lamb
complexes
lineage
standings
scrap@@
commemorate
twenty-one
ridges
smen
oats
smo@@
ket
hormone
commanding
northwestward
oir
determines
itarian
carefully
reactor
distor@@
deity
coaching
uga
licence
self-titled
civil@@
castr@@
congregation
preceded
deserts
moist
impulse
lays
osphere
bananas
challeng@@
pert
motorcycle
ocar@@
gunpowder
1,6@@
nectar
acronym
ʻi
torch
ups
whatever
portrayal
machinery
prog@@
everybody
caterpillars
refer@@
canon@@
coding
tentacles
broadly
ingian
elty
lis
mountain@@
128
timber
mamm@@
digging
comprise
oki
capturing
wolves
crossover
bunker
pley
dend@@
ribos@@
guit@@
substitute
fore
torture
disco
beats
surname
guer@@
universally
accordance
fails
1779
hut
biologists
atur@@
yx
number-one
oway
ч@@
aan
herring
rah
uscan
ashi@@
bracts
activists
straw
exceed
uras
1778
ethanol
accent
antes
oor
rolls
count@@
lecturer
superhero
stationed
orum
seven-@@
ne-@@
25th
habi
offic@@
ttingen
nowadays
elevator
feral
influ@@
rainbands
human@@
framework
obsidian
tex
life@@
hydraulic
liquids
indu@@
dru@@
106
tees
amusement
axial
bullets
technically
esque
letic
cousins
foremost
triumph
civ@@
shrub
undertaken
detection
taxonomy
atro
commentator
cellist
butter@@
aggregate
ни@@
ward@@
vipers
lawn
gt.
tended
precursor
luminous
mentor
lithosphere
cles
assets
memoir
ر
kitt@@
cognitive
hyperbolic
unt
ipe
retains
ulates
chimpanzee
makeup
accelerator
defining
fierce
elf@@
ection@@
oldt
turbines
funny
dimin@@
continuation
49.@@
diff@@
careful
rif@@
with@@
acceptance
answered
manif@@
eous
entertainer
interact
foun@@
48@@
prud@@
adulthood
stretches
א@@
fatalities
inous
ushima
talented
ş@@
drifted
thers
geneticist
accepts
acceleration
reddish
staff@@
acknowledged
idel@@
spears
blamed
anti
skoye
hectares
humanities
panels
troop
bend
ease
rites
processed
burnt
pes
fees
eterre
28th
happ@@
weighs
cobra
slight
undisputed
landmarks
ishi
harsh
rendering
goats
bery
atra
turbo@@
martyr@@
inter
simpler
enterprises
botanist
gler
220
salad
story@@
nesian
dent
wash
shoulders
ench@@
idal
eding
antic@@
photo
kinson
gear
pioneered
supernatural
1770
55@@
conjunction
accelerated
shoe
banding
ahu
contrac@@
ð@@
bins
alter@@
circul@@
tres
occurrence
âtre
tioned
chimpanzees
substrate
shocked
apartheid
wavelength
resumed
tigh@@
philosophers
icity
laun@@
narrowly
depicting
1777
sellers
adem@@
ific@@
bre
ove
ety
rode
longtime
118
you@@
thir@@
ouse@@
distribute
routine
ital
helicopter
depot
witnessed
uvi@@
constituency
ishments
1781
ophone
yerba
extensions
walked
squam@@
sketch
39@@
noun
aus@@
presumably
migratory
fast@@
thunder@@
desirable
uvian
stric@@
dispat@@
rians
submerged
affili@@
entals
supernova
precedent
predatory
14.@@
phic
moul@@
cens@@
26-@@
replic@@
mirrors
processors
ani@@
governess
invitation
imagery
statute
approximate
sufficiently
agged
ool@@
lingu@@
touching
uncertainty
telescopes
objectives
ashire
telecommunications
matched
vaccines
ision
tiers
rim@@
steen
cue
litter
outflow
folklore
climates
310
live-action
ushing
feather
radial
nico
eves
stitutes
warned
a.m.
terrible
ian-@@
butcher
bear@@
astronau@@
eld@@
dible
sty
ionist
pland
bent
ounce
1765
autonomy
limiting
prayers
flash@@
blog
microscopic
monitoring
etz@@
casc@@
pavilion
libretto
achieving
ribbon
bank@@
miniature
ppers
cry
succeeding
badge
invasive
uals
fortified
clip
pad
starter
magnetism
sevent@@
tomatoes
miners
112
eners
prosperous
highest-@@
gav@@
interviewed
steam@@
amba
summar@@
printer
habits
corridor
geologists
aism
time-@@
owitz
hung
innovative
supervision
pers@@
deciding
borrowed
issuing
emitted
ciphers
dn
annon
igen@@
schooling
ˈɡ@@
keen
evolve
composite
souls
isotope
crystallography
twist
well-defined
я@@
scri@@
sunny
resurrection
explo@@
bugs
side-@@
pioneers
chy
outward
unrelated
oko
scholarly
tablets
idelberg
bug
eliminating
noon
retri@@
consultant
mentally
transform
glucose
well-preserved
pitcher
eukaryotes
19.@@
grasslands
rumb@@
hyn@@
runner-up
modeling
wingspan
ity-@@
blades
albu@@
lander
marnock
ellius
instruc@@
stained
eliminate
decor@@
e4
catching
struc@@
elo
wonderful
itty
diesel
117
asi
sentences
caldera
cadmium
28.@@
aš@@
1793
knife
spikes
ة
tenberg
erne
affiliate
inen
awak@@
advisories
mei
seab@@
habit
anal
ux@@
thick@@
ylus
lateral
ahs
egovina
heaviest
strategies
ility
accum@@
proph@@
worlds
culturally
hardcore
mete@@
eley
spiny
sear@@
gout
costing
lyric
counsel
subcontinent
estuary
linguistics
textbook
considers
warming
trucks
realism
knockout
hardt
panc@@
editorial
se-@@
assist@@
skate
inations
artwork
tatt@@
vinsky
ittle
geons
enzyme
arri@@
obo
commod@@
oblig@@
metime
bite
counterpart
tad@@
vener@@
utility
realistic
bans
vice-@@
ogh@@
bloody
specialty
semin@@
1.1
print@@
observing
க@@
seated
pollination
daisy
104
lon@@
gig@@
skulls
front-@@
builder
lifespan
nominal
ər
sensory
ei@@
ambi@@
phr@@
glove
landscapes
tants
submit
metamorphic
workshop
mathematicians
parental
moun@@
alter
forks
respiratory
teenager
constituted
explicit
gymnastics
rick@@
spin@@
aspir@@
nomin@@
conditioning
amura
meadows
chos@@
mandatory
nominees
fantastic
ply
hetero@@
candle
villagers
stand-up
bare
meth@@
cot
yar@@
bled
detached
grossed
3.3
lar
eminent
photos
resin
auri
subdivision
bushranger
-by-@@
strikes
ospels
vacation
skeletons
pneumonia
tubes
80s
thermodynamics
justi@@
expeditions
promotions
ம
guez
stow
nomadic
15.@@
27@@
reflection
dong
catalyst
enge
-2
coordinated
reconc@@
dragon@@
contra@@
salamanders
carcin@@
basement
tsville
parall@@
passi@@
ghos@@
cantilever
embarked
staple
accurately
physi@@
tear
chrys@@
ingredient
ellows
petty
partisan
atti
chok@@
boa
beef
prohibited
exploring
wears
shifts
northeastward
phyl@@
27.@@
cane
chlorophyll
195
38@@
crocodiles
direct-to-video
banking
sank
spir@@
vier
controllers
iga
fused
tyres
-off
preparations
mast
omal
cubes
eans
prophet
doc@@
cloth@@
nutri@@
brush
disqualification
motiv@@
departed
wana
wedge
winter@@
pati@@
republics
atrice
strokes
reject
sour@@
banana
1860s
patches
kangaroos
sulf@@
muscular
valence
archy
dane
pursuit
holders
plaque
iciary
interval
24th
paleontologist
immigrated
ichthy@@
viola
tones
encompasses
libr@@
transpos@@
reggae
epis@@
appe@@
diploma
ropes
potatoes
eucalyptus
ice-@@
passive
eleg@@
angi@@
flourished
skilled
ethics
week@@
adle
discrimination
compiled
phosphate
grad@@
dukes
capuchins
π
congressman
warmer
gil
éon
dock
1787
1870s
sbury
vibration
announcer
50.@@
vocabulary
microscope
der-in-@@
late-@@
consistently
olig@@
quit@@
welcomed
tish-@@
proportional
sequels
matching
recreation
kernel
desk
canc@@
vand@@
ycl@@
ipper
oney
missionary
jung
amo
photosynthesis
fuels
magnets
combustion
tadpoles
mom@@
popularly
emia
afraid
fertility
par
ward-@@
ṭ@@
shortest
rius
yas
equatorial
olph
blaz@@
tendency
accession
ignor@@
retaining
ili
ław
istically
beaked
administr@@
trench
tang
texture
logarithmic
ogue
myself
pups
60-@@
atism
breathing
three-dimensional
eux
likes
bicycle
survives
ber-@@
satisfied
resist@@
eping
persisted
premise
paired
ugh@@
battalions
methyl
ragtime
quark
journeys
ould
clients
prefer@@
ucket
amazing
teens
mustard
cart
criticised
postcode
1780
best-@@
dominate
pottery
heiress
stair@@
compos@@
ombe
predict
verb
adds
apal@@
ranger
37@@
nationally
mythological
petro@@
affir@@
uph@@
09
iodide
ographer
residing
generates
anists
airliner
soda
andro
sands
symmetrical
24-@@
ë
curriculum
shan
chairs
hap@@
neum@@
suited
inte@@
191@@
synchrotron
čević
tired
patented
herd
ranged
weak@@
buster
modifications
rebels
isolobal
discharge
produc@@
conversation
ش@@
wee@@
peanut
markup
goodbye
accidents
aut
aure@@
eli@@
brackets
rants
mined
2009-10
grenadier
flagship
grossing
wanting
大@@
ional
olulu
civilizations
co-founded
auto@@
stag
omers
60s
robust
1811
transm@@
sealed
aran@@
sac
rests
ogne
hypertension
ign
diver@@
failing
ovir@@
ه@@
pos
devotion
listening
elos
two-year
-day
replication
iev@@
backup
jokes
pharaoh
vegetable
adopt
saf@@
functioning
2.6
interstellar
sque@@
yna
paved
escapes
ي
denoted
ultr@@
eto
sseldorf
khwa
virtue
inception
urst
anthropologist
oster
1.0
fashionable
thoughts
craters
chiefly
lef@@
shooter
argue
gua
reversed
belly
brilliant
stamp
centimeters
vascular
stop@@
somebody
wer
negoti@@
lifelong
constructors
py
wrestled
resorts
surpassed
cho
fem@@
weaker
ror@@
hier@@
pilgrimage
harder
tele@@
insular
1788
balanced
odrome
†
additions
bom@@
terrazzo
communic@@
ringed
2015
kidnapped
orang@@
aring
flint
poster
qi
realize
prolific
inghamshire
italics
convective
tensions
ogh
rex
pock@@
accordingly
disks
adviser
γ@@
nave
ewski
southernmost
clu@@
illegitimate
eb
demanding
24.@@
antly
galactic
rance
ن
boots
aguar
mole
consent
advertisements
jec@@
uy@@
spectroscopy
branded
iferous
caterpillar
talents
magical
peas
enza
requirement
carnival
abundance
omin@@
400,000
comment
executives
bomber
itay
meditation
unhappy
dead@@
what@@
intervals
lins
symp@@
nationalists
containers
polymer@@
velines
1783
skis
rifles
tas
1771
anović
tresses
damaging
bra
infants
oviraptor@@
thik@@
domes@@
cing
hereditary
longitude
th-largest
feudal
β@@
stepped
tyre
ift
id-@@
gart
peac@@
orchestr@@
strains
erectus
toria
transcription
telec@@
ingle
pyro@@
intermedi@@
iced
ophores
60,000
genius
hang
otho
luck
yal
herb@@
ович
pathogens
dialogue
umber@@
quotations
trait
marching
ibility
susp@@
wished
chers
desp@@
recipients
azza
rique
ankle
akura
polyn@@
vie
wav@@
nai@@
sensors
convey
isomers
recap@@
vicinity
infamous
imported
oise
abbreviation
forget
loans
install
theological
sleep@@
revolution@@
fies
ogn@@
payments
cardi@@
ounder
itory
edits
rabbits
multiplayer
club@@
surrounds
opium
liter@@
enhance
apex
crypt@@
ˈd@@
coron@@
210
realms
spectacular
ш@@
dys@@
akin
extrac@@
kland
speculation
fru@@
sanc@@
anos
certificate
optic
witches
leased
cheer@@
gens
keeps
attracting
delegation
folding
approxim@@
cyan@@
esville
90s
emphas@@
ounds
wonder@@
sha
entities
stripped
ware@@
27-@@
batteries
demonstrations
film@@
soloist
indle
synap@@
judged
spice
54.@@
expect
adul@@
posing
orb@@
enhanced
announcing
tropics
decreases
distur@@
aday
south-@@
ecraft
podium
shutouts
jiang
chromat@@
ograph
onica
turing
devastated
tain
fronts
five-year
wear@@
unexpected
irates
anticipated
odor@@
prose
nonetheless
epit@@
literacy
pulp
itable
umbrella
adop@@
compose
second-highest
lumber
arl@@
financially
deployed
vapor
walden
dear
focusing
prophecy
cite
endurance
imply
proposals
incorporates
ahu@@
contemporaries
surveys
correlation
hof
nitz
32-@@
zan
sonian
planting
deep-@@
body@@
usions
dez
labourers
pods
elev@@
taped
otting
hears
dental
dug
cereal
nm
inhi@@
solving
slang
assessment
obs@@
dramatically
nutrition
ming@@
tree-@@
collap@@
valbard
sentim@@
vac@@
nu
ulating
département
178@@
chs
risks
pilgrims
mitt@@
commissions
ío
reptile
nel
tactical
incorporating
acti@@
icts
hiber@@
vice-president
ño
drop@@
asylum
struggles
leston
bodied
terrace
disrup@@
sford
psychiatric
chorage
veal
relics
profits
swept
bubbles
167
playable
fres@@
imagination
gloves
ding@@
stealing
atitis
indirect
addresses
ein
behavi@@
lau
bursts
headquartered
garrison
ophila
aheim
eidon
provisions
crocodile
alleg@@
antibodies
beaver
iano
sur-@@
energetic
uson
rainforests
feed@@
-tennō
atum
timpani
traps
one-third
remarked
ktor
for-@@
flank
pharm@@
eum
bibli@@
ied
ˈs@@
elan
submission
া@@
metabolic
enforced
pt@@
villain
ffy
fourteenth
eces
ticism
apprentice
cultivation
differing
20th-century
15,@@
shades
rape
belts
ood@@
alloys
skins
defenceman
z-@@
oted
backstage
aux-@@
ejac@@
swamps
ز@@
recipe
ifax
806
aked
northernmost
remake
illings
medic@@
comprised
migrate
robbery
dirt
nus
cod@@
mascot
purely
promotes
heed
homosexual
plain@@
expressions
vision@@
equals
99.@@
coupled
encounters
otypes
sib@@
persistent
resemblance
cottage
preference
moder@@
overlooking
previ@@
ocr@@
protects
requests
toothed
smell
árez
deuter@@
alling
stad@@
athleen
burrowing
pressing
eccentric
insec@@
führer
bub@@
cu
airplanes
allow@@
quarks
long-time
elect
nod@@
22-@@
onn@@
joke
enk@@
iling
alus
eder
empires
57@@
incis@@
man-made
oshima
smok@@
mett
papyrus
mood
acom
deviation
reflecting
lawyers
referendum
guides
lier
comb
έ@@
anarchist
polls
emphasized
histor@@
resign
heral@@
unification
dolphin
idation
aloa
eney
crude
pedal
urged
rolled
thia
nos
dad
bladder
ilit@@
treaties
moderately
ara@@
ssel
revealing
copic
jug@@
sixty
phones
inferior
torial
idity
lea
zzo
conifers
-1
intercourse
amin@@
ль@@
lineup
1786
aces
treasures
perate
igs
salesman
parody
gene@@
flame
baptized
gradient
138
reki
fitting
proportions
chances
illustration
productive
employee
caliber
sponsors
newest
barred
specialised
grassland
ous-@@
ocratic
rath
loyalty
now-@@
eval
sculp@@
sdorf
suggestions
hanged
two-thirds
fract@@
cure
nobles
är@@
bison
theorist
anonymous
dium
bos
complained
jum@@
iches
civile
settling
comparing
ss-@@
boyfriend
semiconductor
vil
bearded
ro-@@
quir@@
ologna
lanes
ags
asmus
joints
hra
inflation
tains
3.7
concentrate
colder
ி@@
ер@@
azz@@
shoo@@
aly@@
packed
confirm
ued
commands
rockets
123
hamm@@
deep@@
depicts
markings
icy
pleasant
renovated
entary
coy@@
successors
etz
tilities
salvation
வ@@
taxation
oba
cameras
enham
ambiguous
brack@@
beloved
depl@@
hash
deleg@@
undle
cryptographic
sigh@@
schaft
escent
immer@@
specialists
utenberg
uckoo
iconic
compare
estation
coel@@
lightenment
ib
epi@@
occupying
antimony
com
whitetip
rebuilding
probable
scarce
other@@
capability
sper@@
pigeon
cig@@
uda
139
1796
υ@@
abandon
til
awn
larva
itiba
lah
adher@@
lamps
dram@@
mausoleum
ej@@
thy@@
autobiographical
expression@@
healing
nucleotides
locals
short-beaked
e-up
guitars
resided
defences
deposition
osaur@@
identifying
mini-@@
harmful
nance
pilgri@@
rae
prompting
cong@@
literal
recovering
emic
actus
fossilized
recognizing
contraction
rolli
111
atis@@
re-elected
1200
alisation
argues
fus
oidea
susceptible
appropri@@
unaware
secrets
blank
exceeded
finch
bune
uni
ɾ@@
spok@@
policemen
responsibilities
needle
psycho@@
magenta
mara
avo
concentrations
trusts
slip
recoun@@
contacted
glaciers
closes
candi@@
analogy
za@@
adm@@
thread
sible
empirical
bluegrass
rigid
composing
itaine
statis@@
anning
chu
boycott
beverage
brewery
1680
viceroy
kley
3.6
emorino
refriger@@
ethical
timing
arine
appeals
point@@
histories
cider
omim@@
symmetric
istics
highest-grossing
casual
proj@@
dyn@@
peg@@
curtain
coar@@
assed
enary
painful
crush
filmmaker
oe@@
drunk
flour@@
spell
quartz
oup
opteryx
anza
best-of-seven
withdrawal
behavioral
gradual
welding
ipped
conscious
cric@@
ɐ@@
discussions
atten@@
overcome
introduces
near@@
ogene
famed
pleas@@
inhabit
unnamed
indi
abdomen
puppet@@
simplest
tapes
jumps
phur
dromae@@
inks
iodine
colon
ionic
reunion
committees
deciduous
exotic
phys@@
intim@@
lus
acquire
sanctuary
corpor@@
gymnas@@
lacks
classi@@
attachment
debated
formers
ulous
eira
1750
ettel
avier
onders
pitches
picks
upright
temp@@
princely
nesting
maybe
bombardment
acquain@@
aze
recomm@@
sheriff
atio
termites
tent@@
petition
airborne
eyan
recognizable
front@@
nursery
slowed
р
aird
asserted
numer@@
carbocation
tack@@
rington
integrity
upgrade
ánchez
eclipse
tuna
burrows
coffin
foliage
spire
solved
vers
peer
engers
savage
tee
lv@@
blown
deletion
avoiding
devised
compass
alcoholic
chalk
tetrapods
uh@@
questioned
iers
bunal
oqu@@
56@@
ambi
biosphere
osperm
fragment
pizza
wed
rens
antennae
ecoregions
emin
unfinished
be-@@
generals
treatments
yli@@
nake
tionally
dwelling
plug@@
ingdon
opatra
basins
catch@@
employ
spiration
rip
vamp@@
salamander
pots
ution
cruel
apolog@@
small-@@
presumed
arches
struggled
rung
fli@@
limp@@
λ
arter@@
salinity
trainer
aleigh
anterior
stressed
usive
victorious
canonical
trol@@
2,8@@
ourt
94@@
1600
incarnation
cony
ornamental
█
stem@@
6-2
ß
music@@
buying
asaurus
isc@@
sink
dew
naeus
pirate
prosperity
consonants
cough
albeit
clear@@
observers
ı
initiation
terian
anticip@@
outskirts
ophile
dedication
saturated
efield
108
hard-@@
paths
rum
ʊ
princip@@
boiling
ɑ
concent@@
speci@@
axe
я
holidays
paste
ramp@@
semi-finals
3.4
supplement
1784
averaging
iform
ayette
seau
wrong@@
syndicated
worried
0.3
merge
2,4@@
pray
automotive
opods
supercontinent
role-playing
ethn@@
gau@@
scorer
geer
roraptor
longest-@@
proprietary
cartilage
predominant
escort
sugar@@
natives
ossa
superstars
driv@@
market@@
ebr@@
royalty
egg@@
projected
captive
implem@@
tent
ajan
scutes
ел@@
coordinate
localities
pencil
disc@@
2008-09
enet
re-election
undergoing
observable
anthrop@@
lawsuit
ified
35.@@
displacement
fundam@@
intensi@@
acio
280
1998-@@
intern@@
confl@@
advocated
ld
hemorrh@@
chet
chondroitin
uncommon
differently
loading
polymers
istry
muth
kets
stiff
eny
aggression
ج@@
steadily
stocks
erer
attering
microorganisms
.0
witz
challenging
bok@@
characterised
half-brother
saurop@@
ael
coil
keyboards
18,@@
ocl@@
cartoons
prosp@@
shed@@
dus@@
locate
explosives
defeats
translator
float
chio
ц@@
sap
implied
incumbent
cosmic
evid@@
thirteenth
ninet@@
advocates
gills
blindness
26th
commit
eine
cheon
clergy
publicity
socially
custom@@
abalone
pedestrian
loving
mitochond@@
omb
veins
d4
eren
bipedal
inscription
applic@@
1794
resembling
instantly
sensi@@
rushed
eukaryotic
complement
fungus
actresses
ven
authen@@
ocation
agon@@
twenty-five
vinyl
cip@@
co-written
patriotic
demonstr@@
integr@@
speeches
archaeology
psychiatry
uous
inspection
taxa
invari@@
uded
anist
impressions
coats
postcodes
instrum@@
canvas
ulative
abalu
definitive
aliens
opol@@
bombed
gation
kas
oza
acet@@
emont
great-grandfather
lobe
digestion
governance
packages
proven@@
tore
boiled
rels
reactive
runners
gey@@
17.@@
avant-garde
photographed
epist@@
trich@@
parrot
physiological
cooperative
ballot
gastro@@
finalists
кс@@
carri@@
congreg@@
acea
tion-@@
savann@@
dentist
arise
titude
yield
charcoal
twenty-four
agi@@
guidance
solvents
counterparts
114@@
blend
disabilities
woodlands
reacts
contests
tilt
ل
symphonic
marches
ulia
isers
dendritic
inclined
evna
250,000
aching
clou@@
oxides
detector
ikh
caches
confid@@
brachi@@
travellers
craft@@
zhou
plun@@
totals
mol
uffle
empl@@
aler
neurons
órdoba
rine
inald
tooth@@
olin
hol
uting
merchants
oboe
tomato
bench
2.3
ampy
algorithms
atte
aying
pent
co-wrote
agging
borg
107
県
east-west
professors
ernsey
cheap
consolidated
proud
banded
forc@@
calm
locks
aldo
lens
alers
persu@@
identifies
embryonic
originating
retreated
everywhere
straße
longest-serving
abal
jumped
tidae
grass@@
ambitious
atter@@
so-@@
speciation
institu@@
ight@@
scav@@
legi@@
expan@@
aba
shade
default
anarch@@
skir@@
ākaua
marriages
bags
667
bli@@
ounced
vor
repaired
556
collisions
http
spi@@
follow-up
proceeds
clues
slides
bugle
interred
dictator
now@@
र@@
vacc@@
explicitly
intendent
south-eastern
traders
theor@@
mankind
line@@
transferring
verifiable
tackles
quote
ف@@
worthy
prodigy
1603
gec@@
line-up
fraternity
1638
iae
gnard
ry-@@
sugars
aden
protec@@
ugawa
rainy
aphy@@
passages
gambling
ová
physicists
defenders
councillor
real-life
fast-@@
practicing
halves
compil@@
cement
ests
firearms
oud
therhood
proclamation
eong@@
з@@
ppen
filaments
inclusion
endale
accelerate
handles
isch
-8@@
doubled
abol@@
rotatory
onius
catalog@@
half-life
iously
groundwater
weigh@@
hypercube
kne@@
dimension
oder@@
scripted
ode@@
gath@@
assumption
kly
ge-@@
rhen@@
bubble
musicals
dings
clad@@
threaten
locomotive
ɪ
adjoining
aband@@
year@@
apa
14,@@
swana
barely
neglected
fats
bler
delivering
custody
otta
marshes
entive
discre@@
prosec@@
son-in-law
מ@@
hero@@
resides
diagnosis
globally
recur@@
e-winning
confluence
glow
disorganized
emergence
seam@@
guarantee
1759
indication
116@@
expos@@
batter
2-1
odus
53@@
forgotten
syst@@
5000
malaria
tial
ónica
cres@@
aghan
stad
breakdown
emus
compet@@
rails
anner
gaming
8.5
ancement
ower@@
tuned
roofs
feud@@
faction
dix
orship
stole
spirit@@
complaints
uba
nitro@@
scall@@
singular
effectiveness
icians
barrels
repeat
22nd
⁄
1785
inee
hiatus
kway
spectrometer
aly
parables
cau@@
arises
vent
sect
gris
end-@@
genomes
gend@@
colleague
onians
hime
journals
orchids
exercised
eded
calcul@@
dang@@
cleaner
ʲ@@
&lt;
drying
bankrupt
tids
hormones
discussing
smil@@
ples
aneous
epidemic
χ@@
accidental
bravery
maize
clips
ded@@
hips
tray
fic
carpet
thri@@
ardy
mobility
transist@@
shell@@
missionaries
isk
sweat
constra@@
testimony
denomination
flu
theore@@
ор@@
therly
magnificent
avers
η@@
thel
oca
menade
threshold
eco
crushed
igo
atically
esman
laus
mouths
sells
taxon
chat
superiority
disciples
descriptions
esday
pear
dissipating
awa@@
bival@@
3.9
bots
chair@@
ided
nity
twaffe
dwar@@
correspondent
horse@@
&gt;
1985-@@
transl@@
roll@@
shap@@
ا
yoga
postal
1752
1900s
adracharya
oly
ecs
multicellular
sixteenth
mae@@
colonization
gestation
arte
invaders
uhin
variously
predictable
reconstructed
enco
distingu@@
bekistan
oys
eger
competes
uff@@
hilev
stool
3.1
shad@@
assa
ophysical
recruit
eport
ostrac@@
əs
arising
eurs
stance
applying
scenic
break-up
م
1773
part-time
inders
inhibit@@
cilia
foothills
antiqu@@
sacks
agle
asion
jewels
care@@
repeats
surround
operatic
onen
record-@@
opl@@
jewelry
-in
omniv@@
230
imaging
commitment
squirrels
aided
veget@@
elap@@
reduces
tei
sauropods
tt@@
dal
polymorphism
popes
phosph@@
mass-@@
ideology
0.00@@
23rd
hak
backwards
etes
barn
chman
lengthy
artic@@
elastic
chaired
allegations
discs
sorts
reluctance
motifs
3.2
biof@@
ever-@@
employers
dorf
ely@@
shot@@
long-running
publishes
myri@@
estim@@
reduc@@
tub
oxidi@@
waltz
ressing
ake@@
ieu
cultivar
iserweight
coli
innings
emoticons
ézanne
emat@@
ی
finite
yth@@
agreb
trends
orrow
uncovered
clim@@
osta
kilometre
teaches
adier
refined
ssohn
unitary
athe@@
onom@@
circum@@
clauses
reviewed
theus
governmental
uro
suspicious
meas@@
share@@
ć@@
mani
ocles
excavated
pping
coloring
les-@@
attracts
chooses
reagents
satis@@
clusive
acs
essen
ground-@@
abis
masterpieces
200@@
deposed
adena
sickness
olls
swords
proceeded
beginnings
masturbation
opes
ulla
iseum
spra@@
oured
inged
dams
ück
differentiation
presid@@
vagina
missiles
satirical
propulsion
1723
baseman
athlon
homosexuality
refusing
otihuac@@
inverse
expired
bons
seeks
fibr@@
metry
upside
29@@
retro@@
pressures
ophiles
yssop
disrupted
dough@@
dit
suites
yons
tortured
anchored
obi@@
auxiliary
feedback
dye
manship
absolutely
excavation
iev
iate
defender
vet@@
nails
ri-@@
crypt
lez
infancy
ius@@
inser@@
pamph@@
predecessors
doubling
qualities
eroded
where@@
terly
tusks
explosions
naturalized
densely
overtime
portra@@
onset
2-0
sway
employs
tragic
govern
aux@@
lamp
validity
submarines
blue-@@
relied
placement
vinegar
airn
email
aeronautical
four-year
zation
relay
2004-@@
tarian
slaughter
typh@@
initials
toxins
ecozone
manifesto
cocaine
denotes
divides
ortium
regulatory
hou
2,0@@
zio
humanitarian
sinki
temporal
ropol@@
faint
icing
կ@@
exposing
pyramid
sally
hover@@
4.6
esk@@
unite
sil
enjoy@@
175@@
child@@
baptised
edged
oud@@
methyl@@
aph
1.9
amps
gym@@
fifteenth
aum@@
fen
metal-@@
thou
eward
subtle
ē@@
semen
atri@@
eus
ione
brackish
bombings
inscribed
outlets
anto
wheelchair
lova
syphilis
coordination
113
iba
membranes
reside
ultra@@
cents
builders
highlight
nemat@@
ы@@
orca
ews
epic@@
overview
home@@
rides
plumbing
lesson
skyscraper
mouth@@
improvis@@
torpedo
37.@@
6.5
overthrow
latitudes
planar
onward
smallpox
knock
ación
anthropus
bureauc@@
negotiate
fears
ynx
presided
twist@@
exec@@
27th
yr
prevalent
3,500
technicians
1840s
declar@@
etics
kick@@
nis
runways
ration@@
pneum@@
unexpectedly
stuff
vide@@
lyrical
tices
albedo
utiliz@@
installations
23-@@
6-0
me-@@
passerine
rented
noodles
yrinth
175
eful
rained
excavations
negut
caecilians
obli@@
oogie
crack
knees
programm@@
fewest
ør@@
violations
recommendation
evo
rhythms
principally
trem@@
curvature
ー@@
seminal
anthropology
uli
-on
salam@@
baum
ruined
teous
umin@@
gues
verbal
unemployment
folds
geme@@
recycl@@
two-time
2007-08
aj
spends
consuls
antlers
terror@@
accommodation
upstream
deliver@@
regain
inidae
ocephal@@
egan
philanthrop@@
psychiatrist
isia
implement
conquer
ophys@@
clef
arthritis
entom@@
blood-@@
narrow@@
icting
announce
see@@
outcome
astes
permits
metabolism
landslides
trude
yson
appers
siz@@
groove
conceptual
outline
ognath@@
menu
sinking
bipolar
gravel
irrigation
disfarne
hammed
out-@@
buds
earnings
tig@@
nius
spun
basically
ention
accusations
109
enly
roasted
ahashi
lenti@@
couples
swim@@
horri@@
hottest
scal@@
brightly
tablet
magnet
lips
halfway
omorph@@
quarter-@@
coloured
vertex
deacon
human-@@
acetyl@@
otti
ע@@
alcohol@@
1675
comer
magnet@@
quas@@
co-star
1850s
preparatory
1740
vass@@
symmet@@
satisfy
ahoo
exceeding
rejection
ɐ
gent
ulum
mis
phenotype
discover@@
seaman
brück
jok@@
inaugurated
gains
tice
advent
iat@@
intersection
screen@@
capabilities
1745
lefish
intentionally
boim
elegant
1,100
grinding
geothermal
1747
elderly
manganese
intent
pyl@@
ummy
1800s
ackers
escal@@
este@@
üc@@
porcelain
necess@@
overnight
robe
ու@@
discusses
atic-@@
residences
uel@@
reluctant
guess
unc@@
attribution
tisans
lice
phagocy@@
irvana
peasant
granting
aptor
formulated
askaskia
antry
fting
assem@@
celebrating
122
farewell
270
primate
songwriters
cogn@@
imov
pyram@@
prospect
hostile
excited
bei
battling
disappearance
illustr@@
shri@@
treating
subjected
ம@@
ow-@@
efficiently
bacteri@@
1707
incidents
325
realist
uts
ennials
invading
agawea
bordering
0.4
shoals
beams
islets
aci@@
suffix
sed@@
conjugation
andic
crystalline
marsupial
eater
seeded
&apos;if
eved
anage
sden
precip@@
photographic
patronage
supervised
palate
ˈt@@
silon
centi@@
29-@@
pum@@
121
usen
ая
licensing
ecclesiastical
exchanged
seri@@
contacts
ύ@@
sham
217
eneo
ired
dner
finalist
ayed
tracts
thee
stituting
entin-@@
ramatta
bund
positional
5.6
natron
loid
stimulus
ories
dose
picking
immor@@
bock
recre@@
dians
iaceae
famine
exist@@
same-sex
blood@@
shelves
meanings
essive
dining
forehead
hoping
pancakes
stimuli
hl@@
capac@@
arenas
mids
bund@@
unstable
lace
asm
barons
nesses
offerings
entials
justified
clocks
intensify
articulated
invol@@
focal
expon@@
carnivores
pers
diamond@@
1986-@@
starburst
yog@@
maison
dir@@
symbolic
migr@@
analyzed
reciproc@@
prohibition
ratified
oscill@@
jealous
abstraction
failures
ucking
iving
apo
hatching
mortal
respec@@
immort@@
mid-level
attend@@
chips
biographical
conquests
freestyle
plantations
nin
kum
paleontology
unprecedented
indigo
migrating
bypass
encouraging
ineau
realizing
piers
horizontally
spear@@
cutt@@
plots
twater
φ@@
punctuation
ideals
atures
helum
templates
idian
type@@
irrit@@
cryptography
anom@@
contrad@@
torn
figur@@
garbage
angelist
annel@@
0.6
pret@@
rele@@
disagreement
prelude
stake
sunk
investigating
stud@@
predation
minimize
transi@@
incorrect
bloom
20s
anas
sapiens
uninhabited
comets
cruci@@
ey-@@
1713
4.9
bik@@
tetrahed@@
robot
projection
jatjara
550
admit
lethal
ingway
nucleic
veau
ombstone
broader
atop
angul
possessions
alpha@@
relate
enduring
pest
flip@@
cuc@@
gles
1730
bioge@@
meteorology
taxonomic
scalar
ĕ@@
low-lying
accompany
extraction
-3
jub@@
adillo
lingen
fing@@
mitosis
unveiled
6-4
pores
ourable
attitudes
shower
assing
battlefield
saÿe
assign
originates
ozoa
137
ist-@@
engraving
arotti
murderer
monsoon
opinions
valves
maneuver
distributions
integrate
kary@@
resist
assimil@@
upward
helpful
21-@@
authored
itas
abused
pedest@@
oi@@
ф@@
intensive
tius
fertil@@
whel@@
outr@@
176@@
jellyfish
speculated
1688
niche
drained
supers@@
actic
dragged
possesses
ح@@
liberated
qin
nerves
gars
kirchen
touches
safely
phosphorus
ely-@@
veter@@
receptions
umm@@
eca
pings
rupt
regn@@
qualification
macrophages
court@@
immense
ripe
forts
letting
athi
2006-07
غ@@
ո@@
bays
localized
militant
kien
pless
palaces
participant
remarkably
minister@@
ballerina
ד@@
circa
1990-@@
baking
awi
ffey
antagonist
thieu
user@@
fulfilled
zel
heroic
merchandise
300-@@
rhythmic
osperms
sely
cylindrical
lamath
freezing
stripe
erk@@
27,@@
apar@@
reck
eschylus
tundra
bricks
climax
1758
els-@@
persuade
excluding
favor@@
elevators
ст@@
0.7
neau
banknotes
4.2
itorium
asleep
paper@@
hid
centred
tenham
tightly
sip
contrary
wic@@
,00@@
ishment
evol@@
squirrel
peckers
cyclic
contamination
privileges
edes-@@
advertised
popular@@
unsuccessfully
predictions
commemorated
diap@@
emit
icate
laï@@
cet@@
integers
365
gasoline
aen
practically
remix@@
tunes
6-3
disciplinary
scenario
wrec@@
otropic
dice
reflex
relegated
1,000,000
upwards
amph@@
track@@
woven
erect
kilogram
1662
conserved
non-spherical
mistakenly
vertically
visc@@
judice
osity
differentiated
obsc@@
apr@@
interpret
paleontologists
minorities
icon@@
த@@
downstream
nightclub
financing
sanctioned
centur@@
transitional
oule
izer
chol@@
feel@@
immature
iver@@
gated
sightings
period@@
lower-@@
silicate
inov
flavored
reserv@@
1782
foot-@@
exported
enid
bandleader
feat
gentle
orious
standardized
instituted
consistency
reporters
commemor@@
osauridae
violation
footed
rative
icana
eru
ordering
abithia
electroly@@
aí@@
splits
differentiate
25.@@
accompaniment
derivatives
oyle
valve
synonym
obs
eponymous
workshops
arbit@@
pois@@
tie-@@
oughton
itude
pituitary
successes
ish-brown
exploit
icidal
rically
noting
stam@@
facilit@@
porting
memorable
ird
7.9
archaeologists
qualifications
derive
revenues
opp@@
elly
205
alam
consum@@
480
powdered
rushes
cables
zeck
1764
loads
denote
investments
footprints
commodity
1830s
beers
18th-century
enjoys
delic@@
lewood
monarch@@
survey@@
tsun@@
iler
hominid
hypotheses
boar
sea-@@
agreements
investors
lymph@@
milk@@
comparatively
centimetre
warrant
illuminated
claim@@
caring
co-produced
wreck
lobby
mound
disambiguation
objec@@
generalized
ö
ral@@
tap
otechnology
peanuts
iners
feathered
seize
ponds
num@@
consideration
attain
plasmid
city-state
ě@@
ropshire
breakup
nau@@
dromaeosaurs
vaginal
rebuild
substantially
pension
yev
colorless
uality
storylines
ла@@
raises
1513
cas
1768
tonian
illustrator
etzko
presently
atu@@
ilight
au-@@
700,000
phylogen@@
eti
photo@@
duel
lean
chner
onaire
retention
arpattia
warts
regulate
experiencing
pericyclic
dromaeosaurids
restoring
numeral
decorations
archaeologist
ados
20,@@
stronghold
counsel@@
ratios
ushi
cigar@@
refugee
practitioners
fertilization
17,@@
villains
ு@@
invade
poses
navigable
aston@@
spokesperson
nod
atorium
eroon
databases
unmarried
cockpit
accepting
long-distance
seventeenth
44@@
biographies
inventions
uti
herst
relies
muc@@
digestive
rook
uber@@
utz@@
arche@@
charting
subordinate
calendars
arth
efully
jing
tists
tened
wiped
osci@@
implic@@
fossil@@
ilies
endorsed
hairs
ogly@@
cared
ulc@@
inga
feuds
ligh@@
exams
trium@@
dispatched
pez
proceed
choices
finger@@
engen
glut@@
embrac@@
chew@@
illusion
deadliest
methanol
winged
converts
opted
aean
view@@
hy
malle@@
volcan@@
88@@
sulfuric
veto
mandate
ung-@@
crete
40s
aters
49@@
unk
rough@@
forecasters
2.9
condi@@
osyn@@
euve
refin@@
spear
oso
d5
perihelion
ocular
backgrounds
heal@@
farthest
objected
edit@@
cyclist
ב@@
antha
ت@@
embro@@
brush@@
icks
mouthpiece
cameo
dresses
sonville
itals
ulose
conferred
implications
clever
sket@@
litz
rets
vertices
reacting
š
uku
margins
endowment
offs
shiny
lowland
kay@@
70s
digit@@
vard
prolifer@@
amnesty
housem@@
decim@@
fly@@
conjugated
pollut@@
spine
parasit@@
eral
engineered
ogenes
kopf
iks
exterior
2002-@@
ί@@
oxy
pastoral
terminals
shafts
conditional
diploid
resonance
mushrooms
727
separating
complementary
vectors
fung@@
wooded
lively
verb@@
reigns
agre@@
spores
wrecked
mater@@
inappropriate
encompassing
additive
delicate
madrigals
semi-final
omy
splicing
pov
uchi
multi-instrumentalist
toxin
barriers
scr@@
inaccessible
canines
blows
apprentic@@
yeast
recital
zu@@
consulting
comparisons
sack
oiseach
ionization
crat@@
rectangular
1300
tags
later@@
2003-@@
harvested
disper@@
answers
frigh@@
askat@@
one-year
axi@@
2001-@@
ider-@@
priority
stingrays
onate
1767
calculus
lent
ija
ange
trak
ticus
therapsids
inform@@
regiments
itative
garment
householder
terminology
non-governmental
pledge
rology
e-based
coher@@
oxic
intimate
iture
easterly
inin
giv@@
non-fiction
monumental
nd
308
questioning
corner@@
specials
camouflage
française
hic@@
seap@@
70,000
ɑ@@
707
ocentric
trigg@@
prosecution
respects
yogurt
scan
superscalar
lə@@
convenience
crocod@@
itters
ad-@@
34th
ophilic
animator
asty
criter@@
precedence
declare
grouping
iman
inja
co-operation
6.6
digan
square-@@
ān
eared
onautics
1-3
icoot
statutory
westerly
handful
fier
staging
circumst@@
proce@@
itate
branching
eche
treason
umen@@
transep@@
scuba
ò@@
iraptor
ypsy
systematically
747
otro@@
toilet
algo
personalities
disgu@@
pel
round-@@
plumage
ucci
hypo@@
pork
hilly
phal@@
abo
weeds
guerrilla
minds
lobsters
1751
consecrated
southward
zyg@@
tolerance
1728
inius
ditions
i.@@
oire
thicker
identi@@
cancel
visually
otted
westernmost
scent
quartets
coefficient
zzle
old-@@
hospit@@
sler
sighted
pitted
encomp@@
oxid@@
osto@@
alled
analyses
necks
edler
uer@@
mor
opp
catastro@@
impacted
layered
skier
numerical
fundra@@
enharmonic
guaranteed
leav@@
-1.@@
commuter
ressed
ό@@
profound
4,500
bered
typesetting
heirs
л
odact@@
4000
hemoglobin
zu
securing
presses
drain
exits
mangrove
46@@
39-@@
tiz@@
eddon
tennō
akian
32@@
coconut
uplo@@
cooled
ambush
theolog@@
prostate
surprising
commemorative
sights
cili@@
rd
נ@@
bor
truff@@
poisonous
enforce
burden
overlapping
assembl@@
steal
cation
diversi@@
last@@
lacking
corrupt
ght
debts
manian
uo
leukemia
yneton
pain@@
redistribution
leuk@@
confirmation
estones
appendages
formulation
306
arous@@
cutta
oses
allium
elemental
unya
119@@
ellate
nationality
cushion
catalytic
sched@@
sawmill
oranges
ether
atu
continually
atic@@
hook
curr@@
deadmau5
ethyl@@
ि@@
omorphic
obj@@
paras@@
centim@@
extra@@
anche
etah
consol@@
sociobiology
340
preferences
echinoderms
migrated
expense
icked
ococc@@
actin@@
mob
fisheries
translate
lizzard
spectra
rists
crews
hydri@@
reti@@
pelagic
45-@@
wholly
twent@@
shifting
1731
habit@@
thermodynamic
lingua
pas
nitric
modeled
pedia
handheld
pinning
auditioned
diffraction
650
tained
aeans
namespace
charitable
80-@@
117@@
economically
1660
equest@@
alveolar
peace@@
retrieve
parap@@
lenses
rituals
144
istr@@
ausp@@
childless
eyed
ardi@@
1748
mob@@
north-western
660
apods
transcribed
business@@
anyway
tough@@
curry
carbohydr@@
auth@@
jee
ahili
aesthetic
ceramic
cub
convenient
simplif@@
volatile
1995-@@
cribed
transliter@@
trump@@
node
retina
rigorous
egger
devastating
mollusks
blowing
recruiting
discovering
newt
quietly
stalls
amid
cutter
ticultural
1610
omed
4-1
octave
atl
own@@
structured
boot@@
recogn@@
are-@@
contam@@
absor@@
ät
urb@@
ellum
fresh@@
classify
nostrils
anatomical
salary
classifications
1769
pheasant
negotiated
quer@@
adder
oric
arithmetic
appreciated
enbach
stunt
constellations
anxiety
emu
phistophélès
cathedrals
artworks
instructed
ов
cheaper
suspect
totaled
unks
replica
breath
pile
entrances
semifinals
fits
chlorine
retrosp@@
deficiency
capsule
1763
ridic@@
tortoise
individually
networking
cans
analyst
-de-@@
teenagers
bowling
preacher
supermassive
uniqu@@
insulin
appointing
tiques
warships
organometallic
4.8
oting
43@@
cycloaddition
prevailing
culmin@@
ulsive
ک@@
intra@@
treati@@
ceasefire
eting
gue
kei
appoint
olom@@
wen
weaken
pped
neur
interchangeably
anted
foxes
ú
attributes
fills
jua
straight-@@
esians
metics
coma
brain@@
topology
mson
pea
taller
ticul@@
utilized
éphine
diagnos@@
.3@@
ligator
induction
antique
farm@@
fiscal
coffier
ogenesis
polis
vandalism
ially
verified
mold
farmland
inability
forage
wherever
troubled
upper@@
tren@@
ivi@@
shop@@
simpl@@
5200
arthro@@
ungen
benz@@
third-largest
climatic
trill
embry@@
eyes@@
genic
grasshoppers
icher
90-@@
parsecs
σ
constructions
deities
9.8
forecasts
demolition
wherein
optics
neberg
sounding
aume
erian
razor
regency
herbaceous
collided
ocalyp@@
burrow
nic
killings
uns
evacu@@
impression
dier
inflammatory
aboliti@@
ledore
mortality
steppe
paleo@@
descending
det
foreigners
unted
herbivore
ikistan
redshift
ceramics
enthusi@@
hoard
adows
2000-@@
impacts
noticeable
icos
superse@@
boost
optional
2-3
bamboo
self-governing
orphan
decis@@
palms
arranger
biographer
swear
16,000
grow@@
ashtra
ombat
inum
speople
maids
styl@@
eque
mercen@@
carniv@@
friction
obey
ketchup
inverted
trim
anmar
subscription
ameral
caps
্
4.0
admin@@
ermo
locomotives
embarr@@
abdicated
chronology
asph@@
engraved
averages
2010-@@
renew@@
friars
sigma
guarded
parole
testants
ounge
evacuate
deeds
pud@@
atch
flexibility
humorous
fain@@
tangent
airs
la-@@
crust@@
tible
pasteur@@
eaters
inher@@
equival@@
aluminum
1774
banker
sanitary
diets
bows
barren
endorf
colones
availability
bius
corals
evaporation
ade-@@
pollinated
1,600
ygi@@
442nd
disagreements
chemically
receptor
phagocytes
diffusion
surveyor
transports
brains
counc@@
³
corona
dens@@
olla
excl@@
ட@@
suborder
bulletin
ounded
aint
overwhelming
manned
30.@@
icht
dissem@@
deport@@
fus@@
west-northwest
omitted
poisoning
tise
mated
2,9@@
rhet@@
150,000
criminals
embryos
anx@@
puzzles
brake
othe@@
ω@@
asters
city-states
elines
ammonia
controversi@@
pants
prefers
fing
bog
enth@@
smooth@@
motivated
illary
trout
rhiz@@
psychedelic
examine
pharmac@@
ா@@
s-the
ahy
throws
hardly
eters
tutor
к
pursuing
enas
mers
athers
expectations
undul@@
le-like
tenders
η
ý
automobiles
searches
vaccine
orig@@
mites
withdrawn
پ@@
pectoral
troubles
packaging
facilitate
morphology
middle-class
libret@@
mats
exhausted
sul
oved
board@@
gliding
occan
weaving
alier
ulent
pathways
inspir@@
culminated
high-speed
convergent
erton
real-time
-tailed
eses
attered
1492
typo@@
para-alpine
parasite
weakness
thunderstorm
ès
9.5
therap@@
widest
medalist
arguably
obtaining
asers
scar
57.@@
pornographic
esteem
oscillation
nings
14,000
gu
anced
eyard
biom@@
225
mapping
polarization
thod@@
1755
toler@@
emerg@@
cramped
notability
elux
forelimbs
ulus
mantec
phylogenetic
wrestle
oken
arf
promoter
genuine
simplicity
perer
antigen
andom
sillon
exceeds
affordshire
ongs
anti-nuclear
peasants
31.@@
portray
nicknames
dwell
ème
disappear
eys
ully
eels
awns
excit@@
&apos;a
rotates
extract
quantitative
compression
osaurid
culminating
600,000
north-eastern
pagan
inherit
edness
surroundings
modelled
clerg@@
meteorologist
junc@@
exam
ի@@
preh@@
escaping
carriages
yellowish
burne
entier
seismic
lemen
modify
slugs
ia-@@
provision
absorbing
turo
germ
manag@@
embrance
insignia
caric@@
propose
dius
øn@@
crowds
patents
ís
left-wing
appreciation
alik
catalysts
abulary
suffrage
incorrectly
masterpiece
refuse
ocations
prestige
docks
watershed
adic
perimeter
ל
trilob@@
flammable
besieged
inflammation
sitt@@
mean@@
artell
interceptions
owers
firmly
eer
silic@@
oo-@@
1756
56-@@
adapt
essayist
alum@@
&apos;ét@@
ɛ
θ
testi@@
monopoly
ה
usable
retr@@
aime
semi@@
tico
grunge
enger
arten
forci@@
mistice
densi@@
spontaneous
opod
tium
disruption
som
trum
post-war
extracted
ubo
heels
poli@@
best-of-@@
ostom@@
brut@@
comune
columnist
strife
goland
abstr@@
treats
decreasing
undefeated
hyd@@
ateral
honeyeaters
2600
regeneration
ondyne
regulated
etal
reasoning
agos
valuation
vy
cinn@@
vault
pulse
tipped
thre@@
ailing
compart@@
embassies
detachment
reasonable
compensate
tication
ice@@
hoist
guaran@@
trademar@@
verdict
touch@@
champion@@
ibo
fuselage
155
व@@
jelly
postulate
sky-@@
annuals
epid@@
prise
blog@@
umi
75-@@
illustrates
-9@@
implying
infect
tici@@
onyms
schizophrenia
circumference
ăр@@
antage
cultiv@@
fores@@
calibr@@
atro@@
polyp@@
frequ@@
46.@@
obel@@
gourd
oed
sett@@
add-@@
adas
ern-@@
peripheral
ochána
preserving
1737
benzene
abdominal
rodent
paran@@
cartoonist
conduction
vom@@
identifiable
ę@@
ulsion
krill
domination
engaging
131
talus
documentaries
exclusion
dessert
152
minors
meals
achy@@
ried
hybrids
etym@@
purpos@@
13,000
protested
indefinitely
accor@@
bye
neus@@
850
our-@@
horseshoe
axaca
uxe
stamps
tering
visionary
ini@@
ocrates
guilt
orously
distinctly
eratops
trapping
interfere
debuting
ulations
ubin
agogue
electrified
cloak
anaerobic
cardamom
11,000
stranded
anbeyan
biochemist
disguised
ofen
pinfall
quel
foul
290
amphibious
ocked
ostatic
uled
drains
alo
zoo@@
acknowledge
behave
overdose
2,5@@
lightweight
classmates
inska
lys@@
originate
atter
fraud
grooming
execute
aval@@
highlights
outed
admits
elands
arious
atop@@
dramas
screened
anka
weight@@
serl
orno
nud@@
hee
horned
analytic
fence
langu@@
halted
editor-in-chief
scratch
pox
eland-@@
の@@
ounding
glass@@
ribs
vertebr@@
370
kness
orderly
redd@@
ushka
subsi@@
alphabe@@
گ@@
gotten
sympathetic
midst
ephal@@
placental
devo@@
flares
digg@@
7s
geese
zia
internally
gently
coded
141
billions
supplemented
42nd
refu@@
refurb@@
umenical
crocodilians
gé
reper@@
asoit
enzoll@@
senses
vents
isotopic
compressed
earctic
atis
postgraduate
kou@@
anksgiving
1947-@@
enon
etary
gaps
semiconductors
debates
teen-@@
steau
infiltr@@
arable
motorcycles
rotate
bogs
stalled
apps
ambrian
cylinders
grenade
rescu@@
exter@@
1608
stabbed
rang
recruitment
peculiar
ívar
ensen
hazard
constitutes
there@@
і@@
oroo
passport
bathroom
sary
antelope
gence
dington
undergone
invites
nois@@
underwear
usion
resembled
litre
boycotted
orial
enthusiasm
racist
cancellation
one-time
steep@@
ancies
renovation
abdication
ieves
obstacles
bushes
scienti@@
ceded
humidex
revision
terozoic
tris@@
sundown
hath
applicable
tombs
ouses
rehabilitation
valu@@
campaigned
ate-@@
methodology
rescues
ought
2.8
й@@
prolonged
assignment
abolition
essively
marrow
nock
progression
first-person
9.7
trailer
amel
screens
shall@@
canals
osc@@
lyricist
5.3
pulses
247
erted
34@@
300@@
hybridis@@
diast@@
seamounts
stly
flanks
sall
flavors
alizing
copying
innoc@@
qui
poppy
apulco
eers
sident
caffeine
ත
illnesses
clans
knot
compliance
carnivore
torates
detecting
500-@@
itations
ì@@
4.1
polynomial
slow-@@
demise
advent@@
arists
contexts
feratu
vowels
arboreal
pio
cartil@@
batter@@
ception
vanilla
remod@@
ías
iries
kitch@@
unrest
expend@@
primates
ene@@
essor
designations
freshman
ḥ@@
ovary
amen@@
cust@@
tellur@@
resear@@
onymously
expose
retaliation
symbolism
accelerators
incar@@
acu@@
rote
demons
cryst@@
outlined
psal@@
plasm
critic@@
modelling
coordinator
util@@
fixed-@@
clerical
impul@@
8.8
transverse
leng@@
doughnut
cholera
fueled
imitation
outlet
stall
pastry
its@@
sickle
reb@@
didgeridoo
polished
inde
bottles
tein
sustain
policeman
spatial
ifying
interruption
easternmost
trioxide
1633
ficial
atization
1972-@@
gery
agawa
wel
lai
ostia
ornam@@
nering
dangers
voyages
opardy
ˈʃ@@
innovations
refusal
altitudes
5.1
ritt
detectors
undertook
lj@@
ventriloqu@@
heredity
1967-@@
reson@@
slash
classroom
eil
cakes
surveyed
lunch
undi
patrons
menthal
jects
rodite
zebra
gastropods
fertilized
xes
choff
pelin
dwellings
tremendous
pseudonym
apur
em-@@
132
enses
climbs
descend
oat
tilize
jacks
breads
renal
neurolog@@
takovich
poss@@
omys
amniotes
notices
echtenstein
10-15
rer@@
believers
estion
crushing
balkline
risen
conclusi@@
pipeline
ж@@
stimulated
centros@@
pennant
throned
126
iste
termination
illustrate
basalts
hailed
kicked
ան@@
threads
1400
hiking
home-@@
tosis
reactors
narrower
ŋ
breathe
genital
rack
atable
pads
atal
hatred
rebel@@
spinal
betra@@
devout
envel@@
baux@@
atheist
thera
demonstrates
rin
overhead
aret
evenly
rejoined
nean
nominate
drun@@
grocer@@
stain@@
rend@@
oom
compens@@
8.2
displaying
microbial
tricks
honest
advocacy
bedro@@
dissol@@
cockro@@
biomass
əl
1,8@@
rock-@@
larg@@
effici@@
حم@@
introns
incorporate
erb@@
contrasted
font
broth
mede
mei@@
dging
ˈb@@
analytical
dson
uca
oʊ@@
circu@@
donation
proportion@@
offset
fairs
e-shaped
propelled
clamation
ourself
spells
premises
nobleman
illas
melodic
ɣ@@
mortars
ichthyosaur
ɑr@@
chief@@
banished
atteras
íncipe
comput@@
manners
antenna
poisoned
8.1
capsules
1734
goalkeeper
entino
heroine
condens@@
denti@@
experimented
coldest
apagos
ebl@@
ен@@
cyclonic
sportscaster
contractor
south-southeast
nosed
inward
savanna
egrine
3,8@@
utz
isure
solic@@
adow
acquiring
28-@@
eshi@@
mistakes
bind
aby
quot@@
intensification
arded
odontids
downward
fric@@
trusted
invested
encir@@
ל@@
duch@@
mixtures
ard-@@
host@@
oody
ône
lifts
antagon@@
umber
kt
balk@@
thinner
bosons
arum
97@@
aesthe@@
drowning
jus@@
insane
ushu
supplier
exited
flocks
repe@@
1981-@@
osy@@
sexuality
urging
sickle-@@
medications
ospond@@
one-day
exagger@@
architec@@
diyya
1618
compromise
legislatures
well-developed
ringside
examining
gear@@
encryp@@
asthma
pillars
parallax
118@@
definitely
ritte
aius
0.2
-related
anners
aeus
accumulated
aps@@
juveniles
ert@@
fers
tosaurus
revisions
science-@@
specif@@
amalgam@@
icolor
hostage
ticelli
stimulation
opa
enrich@@
distinc@@
garnered
ouns
oudly
fluctu@@
spectr@@
infobox
deduc@@
peppered
innocence
asz
baptism
cyc@@
obe@@
6-1
diat@@
ż@@
representations
nica
utor
derland
energies
owar
70-@@
&apos;&apos;
courtyard
parentheses
1661
continuum
seaf@@
ummer
councillors
ensuing
surgical
government-@@
49ers
buttons
modesty
otypic
paramilitary
ик@@
uderia
mid-1990s
depict
depiction
erd
fiddle
alkyl
chloroplasts
orer
artifact
closures
dyes
defic@@
lag
pudding
tzky
ane-@@
line-@@
skep@@
unmarked
non-coding
kine@@
icking
idated
undergoes
some@@
explanations
ָ@@
onies
ek-@@
316@@
icap
ædia
hounds
pandemic
obstacle
itchcraft
nutmeg
scanning
76@@
distinguishable
generators
iviero
thorax
entially
noteworthy
triangles
in-law
henge
interfer@@
oic
ensured
surf
1996-@@
eroy
honoring
nun
crac@@
niches
teen-year-old
ycles
hjola
bition
vian
empt
viscosity
whaw@@
onation
dressing
ogram
envelope
destroy@@
lineages
émigr@@
mythical
phas@@
25,@@
anzaa
contributors
6.1
prominently
salads
soba
reasonably
œ@@
welcomes
hippocamp@@
twe@@
contributor
neutrality
prevents
wholes@@
gion
premacy
catcher
confir@@
plur@@
720
infer@@
regation
oddard
emissions
reply
possessing
twenti@@
illers
kicking
ugu
spawning
acao
3166-1
он@@
rej@@
polar@@
sunflower
kicks
fortunes
limb
slime
enacted
šek
a-no-@@
graded
periodicals
ceiling
short-term
safer
bandwidth
illegally
ear-@@
jurisdic@@
insectiv@@
provider
redevelopment
zbollah
dera
fourth-@@
spirals
đ@@
repeti@@
appointments
ínez
indirectly
novella
tric
bankruptcy
shining
postage
reunification
ambass@@
divergence
ат@@
chley
appoints
disappointed
proposition
hoku
blue-green
assaulted
seawater
kofiev
condem@@
vellum
elabor@@
2011-12
hearted
alkaline
hectare
eyn
ekaterin@@
sensation
statehood
arin@@
460
licenses
fashi@@
osauria
aty
dispersed
inherent
computer-animated
osaurids
aç@@
stimulate
fade
sparse
habitable
rech@@
user-@@
erings
octopuses
smoked
metal@@
aeda
ventral
bird-@@
paratro@@
amble
idium
positively
happening
oplas@@
ported
1753
cyto@@
umps
pigeons
roydon
invalid
uric
right-handed
sake
unmanned
hats
alog
hardest
scrolls
cilla
scape
plet
1-1
progen@@
idence
induce
rolog@@
half-sister
midfielder
ejected
arde
1736
mobil@@
début
franchises
breakers
ophil@@
countered
emeyer
slow@@
communicated
coast@@
arrange
999
ان@@
hypothesized
中@@
decks
prostitution
epith@@
affection
textiles
amon
cem@@
backer
sheath
protr@@
1744
sliced
1766
plaintext
ony-@@
ázquez
zodi@@
southwards
pathogen
guideline
floppy
1685
journ@@
.m.
spectros@@
prom@@
pouch
hospitality
baths
first-class
endo
melanch@@
otyp@@
sticky
syllab@@
querque
allo
agor@@
copal
sorry
aue
triumph@@
librarian
168
pageant
recommendations
miniseries
aped
illera
constructing
thrones
rowers
asymmetric
1651
artificially
2008-@@
inette
prisons
55.@@
strands
simultaneous
textbooks
uding
intri@@
icals
prefixes
mini@@
1669
inert
sonatas
conjecture
deleted
itung
hym@@
voy
kina
cloning
brief@@
meiosis
ondheim
polic@@
liquid-@@
solid-@@
sacked
convincing
arched
wetland
browsers
funnel
bah
ariat
crystall@@
sweetened
per-@@
tumor
notic@@
ár
interned
circ@@
dunes
psychologists
conquering
3.8
domestically
aping
recor@@
.2
incandescent
ˈn@@
incidental
delays
etc.
reverted
dusek
133
liturgical
consuming
reviving
ingual
syche
35,000
melted
continuity
armament
adors
մ@@
projections
yolk
ure-@@
craton
shales
technic
igner
aspora
iger
viable
rotational
oppose
toku
mium
laptop
717
dul
enta
question@@
ammer
shus
internment
repar@@
teammate
äl@@
arial
216
tance
parag@@
jewellery
enanti@@
avirus
taping
keepers
frustrated
sary-@@
ь
disastrous
emphasize
maneu@@
erno
feminine
ventric@@
agong
warn
1991-@@
filmmakers
var
biolumin@@
illic
satisfaction
foil
ily-@@
directs
arn
zzi
millipedes
glasses
demographic
sliding
safe@@
rewarded
entius
wages
bonne
oskeleton
ō-@@
stepfather
inth
trow
calculation
samurai
perce@@
enhunt
responding
perman@@
1692
flat-@@
parametri@@
icker
tectonics
alleles
designate
β
compati@@
aldehy@@
door@@
magistrate
noises
versa
reputed
86@@
ungs@@
urely
aerodynam@@
balancing
ong-@@
fluorescent
coastlines
downloaded
tations
ò
kton
166
circulated
shaping
carving
clock@@
scenery
enthusiastic
ción
multiples
carom
obus
antibiotic
supervising
ationally
pore
sympath@@
gt@@
silt
differed
casts
αρ@@
canopy
fortunate
marrying
ин@@
uct
coden@@
peers
bottom@@
smashed
doch
alkal@@
poche
reticul@@
redund@@
frescoes
posters
ɔr@@
mosses
2005-06
listened
1980-@@
iatlas
placements
igns
draw@@
deliber@@
melt
random@@
selfish
retre@@
reformer
ensuring
defend@@
obscure
wallabies
invertebrate
pleaded
esy
certi@@
stimul@@
captains
barley
laundry
outlying
consolidate
contingent
walled
exhaust
cosmological
gall
cease
milestone
ι
francs
deploy@@
iral
6.4
choreography
taxonom@@
insufficient
acetate
diverted
tshire
accelerating
renheit
assured
veness
transcontinental
monitored
onents
sauropod
onally
134
chond@@
carbons
comedy-drama
dissip@@
terraces
hanami
pressor
onions
hofer
kolah
robor@@
dull
mandi@@
brother-in-law
motions
rive
compressors
1-0
iraptor@@
metaphor
52nd
tron
medication
thetic
fangs
schem@@
apper
tout
stiff@@
addiction
üb@@
lawful
checking
isaurus
creativity
lightly
lidae
1648
oler@@
icide
orers
volt
mid-1970s
priesthood
unpopular
blank@@
noc@@
audia
beheaded
updates
vendors
grabbed
junct
ília
opro@@
dged
liturg@@
tragedies
unused
million-@@
equivalence
gitive
kidn@@
ocial
esel@@
rais@@
amended
wax@@
ango
coloni@@
depart
gry
marsupials
inating
bracteatum
blooded
femin@@
herds
insertion
chestnut
seldom
ettas
forerun@@
certification
itating
470
conspic@@
osaurian
ourse
superfamily
totaling
allocated
plex@@
thra
encl@@
hooks
ók
sland
designates
24-hour
sex-@@
asties
hadrosaur@@
vive
predicting
vigorous
commemorating
struggling
oist
1689
births
frustr@@
lure
passer@@
shogunate
recall
affluent
ordained
tista
ός
hable
tivist
profitable
dissolve
emergencies
repeating
syn
emblies
rhenius
3,6@@
post-hardcore
192
1997-@@
pollin@@
hurric@@
jacket
morality
arkshire
smug@@
phe
olfo
traitor
shortstop
evident
courtes@@
quake
umen
hypno@@
trigonometric
thrash
mid-19th
uels
expectancy
stylized
ipon
substituted
kidneys
woodwind
two-hour
cannibal@@
grab@@
delete
supernov@@
ه
icist
disco@@
digo
sida
obos
martre
nationalism
declaring
acruz
winding
self-defense
pered
mini-album
offka
storing
invasions
antic
qual@@
copes
640
weathering
accordion
trillion
impl@@
depressions
byl
wrist
roclus
-a
propell@@
tyr
extrasolar
mucus
grasp
pushes
ubi@@
eving
trache@@
puppets
slan@@
canine
render
prepar@@
conspirators
interacting
azar
specializing
efs
entertaining
racotta
diverged
orius
angled
blacksmith
bites
disposal
ehler
conclude
ciano
ribo@@
umatic
lix
enclosure
soft-@@
hog
û@@
tings
sine
danc@@
vases
1642
avenworth
40th
chert
micro-@@
chivalry
luxurious
arte@@
iges
mosa@@
ouch
purch@@
obia
testify
izations
extraterrestrial
pulling
opolis
grading
1683
teryx
confin@@
sideways
congr@@
ellmeister
.3
attribute
rul@@
kidnapping
bard
ì
importantly
periodical
voice-@@
mega@@
ior
historiography
portrays
flesh@@
1762
guarding
10-12
տ@@
1640
aliland
legitimacy
enamel
6.2
day-to-day
tant
esbury
182
reprised
hatched
intestinal
resp@@
topping
disciple
decre@@
ained
radioactivity
ôtel
landmass
1644
2n
omet@@
poor@@
intestine
uz
harbors
dburghausen
1921-@@
21.@@
glomer@@
dering
hya
retail@@
1743
iska
lik
asymp@@
cade
scen@@
asius
ford-@@
tonshire
148
myth@@
engravings
duplic@@
syndication
casu@@
1676
i-tennō
accharides
solidified
helmets
expressing
gra
obsolete
anine
antal
erty
opolitan
sington
ofish
promptly
exercises
ganate
hists
sh-@@
rehearsal
ovol@@
interception
swell
quin
aṇa
compares
physiologist
pleased
trauma
fulfill
8.3
aths
alternately
1100
1643
finches
ɪn@@
scrub
imal
kisses
encrypted
proving
fiel@@
ǎ@@
fishers
atius
responds
ös@@
starch
mimic
enc
fortun@@
regards
bromide
redirect
oded
endocrine
wałki
impaired
emiah
umer@@
ador@@
ramp
ensic
plex
adjust@@
1724
wey
toraptor
istries
somatic
ŋ@@
1994-@@
bounce
enic
revert
aceu@@
transgender
96@@
tese
sprink@@
aternary
cows
ights
17th-century
destroyer
slogan
high-profile
3-4
fertiliz@@
stamens
ˈm@@
contain@@
ام@@
targeting
oists
son-@@
430
dots
cyclo@@
-only
390
4.7
1739
28,@@
businessmen
osomes
grip
accounted
throp
outcrops
reliability
skepticism
heri
km3
33.@@
rendition
winger
fath@@
ogical
19,@@
beha@@
transforming
timedia
atite
vulner@@
fielder
1968-@@
algebra
chefs
aru
ос@@
oscience
sociologist
anal@@
floral
idance
ս@@
collectors
delimit
12.5
ichthyosaurs
finned
smoo@@
т
counterweight
niv@@
censorship
ewall
posthumous
coniferous
bristles
inkel
opoda
attacker
cricket@@
150-@@
imminent
ა@@
affe
215
cracks
margin@@
oratorio
flyby
stipul@@
zde
strip@@
osthenes
quintiles
erts
enan
microbes
ithne
arrondiss@@
ringing
119
niz
periphery
e-mail
practitioner
crank@@
zhansky
hu
photon
յ@@
ligament
distil@@
prostit@@
pla@@
hypothetical
showc@@
conson@@
void
asta
dim
milab
vey
corrected
exploded
fragmentary
interiors
chicks
homage
deteriorated
outimi
contiguous
a-ken
customary
settler
inians
onga
primes
156
providers
fluorine
ères
amper
pike
left-@@
protest@@
hemp
accessories
encourages
ն
chronic@@
.4
ία
installing
abuses
ounces
blew
intiri
atrocities
ব@@
shov@@
config@@
hasti@@
synthesized
dois
1732
anthropologists
preserves
ட
1701
condensed
exhi@@
clarinetist
1515
2006-@@
inta
loos@@
wrongful
efer
sborough
changel
oversees
oris
hybridization
unidentified
bets
ilemu
intellect@@
ebleau
middle-@@
nedah
execu@@
unreleased
sures
bussy
bilateral
install@@
inges
ambiguity
buil@@
feat@@
landlocked
terman
nberg
adequate
wast@@
2,400
unchanged
warm-@@
arriv@@
horse-@@
zoologist
conscription
penc@@
interfered
barrist@@
reorganized
urred
uccini
viviparous
ticity
ain-@@
1,400
iron-@@
swer@@
mezz@@
ouring
co-host
1649
meaningful
ometry
relaxed
mets
rans
consci@@
583
1536
hev
1679
refle@@
itions
3,4@@
ammed
esel
hydrox@@
routinely
particip@@
awarding
dromaeosaurid
յան
aments
yav@@
ɔ
isen
ˈl@@
uset
fiero
ionizing
emn@@
voter
opers
coph@@
manually
anooga
zzy
aste
5.9
mega
stig@@
foc@@
softer
senne
arcs
inactive
bedrock
enings
caec@@
142
cleric
remembers
dives
leys
wrongly
iodonts
ference
interpretations
odont@@
75@@
poured
pumps
facade
entown
éré
iliation
mistaken
transfers
ubach
coincide
1976-@@
ashir
reviewer
high-quality
chh@@
ν
collim@@
capacities
artner
vings
mandible
finalized
ivary
sinthe
confront
potent
275
executions
athic
16,@@
conserve
nagam@@
annex@@
hydra@@
1942-@@
currencies
unanimously
converting
numerals
cyt@@
comply
semester
acán
epider@@
defunct
renovations
மா@@
disser@@
fgruppe
arities
ehudi
ullaby
yarn
steals
1984-@@
eering
pricing
prized
ideological
uters
fruit@@
valet
monotrem@@
proposes
longitud@@
onde
ān@@
oods
evapor@@
orescence
ocol@@
transpar@@
vag@@
&apos;agglomération
nuns
purity
entru@@
ق@@
yields
entations
baritone
emitting
disobe@@
tumors
rested
computer-@@
0.8
1760
caretaker
hydrothermal
enov@@
atcher
omba
uplift
tenant
ト@@
real-@@
shog@@
haploid
1999-@@
remarried
hydrocarbon
co-starred
evolent
ان
ɛn@@
theria
snail
transmitter
fowl
idiom
signalling
dex
gametes
debele
ian@@
2005-@@
vitamins
commit@@
amide
acous@@
undai
1729
printers
knobs
124
dience
readings
athed
amate@@
browsing
oclass@@
eways
ively
establishes
3-1
glaciation
mimicry
bribe
9.1
flagella
asti@@
substitu@@
aci
asserts
proposing
dislike
forear@@
2,3@@
black-and-white
consec@@
unnecessary
1555
establ@@
214
boring
microwave
neys
bruck
tying
garments
traver@@
puls@@
violently
recker
erxes
ie-@@
ourselves
ecclesi@@
recombinant
amped
radically
45@@
itorious
predic@@
swelling
puberty
ocracy
opathy
ett-@@
diminutive
ophilia
paradigm
piv@@
98@@
chka
twenty-two
ornithologist
semitone
notated
stream@@
rewards
city-@@
otherapy
ranty
photograph@@
genit@@
ʌ@@
ˈæ@@
ет@@
lumin@@
idable
eucalyp@@
collects
thrie
statutes
auté
pence
logs
ittagong
y20
extravag@@
184
elock
theorists
bodyguard
smuggling
namesake
venous
tents
sounded
reas@@
911
geomet@@
zzly
nex
quarter@@
replac@@
reagent
estershire
-the-@@
tell@@
quarterfinals
inde@@
foraging
firms
choreographed
toed
preferring
modi@@
sensor
retali@@
district-free
stepping
yd
researched
nikov
èle
radio@@
ostok
suppressed
pests
chewing
rul
rill
stra
ych
doctrines
6,8@@
tivo
appealed
ionally
cartridge
ك@@
atore
haestus
postponed
yielded
valor
estuaries
readable
1974-@@
490
beati@@
clearance
reminiscent
progressively
ucydides
inadequate
sacrific@@
خ@@
propri@@
alphabetically
probl@@
noodle
tolerate
enlarg@@
0.0
parameter
amonn
evaluated
atr@@
comedi@@
eiro
1,800
1607
8.0
5-2
telenov@@
stint
catches
viously
thal
affinity
calibre
quali@@
betrayed
fierc@@
north-northeast
everlasting
octahed@@
183
medley
leaked
mixes
binds
frid
imagined
genealogy
bunkers
carapace
ôme
sacrificed
1725
6.8
engah
scaled
incorpor@@
1520
apolitan
usha
environment@@
songwriting
remark
pign@@
64-bit
upi
summon@@
adjective
leyball
amassed
twood
confronted
yielding
wit
iː@@
occupants
spheres
gait
otaur
forested
vili
aval
ontology
nassus
reactants
colour@@
flow@@
chlorate
116
µ@@
hearings
802
idle
ahontas
skeletal
transactions
synergy
trivial
sko
synonymous
-the
asy
dant
invent@@
chards
immobility
oing
plands
ungu@@
stereochemistry
пос@@
lesions
squir@@
dictionaries
arbitr@@
forb@@
inauguration
acked
visions
greeted
yclic
issu@@
capita
odont
franch@@
beneficial
ή@@
ние
ploidy
multi-sport
oselec@@
occur@@
substitution
1993-94
chmen
chant
petit@@
etting
cured
tactic
pions
estive
seedlings
ingale
twinned
sust@@
esome
telev@@
collaborations
ion-@@
ceptions
37th
osuchus
trousers
convened
withdrawing
prosecu@@
fortification
olith@@
espie
macromolecules
harmless
descrip@@
ometers
ysteries
menoptera
raiding
racy
purchasing
59@@
severed
érables
unicellular
aten
cyclists
apron
tura
ypus
5.7
fine-grained
ime
quadrupedal
father-in-law
rugged
axle
intentions
impres@@
unders
three-time
ademoiselle
charging
sheltered
ventures
brakes
unpleasant
paints
exper@@
correspon@@
cucumbers
ophore
filtering
adjusted
ationist
cores
sparked
infring@@
greeting
large-@@
branched
magnate
amounted
faun@@
377
nodonts
pancreatic
се
parlor
rehear@@
angsane
plume
listo
follicle
र
rogen
long-range
aˈ@@
anoke
reservation
warms
ascended
erife
pressive
roof@@
orities
arios
penetration
photosynthetic
1666
ápagos
droplets
come@@
titious
switches
33rd
6.0
captures
gour@@
diversification
acquitted
anatomist
evolving
stipulation
oversaw
follow@@
vities
igula
gre
rece@@
cavities
odies
transitioned
bouts
rene
power-@@
asons
orbit@@
clarinets
fission
omic
bangsaan
exclude
emption
protesters
36-@@
specify
assess
punc@@
co-hosted
fashions
clams
erella
al-like
regenerate
centre-@@
broker
taire
narrated
hue
stradd@@
phies
advant@@
pulsars
altering
built-@@
comedic
huahua
obacteria
e-to-@@
200-@@
lash
astically
ijk
nered
560
gram
atting
offense
960
entina
freez@@
zona
thous@@
льское
buyer
enness
autier
wberry
proxim@@
ight-@@
drafts
quart@@
arist
ensely
costly
49-@@
subpages
uties
conditioned
tracted
upbringing
alogy
undeveloped
sacs
ич
centralized
feas@@
soups
moll@@
funn@@
1977-@@
trumpets
carto@@
complim@@
festivalen
waggle
1979-@@
general-purpose
concludes
magnit@@
spacing
haul
depictions
downloads
preaching
mentation
madol
1992-@@
resume
tary
faculties
acon
escorted
upper-@@
355
dowry
commentaries
mussels
posture
bey
kits
innov@@
parallelism
lodged
allev@@
orted
confiscated
elet
inny
omia
brai
strateg@@
titular
egel
transforms
appar@@
possibilities
unytjatjara
withstand
cuis@@
asexual
2,200
dramatist
reactivity
neighbour@@
appreci@@
atories
å
pestic@@
denomin@@
submachine
ilis
keyboardist
mapped
stuffed
robes
stedt
buffer
defect
oughs
ät@@
headlines
subfamilies
gravit@@
1987-@@
constituents
estra
erable
relativistic
oderms
carts
μm
campaigning
1715
inclinations
awe@@
dormant
ocer@@
wires
ellings
een@@
plaques
drafting
wealthiest
akolu
terri@@
ское
artery
vibrations
sophomore
rying
comment@@
virtuoso
lax@@
ouard
edical
proxies
thed
jō
opsis
cartri@@
chrysum
aiming
icons
פ@@
nucleophile
anagi
phon
rollment
ucent
beamline
1655
oupe
achnids
unto
ushes
ypter@@
flowed
indifference
pregn@@
800,000
2007-@@
870
ophyte
194
coinage
horny
translating
adrón
orus
coated
categorized
î
psala
south-western
571
parous
1930-@@
socialite
dismissal
gherita
ectors
uci@@
oceros
alloc@@
amming
unwilling
answ@@
syllable
exponent
melanogaster
wal
avy
1619
heterozygote
fluent
sequencing
prone
penicillin
telephones
phere
rallies
wiring
overwhel@@
utrophil@@
oths
sace
skirm@@
dor
rebelled
byp@@
ylae
standardi@@
ulls
predomin@@
boreal
ées-@@
ritsar
solidi@@
daugh@@
individ@@
cryp@@
tillary
sick@@
„
urchins
ש@@
slept
shō
oughby
fined
accommod@@
tarily
procession
rences
rods
èse
embar@@
ת
narr@@
utler
ية
substituents
vation
raged
entioned
tryout
sein
persist@@
alu@@
rect@@
ستان
shead
playw@@
ockey
prin@@
rental
ম@@
alysis
sculptors
lement
chez
clam@@
elig@@
note@@
theon
profession@@
thriving
э@@
éronautique
achment
pha
overlooked
inning
ym
divid@@
seum
kless
subscribers
oulos
undisturbed
baceous
eroid
tending
opport@@
uzzi
transporting
reluctantly
ûl@@
ewater
recessive
plaster
tetrapod
word-@@
zko
͡
twigs
saurus
أ@@
ype
warmth
eclip@@
virate
preser@@
ед@@
discrimin@@
umbs
vedere
slated
ի
dge@@
stab@@
upgrades
minus
replies
shortage
torque
iden@@
ط@@
rug@@
ь@@
gling
vaul@@
tionist
oversee
pulls
sorgsky
accompan@@
vow@@
space-@@
ර
persal
roix
duct
tician
half@@
pt
rived
kilomet@@
ον
sewers
suspicion
saxophonist
zels
trafficked
tern@@
shing
hoods
umpf
programmed
vořák
outdoors
ension
ject
basal@@
ticks
̇@@
moti@@
lified
gled
osp@@
three-year
bol
paced
šić
oxes
wrapping
iland
owning
oviruses
advertis@@
evant
fü@@
utation
employ@@
hec@@
aggreg@@
ɜ@@
edic
neigh@@
dified
onym@@
ousness
rical
yla
ص@@
uling
virtu@@
tized
warm@@
complet@@
roft
raft
հ@@
forem@@
ficially
relle
swimm@@
tality
ident
tuous
orm@@
vised
atist
kson
tili@@
deteri@@
destro@@
arrang@@
vacu@@
accessi@@
conven@@
tious
eres
volun@@
mation
obal
append@@
東@@
ority
itchfield
eid@@
eler@@
ickn@@
sils
autonom@@
announc@@
ford@@
oratory
atern@@
carnation
ister@@
ocent@@
ssel@@
adequ@@
protot@@
acknowle@@
punctu@@
seis@@
ults
motive
ய@@
spect@@
commerci@@
uration
teamm@@
imer
rown
system@@
logarith@@
yte
antim@@
sects
locomo@@
pher@@
ச@@
andar
writ@@
yin
odro@@
sovere@@
abul@@
legitim@@
biotic
magne@@
upid
64-@@
ephe@@
cle
anium
ocus
ression
ugg@@
membran@@
ozone
agers
adium
intel@@
diac@@
sums
inct
ô
aggl@@
enage
ellular
¥
contribu@@
exha@@
thood
hib@@
belong@@
cyclop@@
philosoph@@
evap@@
country@@
ijuana
beli@@
migrants
bracte@@
asym@@
iens
present@@
神@@
awning
quez
subordin@@
ع
accid@@
ved@@
murder@@
ffield
pheres
rout@@
grun@@
found@@
exual
sfeld
ment-@@
cum
jour@@
isot@@
usch@@
ן
anci@@
itted
aerob@@
kle
cataly@@
bip@@
ogens
æ
ser-@@
ක
ர@@
associ@@
2009-@@
campa@@
jective
ancell@@
onym
subscri@@
partner@@
eme
spin-@@
թ@@
remem@@
unci@@
angered
ambigu@@
ence-@@
한@@
tribution
neb@@
nobl@@
desser@@
ressively
celebr@@
itely
aders
天@@
sity
ishers
grapher
ר
dimensi@@
intest@@
tros@@
virt@@
ergy
erup@@
mour
recru@@
torped@@
ferred
inist
gher@@
dits
illumin@@
ernity
keting
rots
ege
ffe
event@@
sauro@@
onial
uten@@
ס@@
notor@@
strong@@
coff@@
independ@@
multic@@
iod@@
mathematic@@
critici@@
iety
ю@@
ü
vous
urance
iors
general-@@
trig@@
ologic
hyperb@@
ग@@
descend@@
entrepren@@
ʁ
threat@@
ப@@
onent
relax@@
docum@@
phag@@
า@@
aceful
flex@@
abbrevi@@
山@@
excav@@
eased
intenti@@
ン@@
sault
elihood
inhabit@@
outw@@
access@@
י
preced@@
onder@@
emented
terior
t-to-@@
dered
м
日@@
quanti@@
yt@@
aceans
dition
ɕ@@
ilization
orts
extinc@@
ance@@
َ@@
abal@@
tites
tles
rupe@@
attribu@@
xima
streng@@
lymp@@
alco@@
ṣ@@
legisl@@
number-@@
hous@@
part-@@
teen@@
ض@@
forcement
foli@@
advoc@@
conspir@@
consider@@
deriv@@
determin@@
borrow@@
ellow@@
negl@@
cerebr@@
ù
ifications
birth@@
contin@@
knock@@
calci@@
yme
ucc@@
lyric@@
צ@@
unciation
unanim@@
inists
tility
import@@
éph@@
ived
vess@@
č
ت
dison
taining
ğ@@
testim@@
ugs
conj@@
ş
territ@@
introduc@@
amorph@@
inned
boo
recep@@
athe
aving
doms
alous
è
ction
ept
artments
embr@@
supp@@
runk
子
pora
gend
aes@@
govern@@
fles
magistr@@
nez
elim@@
aughter
sustain@@
emor@@
respon@@
repl@@
仁@@
sting@@
ř@@
onau@@
ය
meister
astly
accus@@
olian
eption
prac@@
nery
آ@@
wavel@@
tempor@@
continu@@
த
atj@@
ַ@@
clus
visional
ʰ@@
omen
ikes
rons
antin@@
homos@@
ictions
rupted
partic@@
म@@
demon@@
compar@@
eal
宮@@
eons
izard
bek@@
plets
erial
thirds
न@@
social@@
attles@@
devast@@
ἀ@@
ɡ
ativity
contempor@@
þ@@
knigh@@
aerobic
с
agons
リ@@
sugg@@
aught
angar@@
1993-@@
mises
abolic
categor@@
ு
assaul@@
itat
ofer
ifers
itness
metaph@@
erals
commer@@
դ@@
ス@@
operative
small@@
zygote
orator@@
ceas@@
spokes@@
ograp@@
precur@@
psychiat@@
ু@@
ror
eros@@
uter
rook@@
postp@@
garde
try@@
ն@@
roun@@
ctic
ient
ئ@@
ද
ocrine
landsc@@
rito
debu@@
idly
skirts
ther-@@
ი@@
beet@@
ycle
empir@@
գ@@
ascular
pren@@
convinc@@
̪
entalist
spher@@
der-@@
emin@@
environ@@
escor@@
turally
ulp@@
aper
atorial
design@@
opic
ස
ą@@
prosper@@
gious
caff@@
ை
joint@@
cantil@@
omial
ω
omatic
taic
assy
gau
fter
eches
gency
exclud@@
semif@@
ṉ@@
ße
yrna
ustr@@
pedes
य@@
rors
subur@@
acharya
certainty
ryp@@
aller
divor@@
و
thest
edom
award-@@
ன
monopol@@
ы
ival@@
國@@
odic
hrer
cipher@@
ned@@
lude
cuit
engra@@
anding
‑
atters
unda
ival
ï
apers
attor@@
wheel@@
explan@@
ル@@
beam@@
āk@@
urrec@@
militi@@
hiz@@
achel@@
ہ
dios
ooth
स@@
achers
ξ@@
本@@
itor@@
eably
mang@@
addi@@
շ@@
theses
practic@@
toire
otechn@@
ystem
ή
oglob@@
invest@@
itive
etry
ֹ@@
イ@@
atit@@
sail@@
х
control@@
symb@@
≈
lized
thenes
rations
torto@@
crimin@@
consolid@@
enorm@@
oppers
promot@@
depres@@
ি@@
attrac@@
resul@@
para-@@
agic
ogy
pay-@@
trance
stuff@@
eor@@
ṇ@@
chromos@@
eyer
madrig@@
alen
ղ@@
高@@
escap@@
assis
obst@@
anatom@@
ன@@
க
anks
allel
tage
藤@@
pancre@@
gluc@@
believ@@
ević
peric@@
encour@@
diab@@
cial
վ@@
het@@
国@@
exerc@@
ে@@
patron@@
iff@@
ary@@
ebra
agement
angs
mination
ṯ@@
arly
iment
great@@
holid@@
sers
herbiv@@
श
remov@@
liest
icine
tiveness
etric
ambul@@
ţ@@
oppos@@
क@@
municip@@
eary
doctr@@
keep@@
resent@@
estig@@
meaning@@
crit@@
qua
§
‡
react@@
inking
deterior@@
labour@@
¡
terson
discipl@@
accordi@@
struction
desc@@
uries
ɫ@@
ă
ù@@
aff
в
ु@@
echin@@
prem@@
live-@@
ő@@
morphism
mith
eleph@@
urbation
firm@@
portedly
urity
complex@@
privileg@@
expect@@
nucleoti@@
tified
sider
fail@@
stead@@
ellation
comfor@@
ー
明@@
metic
namesp@@
privil@@
brilli@@
strongh@@
ski@@
antenn@@
annel
icient
jah
ան
ound
gradi@@
astronom@@
র
ක@@
alve@@
itin
ṟ@@
colloqu@@
simil@@
rops
ingham@@
financi@@
depos@@
restaur@@
teleph@@
aign
urai
toil@@
fratern@@
atical
crypto@@
美@@
ń
כ@@
onics
rysum
signment
ydi@@
esetting
exclusi@@
ˠ@@
arran@@
trous@@
riers
ा
seed@@
tunn@@
scha@@
ё@@
skel@@
accur@@
რ@@
tural
bited
জ@@
compan@@
ē
pheas@@
teach@@
flatt@@
安@@
正@@
achiev@@
etically
cluded
ց@@
ikov
abs@@
engue
vinn@@
idic
scars
correspond@@
prises
rella
breath@@
noctur@@
ushed
peculi@@
ז@@
counters
ution@@
espan
ór@@
sured
apul@@
ζ@@
erta
ritic
promp@@
ш
ნ@@
estu@@
occas@@
toms
desir@@
icul@@
modest@@
ğ
田@@
combin@@
ggs
lear@@
conclud@@
ressi@@
ற@@
canv@@
iency
ক@@
pheric
defin@@
ensem@@
recept@@
ween
atom@@
rower
sponsor@@
時@@
eka
fted
ularly
ள@@
dimentary
tetra@@
illion
grin@@
friend@@
ticle
gruppe
স@@
ymes
avir@@
habil@@
ancing
sher
echn@@
acceler@@
provin@@
scriptions
football@@
ந@@
harm@@
amni@@
ecoreg@@
azz
이@@
uation
eia
ג@@
ہ@@
ipers
ى
暦
adju@@
phenom@@
acter@@
tness
要@@
ন@@
spontane@@
ை@@
xim@@
文@@
ý@@
mie
antel@@
horsesh@@
ร@@
א
ingent
ண@@
etical
medium-@@
ウ@@
equip@@
parro@@
ல@@
和@@
preli@@
ques@@
inval@@
spon@@
ั@@
হ@@
incid@@
amoun@@
acquis@@
incl@@
merchand@@
station@@
ollah
ferences
inely
三@@
dict
elage
島@@
puzz@@
ּ@@
լ@@
yfish
figh@@
oppy
inhab@@
exac@@
forman@@
estic
explos@@
macroph@@
promis@@
forelim@@
electri@@
ब@@
machin@@
น@@
द
ŏ@@
porters
199@@
umption
マ@@
া
・
protoc@@
ergies
hadros@@
chest@@
京@@
father-@@
coordin@@
ח@@
র@@
化@@
emet@@
sulfur@@
inet
ġ@@
ustice
grained
γ
aureate
徳@@
ल@@
cylind@@
substr@@
tress
ј@@
oughts
ciph@@
espec@@
ћ
ே@@
න
emi@@
sophis@@
saxoph@@
д
seaw@@
winkle
demol@@
sych@@
vity
astero@@
umb
seem@@
ext
hybridi@@
olen
interchang@@
ʃ
tribut@@
elong@@
nosis
ensions
erly
̯
fications
explic@@
reless
foll@@
minis@@
vivi@@
nament
ș@@
knowle@@
hj@@
northeast@@
press@@
timately
bage
nodon@@
ø
depar@@
jell@@
金@@
mush@@
announ@@
olecular
abled
ithec@@
花@@
iser@@
hosp@@
ussions
exhau@@
ź
社
rub
estry
consist@@
competi@@
ส@@
wip@@
urch
武@@
othic
terra@@
elist
治@@
otten
odium
´
shif@@
ско@@
paleont@@
plum@@
û
heit
佐@@
citiz@@
川@@
inets
emental
দ@@
imeter
acchar@@
missioned
ophyll
皇@@
য
ھ@@
direct-to-@@
uated
fman
च@@
perfec@@
idy
utely
choreograph@@
क
amma
onder
yya
bria
カ@@
exce@@
capsul@@
ी@@
vening
ymb@@
boycot@@
igned
ernal
famili@@
icated
ŭ
ッ@@
ä
ogaster
س
fixes
fine-@@
aum
weap@@
veri@@
uming
asy@@
eukary@@
rhyth@@
ectively
े@@
prising
usol@@
prison@@
ience
qualif@@
onymous
ク@@
ற
ammar
ʿ@@
torn@@
ン
ementary
unve@@
cular
autobi@@
metabol@@
structive
ρ
ropical
ɵ@@
drow@@
promo@@
telecommun@@
新@@
reviv@@
egr@@
proced@@
dred
otherap@@
ְ@@
ම
viscos@@
성
onn
homosex@@
δ
ව
ė
succe@@
quadrup@@
olar
द@@
ieve
obile
liff
juven@@
gradu@@
eccentric@@
√
vap@@
thermodynam@@
フ@@
ف
decid@@
oyage
ท@@
dispos@@
ignment
wides@@
ressive
ɕ
liance
superi@@
ত@@
atas
ט@@
nostr@@
plic@@
첩
cerem@@
erous
eles
agues
obacter@@
religi@@
isely
ʼ@@
umbers
agles
instrumentalist
energe@@
代
শ@@
confisc@@
ٹ@@
genu@@
ł
な@@
ῆ@@
indness
レ@@
ন
ප@@
icial
amalg@@
prep@@
arding
ooth@@
上@@
deter@@
ener@@
ِ@@
ner-@@
ィ@@
ч
olu
人@@
平@@
香@@
オ@@
ი
physic@@
ã@@
自@@
uing
performan@@
rano
º@@
ά
lae
ொ@@
entions
didgerid@@
spired
elyn
ebu
thouse
ர
marily
filtr@@
thresh@@
sibility
ǐ@@
≤
ė@@
develop@@
국@@
ী@@
ὁ
デ@@
hima
北@@
perihel@@
民@@
ɾ
photosyn@@
reci@@
vial
ப
ê
ළ
paramet@@
小@@
ventions
ographical
і
transpor@@
成@@
ম
immob@@
ল
excell@@
ucer
松@@
scribed
osper@@
心@@
itage
म
thedr@@
witn@@
ilities
eptual
ම@@
ִ@@
áz@@
feath@@
shoul@@
ย@@
alth
ி
iation
olor
人
philos@@
trag@@
esto
tball
ife
derly
transfer@@
differenti@@
խ@@
iß@@
∂
inguished
izable
ectural
ɲ@@
ě
重@@
ε
axy
awar@@
tised
ב
↘
タ@@
φ
clud@@
ectus
monot@@
habilitation
თ@@
solub@@
clusion
ῖ@@
sues
tenstein
ʋ@@
ო@@
cians
sop
إ@@
산
ḍ@@
synd@@
elds
ّ@@
combus@@
netic
thum@@
quiry
ק@@
山
ellow
ं@@
港@@
pressors
崇@@
endow@@
ת@@
소@@
tistic
gret
ћ@@
स
raction
υ
ʔ@@
enem@@
sohn
subst@@
道
ァ@@
定@@
tdown
չ@@
busi@@
়
ト
。
ographies
有@@
osph@@
伊@@
孝@@
penicill@@
п
acco
aboration
peas@@
entum
ʲ
attan
台@@
界@@
ֵ@@
mant
vious
ticated
newsp@@
tainment
estor
ய
sacri@@
oge@@
excep@@
王
suing
analog@@
sion@@
acron@@
ش
treat@@
targ@@
etion
ξ
rances
ipel@@
iversary
bula
ħ@@
고@@
extensi@@
clusi@@
comedy-@@
財
oskel@@
experi@@
forti@@
‖
ʏ@@
perspec@@
represent@@
weal@@
シ@@
ք@@
bacter@@
oglobin
அ@@
的@@
symph@@
բ@@
teles@@
公@@
ateau
conjug@@
太@@
მ@@
pay-per-@@
toral
gae
長@@
ommun@@
inals
ilians
ю
ound@@
atmos@@
abling
ল@@
ナ@@
ガ@@
ミ@@
하@@
mage
御@@
icular
yi@@
cushi@@
ド@@
harbor@@
spati@@
antas@@
guarante@@
ications
ǔ@@
պ@@
玉@@
spic@@
abund@@
ज@@
ther-in-law
vehic@@
fragm@@
oca@@
ิ@@
volati@@
whol@@
一@@
ک
ive-@@
本
fiable
ノ@@
every@@
riving
ç
anol
蛇
비@@
urious
pires
etters
に@@
橋
piec@@
秀@@
ो@@
ם
ʀ@@
ο
ண
echan@@
predec@@
meet@@
生@@
զ@@
ワ@@
一
ἐ@@
tubercul@@
愛@@
न
professi@@
加@@
õ@@
percent@@
nebul@@
প@@
situ@@
त@@
genous
≥
onous
ʂ@@
ლ@@
ɦ@@
leman
대
tisan
外@@
元@@
海@@
brium
rement
ல
secs
た@@
我@@
iley
omotive
学
cous@@
장@@
ү@@
prost@@
ւ@@
omo@@
selves
valent
ficate
ercul@@
ocket
ց
possib@@
itance
田
世@@
conflu@@
コ@@
親@@
川
ulty
西@@
opin@@
ération
suppos@@
ア@@
airy
number@@
̌
sequent
ր
ल
singer-@@
cept
opf
ং@@
ය@@
자@@
ก@@
trigonom@@
เ@@
irrig@@
内@@
村@@
у
ד
diss@@
ি
ǐ
沙@@
alumin@@
ই@@
mian
eums
区
odynam@@
晚@@
五@@
ographically
equili@@
↗
zb@@
ա
uces
և@@
entre@@
upri@@
degre@@
igners
報
dismis@@
ÿ@@
ി@@
て@@
え@@
ע
stret@@
定
spaw@@
ellations
strum@@
genetic@@
道@@
politi@@
cepts
zard
‰
kilo@@
ḥ
satell@@
市@@
上
1-12
う@@
bound@@
ド
都@@
ḇ@@
ক
ვ@@
沢
妹@@
特@@
diction
塘@@
ʒ
besieg@@
খ
ズ@@
laxis
iscent
quartered
obiology
미@@
い@@
ව@@
brevi@@
exhibi@@
̩
จ@@
ekater@@
delim@@
ீ@@
宇@@
լ
部@@
ission
주
ickness
festiv@@
士@@
어
alion
ẓ@@
生
hect@@
ὑ@@
ъ@@
ট
別@@
黄@@
stereo@@
℃
∞
ḷ@@
mise
古@@
ﻮ@@
학@@
brae
見@@
교
ellery
ketch@@
朝@@
モ@@
后
antibio@@
actory
逆@@
त
ﻓ@@
ダ@@
八@@
張@@
沽@@
recover@@
麻@@
光@@
omeo
京
भ@@
∘
天
ა
部
̍
ither
umed
조@@
immig@@
銀@@
ð
府
功@@
onable
retur@@
÷
パ@@
ɲ
會
弁@@
accept@@
abies
paren@@
bele
ῦ@@
allic
sip@@
ahed@@
suscep@@
mistak@@
ֶ@@
assium
ニ@@
प@@
̥
ʎ@@
春@@
erick
hyth@@
camoufl@@
ந
行
lefield
dol
神
askia
아@@
duced
laund@@
athle@@
propul@@
後@@
仲@@
도
differ@@
დ@@
º
tect@@
維@@
ť@@
antit@@
lave
espe@@
宮
何@@
archit@@
erun@@
대@@
반@@
慶@@
resembl@@
ropolitan
ʙ
ṛ@@
国
flamm@@
interv@@
ラ@@
정@@
щ@@
ancest@@
resour@@
isions
ռ@@
icop@@
）
cher-@@
issions
ُ@@
ব
recombin@@
éron@@
engu@@
ण
鐵@@
木
substanti@@
imprison@@
ी
althy
지@@
hip-@@
ظ@@
suffici@@
б
tetrap@@
cil
ャ@@
野@@
oye
ე@@
agricul@@
攻@@
ώ@@
ங
ル
司
城
stanbul
ption
♮
（
ἄ@@
volunte@@
mediate
式@@
清@@
ს@@
ල
泉@@
關@@
õ
ữ
經
microw@@
istered
defenc@@
타@@
ί
ム@@
ḱ@@
ِ
referend@@
tillery
帝
七@@
य
韓@@
tremend@@
quantit@@
ර@@
セ@@
estial
第@@
®
眼@@
ordinates
ensive
娘
ɹ@@
splic@@
thern@@
無@@
iera
千@@
racks
ड@@
ग
ว@@
두
hypothes@@
lable
ո
ট@@
市
τ
embers
ệ@@
ż
反@@
ő
asth@@
漢@@
ín@@
reason@@
央@@
原@@
福@@
り
refus@@
shoppers
ict-@@
drome
立@@
certain@@
icill@@
փ@@
ׁ@@
propor@@
theast@@
uchus
智@@
intro@@
igning
限@@
後
etc@@
章
ხ@@
ز
면
良
য@@
義@@
entice
ギ@@
éronauti@@
ས
manufactur@@
方
ボ@@
ț@@
overl@@
池
น
nesium
ymers
ả@@
安
사
お@@
と
昭@@
照@@
з
ysler
ไ@@
ལ
column@@
dest
opy
ǎ
yrus
協@@
城@@
江@@
空@@
ḻ@@
開@@
ா
林@@
itly
傻@@
ǣ@@
戦@@
威
albe@@
ত
etly
箸
ල@@
路
bure@@
unate
毘@@
호
谷@@
岡@@
э
ɹ
inters
stral
tenance
幕@@
説
望
document@@
atjara
ś
ร
ligence
前@@
白@@
寧@@
飛
publ@@
skar
ɸ
会
記
강@@
炎
ะ@@
ロ
往@@
ψ
政@@
ibal@@
〈
陳@@
caterpill@@
夫
absol@@
descri@@
笑@@
流@@
〉
minal
curv@@
ї@@
¿
ハ@@
教@@
ච
ľ@@
全@@
़
zhan@@
っ@@
ひ@@
俊@@
節@@
文
문
世
↑
earli@@
anical
軍
suspic@@
plicity
chival@@
htt@@
茶
chall@@
curren@@
missi@@
iday
り@@
adoes
ñ
rida
좋@@
島
も@@
ङ
만@@
撃@@
녀@@
ジ@@
ย
伏@@
अ@@
same-@@
선@@
յ
guid@@
achar@@
富@@
ḓ@@
ɳ
ट@@
cury
recruit@@
ã
崎@@
荷@@
幣@@
ச
と@@
vai
中
ancer
藻@@
repeat@@
plo@@
ewise
غ
れ@@
ecture
anded
ْ@@
○
ழ@@
語
anbe@@
伝@@
스@@
雪@@
貫@@
iju@@
relati@@
achn@@
＿
ག
电@@
oche
草@@
ძ@@
で@@
plications
ܐ
chloropl@@
ோ@@
ஆ@@
ো@@
紀@@
鏡@@
수@@
こ@@
ˠ
abo@@
ਬ@@
菜
দ
幡@@
ਾ
enge@@
影@@
未@@
ী
ロ@@
年@@
陵
枝
ض
吉
ス
巻
ﻀ@@
caret@@
ช@@
迪@@
부@@
淳@@
시@@
현@@
paradig@@
ණ
サ@@
ahua
ب
宝@@
科@@
ồ
制@@
phony
ů@@
mone
โ@@
イ
page@@
game@@
隊
signific@@
仁
岩@@
proper@@
前
encycl@@
lighted
ど@@
森
き
ூ@@
風@@
eath
④
parallel@@
백@@
ق
உ@@
strug@@
度
佛
青@@
iodi@@
ე
monary
ą
延@@
戸@@
renia
プ@@
柳@@
athetic
earthqu@@
ك
豆
utro@@
ध@@
根@@
土@@
인
ළ@@
藤
舞@@
disambigu@@
峘
চ@@
immedi@@
승@@
オ
ἱ@@
amins
門
镜@@
뽀@@
‐
豆@@
선
egraph
ප
fisc@@
井
role-@@
ਟ@@
葉@@
鹿@@
ế
arith@@
obox
之@@
ਾ@@
eties
urric@@
學
ّ
ikovsky
카@@
ह@@
leau
路@@
グ@@
bedded
河@@
ズ
ẹ
ℓ
李@@
酒
ค@@
琴
學@@
arthri@@
세@@
チ@@
န
朱@@
ڪ@@
aggle
車@@
octop@@
黒@@
უ@@
ὦ@@
週@@
柯@@
즈
monit@@
物@@
부
喃
ễ@@
철
甘@@
ricul@@
ტ@@
կ
ى@@
licens@@
argu@@
기@@
海
diffic@@
ɚ
ุ@@
門@@
ruz
代@@
波@@
⅕
ܝ@@
兵@@
black-and-@@
ἔ@@
oute
ェ@@
ὰ
ceram@@
ධ
gebra@@
삼@@
ਰ@@
혜@@
শ
oho
椒@@
地@@
滝@@
skelet@@
ʾ@@
연
distri@@
philis
ج
prentice
prodig@@
두@@
accomp@@
☉
ै@@
χ
obsol@@
臺@@
賢@@
പ@@
න@@
pani
extrater@@
ヨ@@
縄@@
子@@
alent
molec@@
ὕ@@
ང
ਘ
ɨ
istance
আ@@
₤
ば@@
aiss@@
ର
ἑ@@
ֆ@@
영@@
민@@
ɱ
野
甲@@
ล@@
azine
adrons
南@@
tionaries
ბ@@
庆@@
东@@
essay@@
國
장
阿@@
բ
ḗ@@
ඩ@@
larv@@
̂
雇@@
renov@@
分
君
ধ
ਸ@@
株@@
matory
明
ਿ
amphibi@@
help@@
ľ
relativis@@
accep@@
良@@
psyched@@
â
ˤ@@
antum
ʔ
聖@@
キ@@
inaugur@@
尊@@
গ
ள
港
émie
sovereign@@
വ@@
ゲ@@
प
lege
樂@@
ٽ@@
merch@@
⋅
∧
ќ@@
ḡ@@
구@@
理
保@@
十@@
ongh@@
斗
خ
夏@@
ھ
毓@@
粉@@
幸@@
坂
저
reven@@
石
キ
校
杨@@
restor@@
چ@@
경@@
ช
エ@@
bance
陽
ښ@@
次@@
女@@
ճ@@
ੂ@@
isons
양
ḇ
리@@
හ
去@@
ruption
沖@@
街
busin@@
々@@
郎@@
メ@@
ศ@@
გ@@
thiest
enzies
engrav@@
success@@
ovina
利@@
erina
기
線
妓
晴
內@@
満@@
⅝
綏@@
blings
名@@
ヒ@@
semicon@@
履@@
ȡ
微@@
매@@
が@@
ง@@
술@@
船
遺@@
پ
venom@@
ˀ@@
防@@
傳
百@@
嵯@@
ზ
연@@
倉@@
promin@@
垂@@
ブ@@
廃@@
卉@@
烈@@
梅
靖@@
飞
峨@@
උ@@
漫@@
위@@
打
awea
ஞ
centimet@@
！
ש
chins
持@@
automo@@
choos@@
ڑ@@
関@@
養@@
梦@@
碧@@
¬
등@@
ツ@@
무@@
목@@
ạ@@
yses
会@@
暦@@
ecy
周@@
船@@
舟@@
童@@
牧@@
黑@@
作
多@@
neighbor@@
鎌@@
料@@
珍
̤
散@@
用@@
ु
ち@@
ュ
討@@
覺@@
ﻨ@@
ち
統@@
カ
ὸ@@
房
聯@@
才@@
ʀ
滸@@
喜@@
力@@
務@@
ط
男
ὸ
鳥@@
ᐊ@@
ञ
江
ဂ
永@@
lightless
华@@
불@@
偉@@
楠@@
onautical
干@@
strength@@
북
馬@@
須@@
飯@@
ക@@
悠@@
衣
尼
岡
現@@
neath
áp@@
ᑲ
寛@@
ᓘ@@
tware
置@@
歌@@
节@@
諾
№
marsup@@
手@@
ɥ@@
覧@@
vertis@@
్
陵@@
走
熹
ĩ@@
특@@
ồ@@
釜@@
光
联@@
際@@
ס
右@@
亀@@
到
algorith@@
siles
比@@
খ@@
彦
災
십@@
enue
紀
ṅ@@
石@@
ஜ@@
舒@@
吳@@
ẽ@@
ở
े
ெ@@
є@@
락
鮮
塊@@
德@@
柏
幣
≠
alyp@@
喬@@
列@@
ৈ@@
modynam@@
ứ@@
二@@
宣@@
圭@@
走@@
์
松
ẓ
단
裁@@
ඌ@@
ermen
อ@@
弾@@
原
ħ
角
ാ@@
溪
ല@@
榜
慈@@
奈@@
対@@
方@@
래
条@@
ּ
യ
宇
ishable
ę
甲
浦
ஊ@@
蓁
남@@
sane
ད
韶
г
電@@
報@@
ĉ@@
拓@@
젓@@
ק
幹@@
套@@
敏@@
야@@
ﻋ@@
ब
蓮@@
edal
な
湘@@
け
医@@
髙@@
름@@
臣
招@@
ธ@@
希
घ@@
成
의
炎@@
郎
ʉ@@
檔
ڀ@@
奖
媛@@
ホ@@
밥
interf@@
tany
亞@@
hybri@@
eup
ˤ
众@@
semble
卿
냉@@
ギ
ീ@@
兰@@
意
가@@
ณ@@
軒@@
か@@
ɳ@@
墟
知@@
最@@
庁@@
umn
monast@@
ǔ
sted@@
usic
半@@
titudes
ʷ
치@@
춘@@
들@@
egar
ŷ
ペ@@
ष@@
이
辣
ſ
۞
타
umph
笠@@
バ@@
钏
இ@@
越
苗
ʑ@@
∪
雄@@
ყ@@
継@@
콜
ぐ@@
藍@@
ớ@@
ழ
氏@@
行@@
黑
団
坂@@
寺
ज
ਸ
พ@@
広@@
ポ@@
続@@
輔
ザ@@
♋
陽@@
楽@@
려
hormon@@
伝
ม@@
♒
姉@@
支
engine@@
博@@
ithia
포@@
ծ@@
転@@
約
̇
法@@
恩
̮
ᒡ@@
ȵ
性@@
給@@
ɫ
phins
徂@@
원
숭@@
ź@@
タ
redi@@
他@@
나@@
യ@@
終@@
aints
∩
athering
儀@@
칠@@
청@@
닛
謙
宋@@
深@@
紫@@
ჩ@@
納@@
茂
策@@
ŝ@@
碟
敵@@
ピ@@
よ@@
約@@
视@@
simultane@@
県@@
活@@
黎@@
џ@@
별
黄
燭@@
includ@@
albat@@
ソ@@
짜
庁
패
surance
earch
mitted
ظ
infall
場@@
thern
ः
lifer@@
ܣ@@
가
rann@@
翠@@
懿@@
画@@
歯@@
頭
ใ@@
ں
ấ@@
footh@@
關
来
基@@
君@@
歡@@
コ
roundings
朗
ʕ@@
മ@@
葛@@
찬@@
너@@
飛@@
信@@
争
ڈ@@
oiselle
仔@@
達@@
ハ
晃
farne
下@@
言
厳
祥
จ
旭@@
哀@@
潘@@
rewar@@
angaroo
宗
語@@
ث@@
展
말
省
স
六@@
汉
荻@@
տ
動
ア
綱@@
麒@@
ନ
堀@@
し@@
せ
ˁ@@
恭@@
嶺
บ@@
康@@
児@@
surviv@@
군@@
釜
め@@
農@@
浩
麟
つ@@
閑@@
chno@@
ـ@@
増@@
視@@
雄
ocide
ო
杉
requi@@
⊙
留@@
worl@@
remain@@
่
ố@@
계
訓
saan
探@@
王@@
improv@@
ข@@
登@@
わ@@
景@@
治
ゴ@@
ώ
電
武
熱@@
ﻞ
仙
酷
輸@@
淚
静@@
pean@@
ák
橫@@
承@@
肥@@
弉@@
ʿ
嘉@@
あ@@
ี@@
愛
頷@@
县
슈@@
prolong@@
ﻠ@@
ו
funct
ป@@
口
occa
帝@@
胆@@
among@@
蘭
ᠦ@@
竹@@
♟
洗@@
羽@@
卓@@
鏟@@
搜@@
居@@
園@@
職
♑
月@@
princi@@
陈@@
ォ@@
ს
水@@
ക
供@@
洛@@
義
ഡ@@
长@@
腦
芳
prolif@@
ὐ@@
ṃ@@
බ@@
系@@
竹
酷@@
izza
sedi@@
sesh@@
僕@@
mathemati@@
letin
判
날
霊@@
식@@
ү
♌
樹
賀@@
ള
燒@@
avig@@
박@@
夢@@
ň@@
ڈ
尼@@
崎
itary
effec@@
快@@
퍼@@
다
dlife
turer
ḍ
ඹ
consid@@
ゼ@@
近@@
好@@
elevision
衍@@
柳
nutme@@
au5
瑞
氣@@
essors
恵@@
四@@
痛
在@@
霧@@
夜@@
稲@@
κ
茶@@
다@@
♡
ˁ
생@@
草
ケ@@
로@@
指@@
례@@
ս
縣
ű@@
ץ
ශ
梨@@
ȴ
覧
つ
ต@@
宗@@
略@@
板
騒@@
近
通@@
은
ග
̧
す
呂
言@@
석
ར
ligent
먹@@
財@@
魔@@
信
ȶ
辰@@
ŭ@@
徠
soldi@@
角@@
ও
appren@@
ধ@@
♙
ま@@
텐
usie
号
आ@@
誠@@
state@@
你@@
申@@
劉@@
њ@@
に
ȝ@@
̊
brahim
砲
録@@
օ@@
ճ
河
辞
る@@
不@@
超@@
folkl@@
瑟@@
憲
umbent
거@@
漆@@
ductor
禮
ٽ
寇
推@@
여@@
를
線@@
念@@
alem
尚@@
˚
ড@@
水
薇
蹊@@
昂
亭
measu@@
羅
ezina
図@@
朝
옥@@
殷@@
仙@@
@
tiri
thetical
havi@@
unition
contigu@@
井@@
ribu@@
死@@
衛
∨
ә@@
ゆ@@
智
김@@
tyard
塚
都
야
μ
通
壽@@
ե
ș
ɒ
의@@
ܡ@@
efly
̆
ਮ
魂
ἦ@@
熊@@
箸@@
災@@
早@@
來
丸@@
오@@
ஒ@@
rements
ŝ
lighten@@
ῦ
由@@
起@@
포
չ
ノ
核@@
othermal
ŏ
운
irv@@
欢@@
快
ố
官@@
尋@@
蒲@@
频@@
协@@
cies
adies
鳳@@
币
ビ@@
동@@
震@@
estiv@@
梁@@
stard
刊@@
来@@
渡@@
꼼@@
니@@
‿
舎
分@@
ぶ@@
禹@@
ў
ἰ@@
ө@@
ੁ@@
태
辺
車
ভ@@
ʷ@@
unpreced@@
ষ
oday
ན
華@@
atops
presti@@
覽@@
吾
允@@
盟@@
⅜
冂
scription
鄭@@
峻@@
∀
insula
ถ@@
米@@
assies
⅔
ौ@@
호@@
ਦ@@
ộ@@
猿@@
stees
餅
온@@
는
晓@@
꾼
形
鮮@@
tcy
元
鐵
孙@@
̞
薔@@
흥
ඟ
昇@@
į
心
住@@
見
臨@@
య@@
ж
ἥ@@
ダ
テ@@
차
말@@
걸
克@@
碾@@
咸@@
く@@
熈@@
픽@@
ъ
外
disastr@@
ख
ფ@@
裕@@
記@@
ǒ@@
存@@
ळ@@
型
⅛
⟩
筝
apace
taries
战@@
ḽ
頤
న@@
수
を
雷
民
利
動@@
ˑ@@
̀
̟
ʐ@@
ٰ
∕
গ@@
韃@@
∼
င
윤@@
強@@
tigu@@
요@@
화
ତ
ᠢ
무
controver@@
浜
福
ְ
extrav@@
öm
ପ
ਹ
ప
ջ@@
呉@@
ynam@@
峡@@
ℝ
티@@
བ@@
シ
김
エ
ṭ
玉
ύ
型@@
宴
役
peror
ذ@@
答@@
해@@
苔
slan
就@@
字
କ
处
远@@
⁶
リ
ू@@
筷@@
西
근
專@@
vention
ؤ@@
datab@@
蟹
ਕ
ɶ@@
검@@
ད@@
̑
傑
禮@@
く
街@@
개@@
କ@@
岐
后@@
矢@@
坡@@
번@@
ṓ
periph@@
ਤ@@
爭
ܝ
俊
သ@@
敷@@
운@@
ainst
服
颠@@
桜@@
物
글
ᠡ@@
展@@
办@@
eases
居
қ@@
제@@
ɴ
물@@
出@@
ḫ@@
덕@@
黃@@
岩
،
fresco@@
थ@@
鄧@@
だ@@
인@@
ך@@
ʼ
홍@@
빔
燕@@
ਤ
ampion
梅@@
decl@@
롱@@
롱
ὀ@@
會@@
鄭
浮@@
操
경
ґ@@
ⁿ@@
ٌ@@
腐
瀋@@
sities
使@@
ocity
號
ର@@
導
ᠳ@@
慢@@
ඩ
ൂ@@
언@@
민
公
떡@@
씨
회@@
ూ
ž
ূ@@
朴
店@@
坝
ṓ@@
ὄ@@
ϊ@@
ئ
ვ
酒@@
ん
渖@@
鋼
rí@@
overn@@
¯
웅@@
ქ@@
雅@@
男@@
今@@
ḓ
間@@
ylum
전@@
戰@@
ဦ
期
ג
ശ
ଦ
ܪ@@
律@@
楊@@
건@@
は@@
糖@@
ぎ
树@@
算@@
蟹@@
≪
熙
झ@@
ĵ
哈@@
ଲ@@
ṋ
已
葱@@
ோ
金
社@@
ё
བ
준
琪
堂
ṅ
実
风@@
匹@@
罗
훈@@
斗@@
耳@@
尹@@
ە@@
群
국
clists
团
⟨
己
ܐ@@
ţ
ɟ@@
ཀ@@
ț
珠
字@@
命
ձ@@
ई
集
油
共@@
hippoc@@
九@@
ܢ@@
ܦ@@
խ
觉@@
ସ@@
艦@@
ห@@
漢
季@@
ũ@@
沢@@
로
興
ﬁ@@
َ
ὴ
囧@@
נ
그@@
薇@@
健@@
ⁿ
단@@
征@@
脚@@
ochond@@
aua
奥@@
遠@@
거
평@@
uppe
ө
랜@@
橋@@
太
引@@
ψ@@
問@@
爾
緯
ਦ
云@@
프@@
建@@
ふ
州
라@@
桜
我
革@@
阪@@
♜
峽
శ
jacent
超
慰@@
ܘ@@
ড
ƿ@@
oughout
ਗ@@
賽
eldon
龍@@
밀@@
儚@@
ʧ@@
tantly
翼
連@@
拳
果
ẖ
헛@@
纬
영
ජ@@
ܕ@@
mission@@
裝@@
隊@@
용@@
ێ@@
和
⇒
ṱ
花
ܩ@@
昌
ǧ@@
traff@@
庫@@
軍@@
ų@@
ट
趁@@
ܥ@@
應@@
勳@@
estus
那@@
안@@
ktop
otel
atured
午@@
派
♆
默@@
ἕ@@
运@@
버
拉@@
ར@@
먼@@
筷
ᠭ@@
座
任@@
帶
주@@
ੀ@@
데
ड
ῷ@@
큰
ˀ
ṇa
थ
殺@@
♐
乐
투@@
ἠ@@
동
ए@@
伯@@
∇
ହ
ղ
uds
vot@@
棣@@
絃@@
曉@@
agonist
̰
★
靼@@
常@@
sophom@@
ۆ@@
狂@@
egrass
터@@
洙
igan@@
ressional
물
에@@
창
봉@@
ګ@@
ਇ@@
鹽
邓@@
ň
ʝ@@
空
命@@
澤
在
invas@@
riage
ŗ@@
트
추@@
문@@
曹@@
家
ֲ@@
颐
迪
ସ
极@@
欽@@
事@@
易@@
圓
覆
범@@
ׂ@@
龍
偵
उ@@
엔@@
į@@
闘@@
偵@@
ధ@@
祐
임@@
ך
し
新
杰
選@@
綸
伐
斌
드@@
감@@
보@@
匂@@
ビ
츠
ਹ@@
吉@@
滿@@
ٚ@@
པ
chore@@
ů
←
盐
강
ぬ@@
상
动@@
酌
三
ĭ
huac@@
经
술
介
着@@
క@@
刘@@
非@@
아
團
ੂ
爱@@
囯
네@@
ণ
색
普@@
比
ख@@
efire
年
盤
汁
謙@@
ը
雲
禎@@
և
ଜ
thly
凡
테@@
ஸ
奉@@
ང@@
ٹ
マ
ument
波
姿
ܠ@@
͘
함@@
਼
佐
琴@@
ু
შ@@
gees
≡
ܛ@@
ツ
辅@@
এ@@
넬
희
դ
horizont@@
届@@
逸@@
ῶ@@
ര@@
অ@@
の
ม
훗
ح
롯@@
eball
伯
ග@@
ҷ@@
壤
釐
限
ਏ@@
乐@@
♎
邪@@
進
び@@
ပ
ह
彌@@
ַ
근@@
冨@@
nood@@
寺@@
歲@@
晚
↓
侯@@
面
ଭ
इ@@
व
ঘ@@
posthum@@
ム
♖
洲@@
propos@@
ء
娱@@
익@@
界
陀@@
bial
edy-@@
practi@@
ʈ
热@@
형@@
囧
ফ@@
찐@@
ば
萬@@
ᾶ@@
ʹ
astern
판
볶@@
성@@
sut
峡
ḏ@@
吴@@
궁
勁
总@@
බ
ȟ@@
렁@@
藏@@
ټ@@
